{
  "version": "1.0",
  "truncation": null,
  "padding": {
    "strategy": {
      "Fixed": 256
    },
    "direction": "Right",
    "pad_to_multiple_of": null,
    "pad_id": 1,
    "pad_type_id": 0,
    "pad_token": "<pad>"
  },
  "added_tokens": [
    {
      "id": 0,
      "content": "<unk>",
      "single_word": false,
      "lstrip": false,
      "rstrip": false,
      "normalized": false,
      "special": true
    },
    {
      "id": 1,
      "content": "<pad>",
      "single_word": false,
      "lstrip": false,
      "rstrip": false,
      "normalized": false,
      "special": true
    },
    {
      "id": 2,
      "content": "<bos>",
      "single_word": false,
      "lstrip": false,
      "rstrip": false,
      "normalized": false,
      "special": true
    },
    {
      "id": 3,
      "content": "<eos>",
      "single_word": false,
      "lstrip": false,
      "rstrip": false,
      "normalized": false,
      "special": true
    }
  ],
  "normalizer": null,
  "pre_tokenizer": {
    "type": "Whitespace"
  },
  "post_processor": null,
  "decoder": null,
  "model": {
    "type": "BPE",
    "dropout": null,
    "unk_token": null,
    "continuing_subword_prefix": null,
    "end_of_word_suffix": null,
    "fuse_unk": false,
    "byte_fallback": false,
    "ignore_merges": false,
    "vocab": {
      "<unk>": 0,
      "<pad>": 1,
      "<bos>": 2,
      "<eos>": 3,
      "\u0004": 4,
      "\u000e": 5,
      "\u000f": 6,
      "\u0010": 7,
      "\u0011": 8,
      "\u0012": 9,
      "\u0013": 10,
      "\u0014": 11,
      "\u0015": 12,
      "\u0016": 13,
      "\u0017": 14,
      "\u0018": 15,
      "\u0019": 16,
      "\u001a": 17,
      "\u001b": 18,
      "\u001c": 19,
      "\u001d": 20,
      "\u001e": 21,
      "\u001f": 22,
      "!": 23,
      "\"": 24,
      "#": 25,
      "$": 26,
      "%": 27,
      "&": 28,
      "'": 29,
      "(": 30,
      ")": 31,
      "*": 32,
      "+": 33,
      ",": 34,
      "-": 35,
      ".": 36,
      "/": 37,
      "0": 38,
      "1": 39,
      "2": 40,
      "3": 41,
      "4": 42,
      "5": 43,
      "6": 44,
      "7": 45,
      "8": 46,
      "9": 47,
      ":": 48,
      ";": 49,
      "<": 50,
      "=": 51,
      ">": 52,
      "?": 53,
      "@": 54,
      "A": 55,
      "B": 56,
      "C": 57,
      "D": 58,
      "E": 59,
      "F": 60,
      "G": 61,
      "H": 62,
      "I": 63,
      "J": 64,
      "K": 65,
      "L": 66,
      "M": 67,
      "N": 68,
      "O": 69,
      "P": 70,
      "Q": 71,
      "R": 72,
      "S": 73,
      "T": 74,
      "U": 75,
      "V": 76,
      "W": 77,
      "X": 78,
      "Y": 79,
      "Z": 80,
      "[": 81,
      "\\": 82,
      "]": 83,
      "^": 84,
      "_": 85,
      "`": 86,
      "a": 87,
      "b": 88,
      "c": 89,
      "d": 90,
      "e": 91,
      "f": 92,
      "g": 93,
      "h": 94,
      "i": 95,
      "j": 96,
      "k": 97,
      "l": 98,
      "m": 99,
      "n": 100,
      "o": 101,
      "p": 102,
      "q": 103,
      "r": 104,
      "s": 105,
      "t": 106,
      "u": 107,
      "v": 108,
      "w": 109,
      "x": 110,
      "y": 111,
      "z": 112,
      "{": 113,
      "|": 114,
      "}": 115,
      "~": 116,
      "": 117,
      "": 118,
      "": 119,
      "": 120,
      "": 121,
      "": 122,
      "": 123,
      "": 124,
      "": 125,
      "": 126,
      "": 127,
      "": 128,
      "": 129,
      "": 130,
      "": 131,
      "": 132,
      "": 133,
      "": 134,
      "¡": 135,
      "¢": 136,
      "£": 137,
      "¥": 138,
      "¦": 139,
      "§": 140,
      "¨": 141,
      "©": 142,
      "ª": 143,
      "«": 144,
      "­": 145,
      "®": 146,
      "¯": 147,
      "°": 148,
      "±": 149,
      "²": 150,
      "³": 151,
      "´": 152,
      "µ": 153,
      "¶": 154,
      "·": 155,
      "¹": 156,
      "º": 157,
      "»": 158,
      "¼": 159,
      "½": 160,
      "¾": 161,
      "¿": 162,
      "À": 163,
      "Á": 164,
      "Â": 165,
      "Ã": 166,
      "Ä": 167,
      "Å": 168,
      "Æ": 169,
      "Ç": 170,
      "È": 171,
      "É": 172,
      "Ê": 173,
      "Í": 174,
      "Î": 175,
      "Ï": 176,
      "Ñ": 177,
      "Ó": 178,
      "Ô": 179,
      "Ö": 180,
      "×": 181,
      "Ø": 182,
      "Ù": 183,
      "Ü": 184,
      "ß": 185,
      "à": 186,
      "á": 187,
      "â": 188,
      "ã": 189,
      "ä": 190,
      "å": 191,
      "æ": 192,
      "ç": 193,
      "è": 194,
      "é": 195,
      "ê": 196,
      "ë": 197,
      "ì": 198,
      "í": 199,
      "î": 200,
      "ï": 201,
      "ñ": 202,
      "ó": 203,
      "ô": 204,
      "ö": 205,
      "÷": 206,
      "ø": 207,
      "ù": 208,
      "ú": 209,
      "û": 210,
      "ü": 211,
      "þ": 212,
      "ā": 213,
      "Œ": 214,
      "œ": 215,
      "Ş": 216,
      "Š": 217,
      "ʼ": 218,
      "ˆ": 219,
      "˜": 220,
      "Θ": 221,
      "α": 222,
      "β": 223,
      "δ": 224,
      "τ": 225,
      "ϑ": 226,
      "‐": 227,
      "‑": 228,
      "–": 229,
      "—": 230,
      "―": 231,
      "‘": 232,
      "’": 233,
      "‚": 234,
      "“": 235,
      "”": 236,
      "†": 237,
      "‡": 238,
      "•": 239,
      "…": 240,
      "″": 241,
      "›": 242,
      "⁮": 243,
      "€": 244,
      "™": 245,
      "⅓": 246,
      "⅛": 247,
      "⅜": 248,
      "⅝": 249,
      "→": 250,
      "⇒": 251,
      "−": 252,
      "∗": 253,
      "√": 254,
      "≈": 255,
      "≤": 256,
      "≥": 257,
      "⌧": 258,
      "⎯": 259,
      "─": 260,
      "■": 261,
      "□": 262,
      "▪": 263,
      "▲": 264,
      "▼": 265,
      "●": 266,
      "◦": 267,
      "♦": 268,
      "✓": 269,
      "✔": 270,
      "✘": 271,
      "❍": 272,
      "❏": 273,
      "❑": 274,
      "➜": 275,
      "➠": 276,
      "": 277,
      "": 278,
      "": 279,
      "": 280,
      "": 281,
      "ﬀ": 282,
      "ﬁ": 283,
      "ﬂ": 284,
      "ﬃ": 285,
      "ﬄ": 286,
      "�": 287,
      "th": 288,
      "in": 289,
      "an": 290,
      "on": 291,
      "er": 292,
      "ti": 293,
      "or": 294,
      "es": 295,
      "en": 296,
      "the": 297,
      "al": 298,
      "ar": 299,
      "ed": 300,
      "of": 301,
      "tion": 302,
      "at": 303,
      "re": 304,
      "is": 305,
      "and": 306,
      "to": 307,
      "ing": 308,
      "ro": 309,
      "ic": 310,
      "ent": 311,
      "ou": 312,
      "it": 313,
      "ation": 314,
      "as": 315,
      "le": 316,
      "for": 317,
      "ch": 318,
      "om": 319,
      "st": 320,
      "ad": 321,
      "il": 322,
      "pro": 323,
      "ec": 324,
      "ment": 325,
      "res": 326,
      "ac": 327,
      "ve": 328,
      "id": 329,
      "su": 330,
      "he": 331,
      "00": 332,
      "ce": 333,
      "ers": 334,
      "un": 335,
      "lo": 336,
      "be": 337,
      "am": 338,
      "ter": 339,
      "ear": 340,
      "tr": 341,
      "se": 342,
      "com": 343,
      "por": 344,
      "ta": 345,
      "ol": 346,
      "ur": 347,
      "de": 348,
      "pl": 349,
      "ate": 350,
      "In": 351,
      "ts": 352,
      "ap": 353,
      "con": 354,
      "ul": 355,
      "are": 356,
      "im": 357,
      "ab": 358,
      "that": 359,
      "ex": 360,
      "no": 361,
      "ir": 362,
      "..": 363,
      "ity": 364,
      "ag": 365,
      "us": 366,
      "em": 367,
      "ig": 368,
      "ly": 369,
      "ci": 370,
      "Can": 371,
      "ess": 372,
      "ay": 373,
      "earch": 374,
      "Canad": 375,
      "te": 376,
      "port": 377,
      "iv": 378,
      "qu": 379,
      "The": 380,
      "ith": 381,
      "200": 382,
      "par": 383,
      "oun": 384,
      "if": 385,
      "our": 386,
      "per": 387,
      "ther": 388,
      "wh": 389,
      "um": 390,
      "with": 391,
      "et": 392,
      "cl": 393,
      "form": 394,
      "ion": 395,
      "und": 396,
      "od": 397,
      "ver": 398,
      "by": 399,
      "ct": 400,
      "ill": 401,
      "iti": 402,
      "el": 403,
      "pr": 404,
      "po": 405,
      "alth": 406,
      "ew": 407,
      "research": 408,
      "ations": 409,
      "ip": 410,
      "tu": 411,
      "not": 412,
      "gr": 413,
      "ib": 414,
      "Canada": 415,
      "rom": 416,
      "prov": 417,
      "able": 418,
      "end": 419,
      "co": 420,
      "ud": 421,
      "me": 422,
      "tax": 423,
      "from": 424,
      "sh": 425,
      "ated": 426,
      "du": 427,
      "ST": 428,
      "ha": 429,
      "all": 430,
      "ain": 431,
      "you": 432,
      "will": 433,
      "Re": 434,
      "tive": 435,
      "go": 436,
      "ple": 437,
      "ans": 438,
      "CI": 439,
      "....": 440,
      "ance": 441,
      "ies": 442,
      "ty": 443,
      "sti": 444,
      "tions": 445,
      "ect": 446,
      "ine": 447,
      "ant": 448,
      "dis": 449,
      "est": 450,
      "formation": 451,
      "comm": 452,
      "ber": 453,
      "fic": 454,
      "erv": 455,
      "iz": 456,
      "ard": 457,
      "ments": 458,
      "this": 459,
      "ary": 460,
      "ge": 461,
      "enti": 462,
      "als": 463,
      "cr": 464,
      "ere": 465,
      "age": 466,
      "sp": 467,
      "ld": 468,
      "bl": 469,
      "fer": 470,
      "ervic": 471,
      "sub": 472,
      "Res": 473,
      "year": 474,
      "ities": 475,
      "low": 476,
      "gram": 477,
      "HR": 478,
      "have": 479,
      "di": 480,
      "stitu": 481,
      "we": 482,
      "its": 483,
      "other": 484,
      "appl": 485,
      "part": 486,
      "health": 487,
      "ork": 488,
      "ount": 489,
      "ust": 490,
      "ase": 491,
      "__": 492,
      "up": 493,
      "ence": 494,
      "incl": 495,
      "pos": 496,
      "Th": 497,
      "tic": 498,
      "ef": 499,
      "Pro": 500,
      "vi": 501,
      "CIHR": 502,
      "under": 503,
      "ke": 504,
      "act": 505,
      "come": 506,
      "min": 507,
      "str": 508,
      "edu": 509,
      "information": 510,
      "For": 511,
      "ian": 512,
      "ass": 513,
      "ord": 514,
      "He": 515,
      "ide": 516,
      "one": 517,
      "sec": 518,
      "any": 519,
      "igh": 520,
      "sup": 521,
      "ll": 522,
      "do": 523,
      "ma": 524,
      "out": 525,
      "Com": 526,
      "ould": 527,
      "your": 528,
      "19": 529,
      "ind": 530,
      "ich": 531,
      "can": 532,
      "op": 533,
      "ue": 534,
      "pu": 535,
      "Un": 536,
      "ods": 537,
      "fund": 538,
      "ical": 539,
      "has": 540,
      "cess": 541,
      "pay": 542,
      "reg": 543,
      "ist": 544,
      "was": 545,
      "enc": 546,
      "cial": 547,
      "inter": 548,
      "tiv": 549,
      "pre": 550,
      "use": 551,
      "IN": 552,
      "ational": 553,
      "ore": 554,
      "pe": 555,
      "servic": 556,
      "10": 557,
      "which": 558,
      "Research": 559,
      "lop": 560,
      "Health": 561,
      "requ": 562,
      "erson": 563,
      "Canadian": 564,
      "velop": 565,
      "emp": 566,
      "mo": 567,
      "ow": 568,
      "Institu": 569,
      "af": 570,
      "ON": 571,
      "ne": 572,
      "work": 573,
      "inv": 574,
      "ire": 575,
      "ms": 576,
      "ild": 577,
      "ction": 578,
      "ach": 579,
      "ative": 580,
      "ign": 581,
      "Con": 582,
      "ied": 583,
      "resp": 584,
      "ens": 585,
      "person": 586,
      "income": 587,
      "loy": 588,
      "ted": 589,
      "Ch": 590,
      "ivers": 591,
      "val": 592,
      "may": 593,
      "program": 594,
      "RA": 595,
      "ven": 596,
      "includ": 597,
      "eral": 598,
      "cont": 599,
      "pres": 600,
      "urn": 601,
      "ug": 602,
      "trans": 603,
      "ating": 604,
      "ss": 605,
      "ial": 606,
      "view": 607,
      "amount": 608,
      "more": 609,
      "blic": 610,
      "goods": 611,
      "tain": 612,
      "ous": 613,
      "their": 614,
      "pur": 615,
      "Ex": 616,
      "cer": 617,
      "ree": 618,
      "rel": 619,
      "cal": 620,
      "12": 621,
      "ade": 622,
      "........": 623,
      "over": 624,
      "ese": 625,
      "No": 626,
      "ants": 627,
      "applic": 628,
      "ut": 629,
      "develop": 630,
      "ents": 631,
      "ual": 632,
      "io": 633,
      "aw": 634,
      "bo": 635,
      "ish": 636,
      "cip": 637,
      "hip": 638,
      "pa": 639,
      "ision": 640,
      "De": 641,
      "ors": 642,
      "cus": 643,
      "cons": 644,
      "ia": 645,
      "St": 646,
      "Tr": 647,
      "exp": 648,
      "ners": 649,
      "employ": 650,
      "man": 651,
      "section": 652,
      "ail": 653,
      "ph": 654,
      "cre": 655,
      "ER": 656,
      "ax": 657,
      "mit": 658,
      "provid": 659,
      "ure": 660,
      "olic": 661,
      "than": 662,
      "000": 663,
      "iness": 664,
      "av": 665,
      "new": 666,
      "ates": 667,
      "art": 668,
      "produ": 669,
      "usiness": 670,
      "umber": 671,
      "spec": 672,
      "ret": 673,
      "cul": 674,
      "services": 675,
      "proper": 676,
      "ive": 677,
      "13": 678,
      "cor": 679,
      "CT": 680,
      "ased": 681,
      "also": 682,
      "rece": 683,
      "If": 684,
      "Act": 685,
      "iversity": 686,
      "were": 687,
      "log": 688,
      "who": 689,
      "SA": 690,
      "ome": 691,
      "GST": 692,
      "des": 693,
      "This": 694,
      ").": 695,
      "ital": 696,
      "11": 697,
      "ility": 698,
      "been": 699,
      "acc": 700,
      "Institute": 701,
      "tal": 702,
      "inal": 703,
      "ory": 704,
      "IT": 705,
      "ible": 706,
      "public": 707,
      "ition": 708,
      "ject": 709,
      "sion": 710,
      "gan": 711,
      "),": 712,
      "ivid": 713,
      "gen": 714,
      "sy": 715,
      "20": 716,
      "identi": 717,
      "chan": 718,
      "cap": 719,
      "ific": 720,
      "now": 721,
      "istr": 722,
      "col": 723,
      "ces": 724,
      "fol": 725,
      "peri": 726,
      "____": 727,
      "AN": 728,
      "ob": 729,
      "commun": 730,
      "national": 731,
      "must": 732,
      "property": 733,
      "led": 734,
      "ame": 735,
      "support": 736,
      "mon": 737,
      "such": 738,
      "arr": 739,
      "2006": 740,
      "Of": 741,
      "ugh": 742,
      "ings": 743,
      "ben": 744,
      "import": 745,
      "An": 746,
      "Pr": 747,
      "ile": 748,
      "esti": 749,
      "follow": 750,
      "Ap": 751,
      "time": 752,
      "old": 753,
      "return": 754,
      "so": 755,
      "University": 756,
      "int": 757,
      "char": 758,
      "rough": 759,
      "RE": 760,
      "stem": 761,
      "ise": 762,
      "ateg": 763,
      "deter": 764,
      "199": 765,
      "AT": 766,
      "ganiz": 767,
      "fore": 768,
      "Wh": 769,
      "pri": 770,
      "Tax": 771,
      "ister": 772,
      "comple": 773,
      "non": 774,
      "cur": 775,
      "resid": 776,
      "Dr": 777,
      "orig": 778,
      "ace": 779,
      "gro": 780,
      "ack": 781,
      "these": 782,
      "report": 783,
      "business": 784,
      "nment": 785,
      "Ad": 786,
      "made": 787,
      "OR": 788,
      "To": 789,
      "15": 790,
      "CC": 791,
      "contr": 792,
      "ong": 793,
      "aim": 794,
      "ress": 795,
      "fin": 796,
      "tar": 797,
      "bec": 798,
      "ann": 799,
      "Br": 800,
      "ency": 801,
      "au": 802,
      "yl": 803,
      "2007": 804,
      "HST": 805,
      "ast": 806,
      "ight": 807,
      "ele": 808,
      "olicy": 809,
      "issu": 810,
      "2005": 811,
      "fec": 812,
      "partners": 813,
      "line": 814,
      "respon": 815,
      "toms": 816,
      "including": 817,
      "Program": 818,
      "cost": 819,
      "qual": 820,
      "tes": 821,
      "ider": 822,
      "parti": 823,
      "30": 824,
      "ound": 825,
      "ater": 826,
      "used": 827,
      "review": 828,
      "On": 829,
      "ired": 830,
      "Inter": 831,
      "individ": 832,
      "gu": 833,
      "eng": 834,
      "mis": 835,
      "through": 836,
      "cent": 837,
      "activ": 838,
      "provin": 839,
      "Ag": 840,
      "process": 841,
      "br": 842,
      "AL": 843,
      "vel": 844,
      "need": 845,
      "organiz": 846,
      "should": 847,
      "corpor": 848,
      "En": 849,
      "mar": 850,
      "mem": 851,
      "consider": 852,
      "ibu": 853,
      "lin": 854,
      "present": 855,
      "resul": 856,
      "educ": 857,
      "red": 858,
      "ION": 859,
      "stud": 860,
      "would": 861,
      "vis": 862,
      "add": 863,
      "funding": 864,
      "there": 865,
      "ell": 866,
      "cu": 867,
      "care": 868,
      "14": 869,
      "ited": 870,
      "they": 871,
      "ren": 872,
      "dec": 873,
      "estig": 874,
      "ner": 875,
      "where": 876,
      "Al": 877,
      "appro": 878,
      "suppl": 879,
      "into": 880,
      "EN": 881,
      "ctor": 882,
      "ev": 883,
      "ful": 884,
      "initi": 885,
      "offic": 886,
      "tives": 887,
      "jec": 888,
      "tw": 889,
      "ee": 890,
      "dition": 891,
      "coun": 892,
      "years": 893,
      "comp": 894,
      "number": 895,
      "king": 896,
      "AR": 897,
      "50": 898,
      "ite": 899,
      "ca": 900,
      "gover": 901,
      "li": 902,
      "ting": 903,
      "Me": 904,
      "claim": 905,
      "Im": 906,
      "see": 907,
      "following": 908,
      "stand": 909,
      "sur": 910,
      "IC": 911,
      "CB": 912,
      "ards": 913,
      "med": 914,
      "rent": 915,
      "system": 916,
      "2004": 917,
      "ep": 918,
      "Dire": 919,
      "We": 920,
      "only": 921,
      "Co": 922,
      "Reg": 923,
      "child": 924,
      "ude": 925,
      "You": 926,
      "sal": 927,
      "order": 928,
      "Servic": 929,
      "fac": 930,
      "oper": 931,
      "valu": 932,
      "bers": 933,
      "aph": 934,
      "period": 935,
      "18": 936,
      "logy": 937,
      "Information": 938,
      "sure": 939,
      "ext": 940,
      "ized": 941,
      "bet": 942,
      "avail": 943,
      "16": 944,
      "Offic": 945,
      "ble": 946,
      "ice": 947,
      "paid": 948,
      "provide": 949,
      "development": 950,
      "bu": 951,
      "when": 952,
      "benef": 953,
      "ally": 954,
      "know": 955,
      "each": 956,
      "rit": 957,
      "ys": 958,
      "CO": 959,
      "ases": 960,
      "particip": 961,
      "ived": 962,
      "dr": 963,
      "Part": 964,
      "ture": 965,
      "day": 966,
      "original": 967,
      "fo": 968,
      "mun": 969,
      "OF": 970,
      "determin": 971,
      "meet": 972,
      "LE": 973,
      "tee": 974,
      "plic": 975,
      "cred": 976,
      "less": 977,
      "ho": 978,
      "cep": 979,
      "irst": 980,
      "provided": 981,
      "pend": 982,
      "fr": 983,
      "aining": 984,
      "tho": 985,
      "blish": 986,
      "thor": 987,
      "ledge": 988,
      "available": 989,
      "after": 990,
      "Mar": 991,
      "uring": 992,
      "tre": 993,
      "ports": 994,
      "resident": 995,
      "hold": 996,
      "export": 997,
      "ks": 998,
      "exam": 999,
      "leg": 1000,
      "New": 1001,
      "It": 1002,
      "dire": 1003,
      "but": 1004,
      "DE": 1005,
      "oci": 1006,
      "CBSA": 1007,
      "Ho": 1008,
      "Gen": 1009,
      "ata": 1010,
      "ences": 1011,
      "include": 1012,
      "ics": 1013,
      "ified": 1014,
      "ump": 1015,
      "air": 1016,
      "ural": 1017,
      "ular": 1018,
      "researchers": 1019,
      "service": 1020,
      "Ac": 1021,
      "40": 1022,
      "ship": 1023,
      "ww": 1024,
      "ees": 1025,
      "produc": 1026,
      "del": 1027,
      "mission": 1028,
      "ten": 1029,
      "................": 1030,
      "programs": 1031,
      "identif": 1032,
      "ges": 1033,
      "As": 1034,
      "required": 1035,
      "partnership": 1036,
      "mer": 1037,
      "related": 1038,
      "Gover": 1039,
      "capital": 1040,
      "fact": 1041,
      "apply": 1042,
      "agr": 1043,
      "25": 1044,
      "strateg": 1045,
      "total": 1046,
      "oc": 1047,
      "Other": 1048,
      "17": 1049,
      "respect": 1050,
      "Cus": 1051,
      "based": 1052,
      "ond": 1053,
      "interest": 1054,
      "about": 1055,
      "ix": 1056,
      "ties": 1057,
      "Man": 1058,
      "SP": 1059,
      "Director": 1060,
      "prof": 1061,
      "Ab": 1062,
      "ederal": 1063,
      "ines": 1064,
      "rele": 1065,
      "get": 1066,
      "31": 1067,
      "date": 1068,
      "two": 1069,
      "allow": 1070,
      "Customs": 1071,
      "net": 1072,
      "porter": 1073,
      "cell": 1074,
      "ier": 1075,
      "application": 1076,
      "docu": 1077,
      "investig": 1078,
      "subject": 1079,
      "ning": 1080,
      "90": 1081,
      "agement": 1082,
      "ween": 1083,
      "equ": 1084,
      "ember": 1085,
      "well": 1086,
      "iver": 1087,
      "within": 1088,
      "institu": 1089,
      "fil": 1090,
      "addition": 1091,
      "Coun": 1092,
      "individual": 1093,
      "value": 1094,
      "Gr": 1095,
      "prior": 1096,
      "ures": 1097,
      "poses": 1098,
      "ient": 1099,
      "loc": 1100,
      "ference": 1101,
      "countr": 1102,
      "ounts": 1103,
      "sci": 1104,
      "cted": 1105,
      "activities": 1106,
      "cho": 1107,
      "incre": 1108,
      "22": 1109,
      "Services": 1110,
      "hel": 1111,
      "enses": 1112,
      "agraph": 1113,
      "uary": 1114,
      "HA": 1115,
      "community": 1116,
      "Su": 1117,
      "policy": 1118,
      "ouse": 1119,
      "Ar": 1120,
      "lab": 1121,
      "Form": 1122,
      "dif": 1123,
      "government": 1124,
      "clo": 1125,
      "vir": 1126,
      "contribu": 1127,
      "subsection": 1128,
      "land": 1129,
      "main": 1130,
      "place": 1131,
      "commit": 1132,
      "lar": 1133,
      "II": 1134,
      "ques": 1135,
      "between": 1136,
      "Col": 1137,
      "high": 1138,
      "igible": 1139,
      "address": 1140,
      "lim": 1141,
      "ED": 1142,
      "Pl": 1143,
      "contin": 1144,
      "crip": 1145,
      "Bo": 1146,
      "ection": 1147,
      "group": 1148,
      "uman": 1149,
      "stru": 1150,
      "plement": 1151,
      "let": 1152,
      "pec": 1153,
      "current": 1154,
      "require": 1155,
      "UN": 1156,
      "ages": 1157,
      "esta": 1158,
      "before": 1159,
      "Applic": 1160,
      "some": 1161,
      "ES": 1162,
      "CRA": 1163,
      "arm": 1164,
      "establish": 1165,
      ".,": 1166,
      "ional": 1167,
      "cord": 1168,
      "way": 1169,
      "tice": 1170,
      "IV": 1171,
      "effec": 1172,
      "data": 1173,
      "sul": 1174,
      "Min": 1175,
      "Ass": 1176,
      "UST": 1177,
      "rol": 1178,
      "crib": 1179,
      "sign": 1180,
      "ie": 1181,
      "build": 1182,
      "enter": 1183,
      "Agency": 1184,
      "page": 1185,
      "purposes": 1186,
      "paragraph": 1187,
      "corporation": 1188,
      "received": 1189,
      "meth": 1190,
      "plan": 1191,
      "dump": 1192,
      "der": 1193,
      "Commit": 1194,
      "those": 1195,
      "sel": 1196,
      "anti": 1197,
      "24": 1198,
      "portun": 1199,
      "carr": 1200,
      "members": 1201,
      "atives": 1202,
      "Ontar": 1203,
      "ability": 1204,
      "compl": 1205,
      "calcul": 1206,
      "________": 1207,
      "60": 1208,
      "Ontario": 1209,
      ")(": 1210,
      "knowledge": 1211,
      "venue": 1212,
      "ulation": 1213,
      "design": 1214,
      "them": 1215,
      "ket": 1216,
      "expenses": 1217,
      "wever": 1218,
      "lation": 1219,
      "ople": 1220,
      "tail": 1221,
      "author": 1222,
      "access": 1223,
      "ceed": 1224,
      "ancial": 1225,
      "personal": 1226,
      "IM": 1227,
      "change": 1228,
      "PP": 1229,
      "wa": 1230,
      "ading": 1231,
      "eth": 1232,
      "iff": 1233,
      "set": 1234,
      "first": 1235,
      "Sci": 1236,
      "account": 1237,
      "being": 1238,
      "how": 1239,
      "level": 1240,
      "ily": 1241,
      "adv": 1242,
      "dedu": 1243,
      "law": 1244,
      "reas": 1245,
      "ministr": 1246,
      "Dec": 1247,
      "RO": 1248,
      "2008": 1249,
      "anc": 1250,
      "both": 1251,
      "fl": 1252,
      "ator": 1253,
      "invol": 1254,
      "Des": 1255,
      "2003": 1256,
      "ward": 1257,
      "credit": 1258,
      "Committee": 1259,
      "list": 1260,
      "21": 1261,
      "ask": 1262,
      "eligible": 1263,
      "dise": 1264,
      "mental": 1265,
      "TH": 1266,
      "labor": 1267,
      "28": 1268,
      "IS": 1269,
      "vention": 1270,
      "cription": 1271,
      "tract": 1272,
      "ying": 1273,
      "23": 1274,
      "respons": 1275,
      "bas": 1276,
      "mp": 1277,
      "tech": 1278,
      "03": 1279,
      "colle": 1280,
      "make": 1281,
      "Aboriginal": 1282,
      "ste": 1283,
      "provincial": 1284,
      "cil": 1285,
      "does": 1286,
      "posed": 1287,
      "istered": 1288,
      "assess": 1289,
      "Cent": 1290,
      "Par": 1291,
      "direct": 1292,
      "trust": 1293,
      "general": 1294,
      "ians": 1295,
      "ential": 1296,
      "ety": 1297,
      "help": 1298,
      "found": 1299,
      "Number": 1300,
      "Office": 1301,
      "Date": 1302,
      "Work": 1303,
      "rate": 1304,
      "ials": 1305,
      "during": 1306,
      "General": 1307,
      "loss": 1308,
      "Income": 1309,
      "ath": 1310,
      "amounts": 1311,
      "ators": 1312,
      "Ph": 1313,
      "areas": 1314,
      "peti": 1315,
      "ince": 1316,
      "federal": 1317,
      "ons": 1318,
      "own": 1319,
      "agree": 1320,
      "her": 1321,
      "indic": 1322,
      "ris": 1323,
      "ination": 1324,
      "site": 1325,
      "ights": 1326,
      "training": 1327,
      "ulations": 1328,
      "atory": 1329,
      "US": 1330,
      "specific": 1331,
      "bate": 1332,
      "cribed": 1333,
      "lear": 1334,
      "whe": 1335,
      "27": 1336,
      "clin": 1337,
      "eld": 1338,
      "ran": 1339,
      "very": 1340,
      "ources": 1341,
      "AD": 1342,
      "ross": 1343,
      "26": 1344,
      "standing": 1345,
      "entific": 1346,
      "cour": 1347,
      "isions": 1348,
      "issues": 1349,
      "sing": 1350,
      "treat": 1351,
      "pose": 1352,
      "sim": 1353,
      "aff": 1354,
      "ium": 1355,
      "taxable": 1356,
      "complete": 1357,
      "purch": 1358,
      "95": 1359,
      "considered": 1360,
      "Inv": 1361,
      "ick": 1362,
      "ension": 1363,
      "record": 1364,
      "represent": 1365,
      "transfer": 1366,
      "ulti": 1367,
      "ended": 1368,
      "oug": 1369,
      "month": 1370,
      "nor": 1371,
      "Pu": 1372,
      "Jan": 1373,
      "Government": 1374,
      "class": 1375,
      "again": 1376,
      "ipment": 1377,
      "Develop": 1378,
      "discus": 1379,
      "payment": 1380,
      "04": 1381,
      "dustr": 1382,
      "cise": 1383,
      "partment": 1384,
      "viron": 1385,
      "people": 1386,
      "Mon": 1387,
      "01": 1388,
      "action": 1389,
      "prac": 1390,
      "CH": 1391,
      "case": 1392,
      "IA": 1393,
      "opportun": 1394,
      "onto": 1395,
      "refer": 1396,
      "roll": 1397,
      "ibility": 1398,
      "2002": 1399,
      "ditions": 1400,
      "ticular": 1401,
      "included": 1402,
      "Council": 1403,
      "tta": 1404,
      "most": 1405,
      "request": 1406,
      "dumping": 1407,
      "IL": 1408,
      "file": 1409,
      "les": 1410,
      "ances": 1411,
      "ari": 1412,
      "just": 1413,
      "particular": 1414,
      "ING": 1415,
      "ples": 1416,
      "example": 1417,
      "registr": 1418,
      "National": 1419,
      "urther": 1420,
      "team": 1421,
      "contain": 1422,
      "organizations": 1423,
      "defin": 1424,
      "certain": 1425,
      "Public": 1426,
      "acity": 1427,
      "Or": 1428,
      "document": 1429,
      "international": 1430,
      "jects": 1431,
      "whether": 1432,
      "Trans": 1433,
      "same": 1434,
      "supply": 1435,
      "car": 1436,
      "Gu": 1437,
      "29": 1438,
      "differ": 1439,
      "However": 1440,
      "ization": 1441,
      "three": 1442,
      "children": 1443,
      "tra": 1444,
      "Tor": 1445,
      "his": 1446,
      "LA": 1447,
      "gc": 1448,
      "Cont": 1449,
      "Ro": 1450,
      "Institutes": 1451,
      "ID": 1452,
      "had": 1453,
      "Fund": 1454,
      "appropri": 1455,
      "against": 1456,
      "illion": 1457,
      "fu": 1458,
      "mater": 1459,
      "ough": 1460,
      "inary": 1461,
      "Toronto": 1462,
      "RC": 1463,
      "tern": 1464,
      "ield": 1465,
      "ATION": 1466,
      "cop": 1467,
      "acqu": 1468,
      "ength": 1469,
      "Str": 1470,
      "ately": 1471,
      "payer": 1472,
      "ctr": 1473,
      "06": 1474,
      "partner": 1475,
      "result": 1476,
      "market": 1477,
      "costs": 1478,
      "consul": 1479,
      "Policy": 1480,
      "Revenue": 1481,
      "financial": 1482,
      "applications": 1483,
      "Department": 1484,
      "long": 1485,
      "Mem": 1486,
      "urity": 1487,
      "There": 1488,
      "Sch": 1489,
      "ttawa": 1490,
      "benefit": 1491,
      "equipment": 1492,
      "FA": 1493,
      "project": 1494,
      "Ottawa": 1495,
      "ior": 1496,
      "2001": 1497,
      "January": 1498,
      "aud": 1499,
      "Contract": 1500,
      "vers": 1501,
      "05": 1502,
      "Is": 1503,
      "ving": 1504,
      "onic": 1505,
      "ize": 1506,
      "These": 1507,
      "prin": 1508,
      "provides": 1509,
      "could": 1510,
      "uals": 1511,
      "International": 1512,
      "country": 1513,
      "March": 1514,
      "omen": 1515,
      "TA": 1516,
      "benefits": 1517,
      "valuation": 1518,
      "ensure": 1519,
      "ins": 1520,
      "99": 1521,
      "hic": 1522,
      "invest": 1523,
      "Sub": 1524,
      "bal": 1525,
      "une": 1526,
      "Cor": 1527,
      "pop": 1528,
      "Te": 1529,
      "ot": 1530,
      "find": 1531,
      "XX": 1532,
      "Qu": 1533,
      "meeting": 1534,
      "ilities": 1535,
      "poss": 1536,
      "sed": 1537,
      "la": 1538,
      "Sup": 1539,
      "prove": 1540,
      "position": 1541,
      "effective": 1542,
      "ati": 1543,
      "Do": 1544,
      "gn": 1545,
      "Centre": 1546,
      "Canadians": 1547,
      "focus": 1548,
      "bro": 1549,
      "ccess": 1550,
      "payable": 1551,
      "ove": 1552,
      "manu": 1553,
      "edule": 1554,
      "Total": 1555,
      "Go": 1556,
      "reco": 1557,
      "social": 1558,
      "term": 1559,
      "idence": 1560,
      "perform": 1561,
      "results": 1562,
      "key": 1563,
      "Minister": 1564,
      "payments": 1565,
      "Dis": 1566,
      "funded": 1567,
      "grant": 1568,
      "ak": 1569,
      "ok": 1570,
      "hair": 1571,
      "LD": 1572,
      "TO": 1573,
      "lease": 1574,
      "read": 1575,
      "ected": 1576,
      "Med": 1577,
      "80": 1578,
      "table": 1579,
      "duty": 1580,
      "employee": 1581,
      "like": 1582,
      "call": 1583,
      "rebate": 1584,
      "imp": 1585,
      "lead": 1586,
      "promo": 1587,
      "collabor": 1588,
      "strategic": 1589,
      "Le": 1590,
      "implement": 1591,
      "using": 1592,
      "pot": 1593,
      "relev": 1594,
      "jur": 1595,
      "az": 1596,
      "Rec": 1597,
      "fam": 1598,
      "capacity": 1599,
      "common": 1600,
      "organization": 1601,
      "acy": 1602,
      "area": 1603,
      "clinical": 1604,
      "shar": 1605,
      "recomm": 1606,
      "Child": 1607,
      "submit": 1608,
      "Pe": 1609,
      "June": 1610,
      "assist": 1611,
      "idential": 1612,
      "Val": 1613,
      "xim": 1614,
      "tics": 1615,
      "proved": 1616,
      "spital": 1617,
      "registered": 1618,
      "tific": 1619,
      "ved": 1620,
      "commer": 1621,
      "funds": 1622,
      "above": 1623,
      "Que": 1624,
      "02": 1625,
      "appropriate": 1626,
      "mal": 1627,
      "mand": 1628,
      "control": 1629,
      "vari": 1630,
      "regard": 1631,
      "ort": 1632,
      "Initi": 1633,
      "mine": 1634,
      "MT": 1635,
      "Colum": 1636,
      "giv": 1637,
      "meas": 1638,
      "ENT": 1639,
      "www": 1640,
      "sl": 1641,
      "continu": 1642,
      "RR": 1643,
      "elines": 1644,
      "vious": 1645,
      "purpose": 1646,
      "Per": 1647,
      "duc": 1648,
      "Chair": 1649,
      "Prov": 1650,
      "tation": 1651,
      "concer": 1652,
      "tural": 1653,
      "conditions": 1654,
      "Development": 1655,
      "ness": 1656,
      "sid": 1657,
      "contact": 1658,
      "hy": 1659,
      "phone": 1660,
      "she": 1661,
      "employment": 1662,
      "competi": 1663,
      "mail": 1664,
      "tob": 1665,
      "47": 1666,
      "Mc": 1667,
      "ife": 1668,
      "vol": 1669,
      "commercial": 1670,
      "All": 1671,
      "depend": 1672,
      "priv": 1673,
      "Description": 1674,
      "Spec": 1675,
      "vehic": 1676,
      "administr": 1677,
      "success": 1678,
      "pati": 1679,
      "ification": 1680,
      "613": 1681,
      "reason": 1682,
      "techno": 1683,
      "uro": 1684,
      "environ": 1685,
      "Report": 1686,
      "important": 1687,
      "detail": 1688,
      "deliver": 1689,
      "ause": 1690,
      "att": 1691,
      "requirements": 1692,
      "sm": 1693,
      "CCRA": 1694,
      "state": 1695,
      "individuals": 1696,
      "determine": 1697,
      "take": 1698,
      "management": 1699,
      "approach": 1700,
      "investigation": 1701,
      "rul": 1702,
      "improve": 1703,
      "sit": 1704,
      "ina": 1705,
      ");": 1706,
      "idelines": 1707,
      "PO": 1708,
      "objec": 1709,
      "lic": 1710,
      "iscal": 1711,
      "associ": 1712,
      "disease": 1713,
      "December": 1714,
      "top": 1715,
      "self": 1716,
      "price": 1717,
      "Tar": 1718,
      "customs": 1719,
      "back": 1720,
      "cover": 1721,
      "United": 1722,
      "omes": 1723,
      "office": 1724,
      "condu": 1725,
      "What": 1726,
      "human": 1727,
      "house": 1728,
      "sport": 1729,
      "chool": 1730,
      "($": 1731,
      "active": 1732,
      "pril": 1733,
      "name": 1734,
      "receive": 1735,
      "pen": 1736,
      "full": 1737,
      "dustry": 1738,
      "off": 1739,
      "shop": 1740,
      "million": 1741,
      "profess": 1742,
      "At": 1743,
      "GM": 1744,
      "Net": 1745,
      "institution": 1746,
      "85": 1747,
      "Cl": 1748,
      "Ste": 1749,
      "orand": 1750,
      "conf": 1751,
      "aging": 1752,
      "includes": 1753,
      "taxpayer": 1754,
      "many": 1755,
      "anch": 1756,
      "EL": 1757,
      "territ": 1758,
      "ically": 1759,
      "risk": 1760,
      "redu": 1761,
      "FI": 1762,
      "itish": 1763,
      "British": 1764,
      "phys": 1765,
      "atus": 1766,
      "initiative": 1767,
      "CA": 1768,
      "item": 1769,
      "tak": 1770,
      "April": 1771,
      "sequ": 1772,
      "products": 1773,
      "Strateg": 1774,
      "ource": 1775,
      "PA": 1776,
      "jor": 1777,
      "study": 1778,
      "07": 1779,
      "gain": 1780,
      "CAN": 1781,
      "working": 1782,
      "multi": 1783,
      "employees": 1784,
      "os": 1785,
      "forms": 1786,
      "further": 1787,
      "Char": 1788,
      "ctions": 1789,
      "45": 1790,
      "bia": 1791,
      "Emp": 1792,
      "ices": 1793,
      "cipl": 1794,
      "Business": 1795,
      "ser": 1796,
      "ref": 1797,
      "post": 1798,
      "ental": 1799,
      "inte": 1800,
      "nec": 1801,
      "identified": 1802,
      "ature": 1803,
      "fiscal": 1804,
      "agreement": 1805,
      "Board": 1806,
      "discipl": 1807,
      "nov": 1808,
      "iance": 1809,
      "treatment": 1810,
      "decision": 1811,
      "):": 1812,
      "SO": 1813,
      "KGM": 1814,
      "Commission": 1815,
      "Schedule": 1816,
      "ilar": 1817,
      "communic": 1818,
      "Grants": 1819,
      "mary": 1820,
      "Am": 1821,
      "electr": 1822,
      "exceed": 1823,
      "NE": 1824,
      "basis": 1825,
      "imported": 1826,
      "SE": 1827,
      "Sum": 1828,
      "Columbia": 1829,
      "accord": 1830,
      "surance": 1831,
      "changes": 1832,
      "what": 1833,
      "wards": 1834,
      "accep": 1835,
      "special": 1836,
      "origin": 1837,
      "ify": 1838,
      "held": 1839,
      "Employ": 1840,
      "PT": 1841,
      "put": 1842,
      "Partners": 1843,
      "State": 1844,
      "additional": 1845,
      "initiatives": 1846,
      "hib": 1847,
      "province": 1848,
      "100": 1849,
      "building": 1850,
      "different": 1851,
      "production": 1852,
      "dro": 1853,
      "Sec": 1854,
      "sum": 1855,
      "bio": 1856,
      "recogn": 1857,
      "projects": 1858,
      "til": 1859,
      "relevant": 1860,
      "sales": 1861,
      "CR": 1862,
      "ves": 1863,
      "exemp": 1864,
      "fe": 1865,
      "offer": 1866,
      "prot": 1867,
      "ender": 1868,
      "Jo": 1869,
      "iving": 1870,
      "Ne": 1871,
      "ging": 1872,
      "33": 1873,
      "specified": 1874,
      "reporting": 1875,
      "cir": 1876,
      "500": 1877,
      "charity": 1878,
      "ton": 1879,
      "08": 1880,
      "Ret": 1881,
      "Web": 1882,
      "previous": 1883,
      "communities": 1884,
      "LDCT": 1885,
      "gin": 1886,
      "fun": 1887,
      "gre": 1888,
      "Import": 1889,
      "Requ": 1890,
      "sell": 1891,
      "uly": 1892,
      "Alber": 1893,
      "share": 1894,
      "cular": 1895,
      "ept": 1896,
      "--": 1897,
      "Resp": 1898,
      "jo": 1899,
      "major": 1900,
      "actions": 1901,
      "Stand": 1902,
      "IG": 1903,
      "returns": 1904,
      "Sy": 1905,
      "refund": 1906,
      "contributions": 1907,
      "Under": 1908,
      "don": 1909,
      "orld": 1910,
      "due": 1911,
      "MB": 1912,
      "emed": 1913,
      "box": 1914,
      "Ann": 1915,
      "slip": 1916,
      "ither": 1917,
      "disclo": 1918,
      "onom": 1919,
      "Oper": 1920,
      "2000": 1921,
      "another": 1922,
      "pol": 1923,
      "ilit": 1924,
      "signific": 1925,
      "TE": 1926,
      "Mo": 1927,
      "Corpor": 1928,
      "exist": 1929,
      "Sept": 1930,
      "across": 1931,
      "Section": 1932,
      "ief": 1933,
      "adjust": 1934,
      "activity": 1935,
      "States": 1936,
      ")-": 1937,
      "grants": 1938,
      "35": 1939,
      "needs": 1940,
      "making": 1941,
      "impact": 1942,
      "May": 1943,
      "clear": 1944,
      "recommend": 1945,
      "atch": 1946,
      "fair": 1947,
      "expl": 1948,
      "gl": 1949,
      "established": 1950,
      "experi": 1951,
      "stic": 1952,
      "tor": 1953,
      "force": 1954,
      "tribu": 1955,
      "ME": 1956,
      "Tariff": 1957,
      "persons": 1958,
      "dic": 1959,
      "Funding": 1960,
      "future": 1961,
      "quality": 1962,
      "annual": 1963,
      "When": 1964,
      "applicable": 1965,
      "Nor": 1966,
      "munity": 1967,
      "ra": 1968,
      "legis": 1969,
      "aged": 1970,
      "MUN": 1971,
      "ism": 1972,
      "field": 1973,
      "right": 1974,
      "heading": 1975,
      "cannot": 1976,
      "September": 1977,
      "issue": 1978,
      "necess": 1979,
      "cipal": 1980,
      "37": 1981,
      "Au": 1982,
      "below": 1983,
      "GE": 1984,
      "obtain": 1985,
      "security": 1986,
      "Fe": 1987,
      "divid": 1988,
      "because": 1989,
      "life": 1990,
      "Alberta": 1991,
      "subsid": 1992,
      "increase": 1993,
      "steel": 1994,
      "Goods": 1995,
      "87": 1996,
      "iter": 1997,
      "Cal": 1998,
      "role": 1999,
      "ake": 2000,
      "anal": 2001,
      "09": 2002,
      "evidence": 2003,
      "method": 2004,
      "ions": 2005,
      "second": 2006,
      "writ": 2007,
      "education": 2008,
      "INC": 2009,
      "proposed": 2010,
      "Quebec": 2011,
      "sug": 2012,
      "Enter": 2013,
      "Oc": 2014,
      "pursu": 2015,
      "hous": 2016,
      "real": 2017,
      "INM": 2018,
      "sale": 2019,
      "significant": 2020,
      "wn": 2021,
      "THE": 2022,
      "ged": 2023,
      "July": 2024,
      "Human": 2025,
      "days": 2026,
      "econom": 2027,
      "HO": 2028,
      "itor": 2029,
      "small": 2030,
      "inform": 2031,
      "potential": 2032,
      "tside": 2033,
      "Review": 2034,
      "eness": 2035,
      "HIV": 2036,
      "ists": 2037,
      "Investig": 2038,
      "xy": 2039,
      "orandum": 2040,
      "prim": 2041,
      "met": 2042,
      "women": 2043,
      "46": 2044,
      "lan": 2045,
      "AND": 2046,
      "Plan": 2047,
      "four": 2048,
      "applies": 2049,
      "Return": 2050,
      "groups": 2051,
      "integr": 2052,
      "company": 2053,
      "lor": 2054,
      "48": 2055,
      "cies": 2056,
      "Pre": 2057,
      "RAT": 2058,
      "anning": 2059,
      "Ben": 2060,
      "lect": 2061,
      "among": 2062,
      "type": 2063,
      "sect": 2064,
      "gene": 2065,
      "polic": 2066,
      ".\"": 2067,
      "entit": 2068,
      "similar": 2069,
      "determination": 2070,
      "36": 2071,
      "Append": 2072,
      "hal": 2073,
      "tim": 2074,
      "Management": 2075,
      "Note": 2076,
      "population": 2077,
      "fici": 2078,
      "logical": 2079,
      "Fin": 2080,
      "determined": 2081,
      "opportunities": 2082,
      "respond": 2083,
      "foreign": 2084,
      "ivision": 2085,
      "excl": 2086,
      "CIAT": 2087,
      "response": 2088,
      "situ": 2089,
      "CE": 2090,
      "separ": 2091,
      "percent": 2092,
      "school": 2093,
      "mod": 2094,
      "cture": 2095,
      "Fr": 2096,
      "RRSP": 2097,
      "PE": 2098,
      "tric": 2099,
      "How": 2100,
      "Inc": 2101,
      "Value": 2102,
      "outside": 2103,
      "bod": 2104,
      "flu": 2105,
      "systems": 2106,
      "49": 2107,
      "Initiative": 2108,
      "stances": 2109,
      "bur": 2110,
      "deemed": 2111,
      "ht": 2112,
      "ced": 2113,
      "Sport": 2114,
      "either": 2115,
      "................................": 2116,
      "given": 2117,
      "Associ": 2118,
      "terms": 2119,
      "ange": 2120,
      "ories": 2121,
      "Call": 2122,
      "aid": 2123,
      "rolled": 2124,
      "Regulations": 2125,
      "ends": 2126,
      "portion": 2127,
      "pack": 2128,
      "cases": 2129,
      "five": 2130,
      "injur": 2131,
      "nal": 2132,
      "member": 2133,
      "udget": 2134,
      "cedu": 2135,
      "cum": 2136,
      "countries": 2137,
      "Appendix": 2138,
      "igr": 2139,
      "mak": 2140,
      "55": 2141,
      "orial": 2142,
      "Octo": 2143,
      "vent": 2144,
      "recip": 2145,
      "39": 2146,
      "ii": 2147,
      "SS": 2148,
      "sen": 2149,
      "described": 2150,
      "October": 2151,
      "Eth": 2152,
      "UR": 2153,
      "app": 2154,
      "Gro": 2155,
      "participants": 2156,
      "Where": 2157,
      "good": 2158,
      "acts": 2159,
      "without": 2160,
      "shall": 2161,
      "T4": 2162,
      "question": 2163,
      "reported": 2164,
      "que": 2165,
      "Line": 2166,
      "award": 2167,
      "code": 2168,
      "supplies": 2169,
      "means": 2170,
      "unch": 2171,
      "CIP": 2172,
      "tariff": 2173,
      "Ter": 2174,
      "priorities": 2175,
      "completed": 2176,
      "technology": 2177,
      "estim": 2178,
      "itable": 2179,
      "Special": 2180,
      "Prof": 2181,
      "Cap": 2182,
      "questions": 2183,
      "vey": 2184,
      "records": 2185,
      "developed": 2186,
      "IH": 2187,
      "holders": 2188,
      "ending": 2189,
      "directly": 2190,
      "deduc": 2191,
      "prepar": 2192,
      "duties": 2193,
      "migr": 2194,
      "PD": 2195,
      "half": 2196,
      "then": 2197,
      "-(": 2198,
      "Sh": 2199,
      "tual": 2200,
      "bene": 2201,
      "excep": 2202,
      "Excise": 2203,
      "El": 2204,
      "CCCT": 2205,
      "resources": 2206,
      "88": 2207,
      "publications": 2208,
      "parts": 2209,
      "LO": 2210,
      "cancer": 2211,
      "medi": 2212,
      "munic": 2213,
      "Advis": 2214,
      "mber": 2215,
      "gener": 2216,
      "ients": 2217,
      "necessary": 2218,
      "70": 2219,
      "ave": 2220,
      "identify": 2221,
      "bre": 2222,
      "involved": 2223,
      "Nove": 2224,
      "ICIP": 2225,
      "iture": 2226,
      "November": 2227,
      "ysis": 2228,
      "66": 2229,
      "tices": 2230,
      "bruary": 2231,
      "consult": 2232,
      "February": 2233,
      "termin": 2234,
      "sch": 2235,
      "ames": 2236,
      "staff": 2237,
      "aper": 2238,
      "Fo": 2239,
      "tru": 2240,
      "enh": 2241,
      "rights": 2242,
      "MA": 2243,
      "MS": 2244,
      "while": 2245,
      "INT": 2246,
      "industry": 2247,
      "Scientific": 2248,
      "copy": 2249,
      "encies": 2250,
      "taken": 2251,
      "NA": 2252,
      "continue": 2253,
      "typ": 2254,
      "instru": 2255,
      "taxes": 2256,
      "model": 2257,
      "announ": 2258,
      "Non": 2259,
      "final": 2260,
      "Branch": 2261,
      "President": 2262,
      "MUNICIP": 2263,
      "MUNICIPAL": 2264,
      "________________": 2265,
      "rules": 2266,
      "investment": 2267,
      "ry": 2268,
      "FOR": 2269,
      "sequent": 2270,
      "uit": 2271,
      "suf": 2272,
      "provisions": 2273,
      "tab": 2274,
      "custo": 2275,
      "consideration": 2276,
      "expend": 2277,
      "documents": 2278,
      "show": 2279,
      "discussion": 2280,
      "So": 2281,
      "Prin": 2282,
      "ash": 2283,
      "free": 2284,
      "spouse": 2285,
      "First": 2286,
      "wise": 2287,
      "sever": 2288,
      "encour": 2289,
      "Standing": 2290,
      "tif": 2291,
      "Partnership": 2292,
      "icine": 2293,
      "lines": 2294,
      "Application": 2295,
      "home": 2296,
      "drug": 2297,
      "ric": 2298,
      "III": 2299,
      "sts": 2300,
      "Name": 2301,
      "assessment": 2302,
      "penal": 2303,
      "policies": 2304,
      "furn": 2305,
      "32": 2306,
      "sk": 2307,
      "ger": 2308,
      "gif": 2309,
      "effor": 2310,
      "Meet": 2311,
      "ests": 2312,
      "approved": 2313,
      "ck": 2314,
      "issued": 2315,
      "IDS": 2316,
      "La": 2317,
      "complex": 2318,
      "ives": 2319,
      "possible": 2320,
      "38": 2321,
      "41": 2322,
      "gether": 2323,
      "deduction": 2324,
      "importer": 2325,
      "employer": 2326,
      "next": 2327,
      "tool": 2328,
      "contract": 2329,
      "relations": 2330,
      "studies": 2331,
      "legal": 2332,
      "vehicle": 2333,
      "mechan": 2334,
      "normal": 2335,
      "Group": 2336,
      "Trade": 2337,
      "Summary": 2338,
      "ned": 2339,
      "Division": 2340,
      "Free": 2341,
      "itions": 2342,
      "maxim": 2343,
      "since": 2344,
      "verage": 2345,
      "associated": 2346,
      "ullet": 2347,
      "Car": 2348,
      "tele": 2349,
      "Top": 2350,
      "crim": 2351,
      "located": 2352,
      "provision": 2353,
      "entitled": 2354,
      "ellow": 2355,
      "Tele": 2356,
      "itical": 2357,
      "status": 2358,
      "objectives": 2359,
      "shares": 2360,
      "submitted": 2361,
      "please": 2362,
      "exper": 2363,
      "asing": 2364,
      "months": 2365,
      "assistance": 2366,
      "Ele": 2367,
      "omestic": 2368,
      "MENT": 2369,
      "deduct": 2370,
      "Awards": 2371,
      "least": 2372,
      "factors": 2373,
      "maintain": 2374,
      "proble": 2375,
      "various": 2376,
      "priority": 2377,
      "Officer": 2378,
      "Found": 2379,
      "wer": 2380,
      "ires": 2381,
      "committee": 2382,
      "students": 2383,
      "amp": 2384,
      "peer": 2385,
      "75": 2386,
      "ample": 2387,
      "audit": 2388,
      "circum": 2389,
      "point": 2390,
      "farm": 2391,
      "performance": 2392,
      "Reference": 2393,
      "professional": 2394,
      "itob": 2395,
      "mach": 2396,
      "SR": 2397,
      "pass": 2398,
      "receip": 2399,
      "AIDS": 2400,
      "taxation": 2401,
      "84": 2402,
      "With": 2403,
      "rates": 2404,
      "Mic": 2405,
      "gress": 2406,
      "ule": 2407,
      "apter": 2408,
      "large": 2409,
      "last": 2410,
      "Manitob": 2411,
      "transport": 2412,
      "Op": 2413,
      "CP": 2414,
      "ITC": 2415,
      "prescribed": 2416,
      "Strategic": 2417,
      "Directorate": 2418,
      "institutions": 2419,
      "regarding": 2420,
      "innov": 2421,
      "commod": 2422,
      "Institution": 2423,
      "comes": 2424,
      "materials": 2425,
      "together": 2426,
      "stake": 2427,
      "complain": 2428,
      "evaluation": 2429,
      "Sask": 2430,
      "Programs": 2431,
      "competition": 2432,
      "providing": 2433,
      "hydro": 2434,
      "Person": 2435,
      "best": 2436,
      "men": 2437,
      "Hospital": 2438,
      "Manitoba": 2439,
      "play": 2440,
      "disciplinary": 2441,
      "procedu": 2442,
      "ework": 2443,
      "Memorandum": 2444,
      "physical": 2445,
      "count": 2446,
      "strength": 2447,
      "cultural": 2448,
      "medical": 2449,
      "eff": 2450,
      "chall": 2451,
      "equal": 2452,
      "ways": 2453,
      "SIM": 2454,
      "emic": 2455,
      "otherwise": 2456,
      "ns": 2457,
      "letter": 2458,
      "LT": 2459,
      "did": 2460,
      "ficient": 2461,
      "sc": 2462,
      "amework": 2463,
      "compliance": 2464,
      "mu": 2465,
      "Air": 2466,
      "generally": 2467,
      "reports": 2468,
      "ening": 2469,
      "China": 2470,
      "Du": 2471,
      "SU": 2472,
      "world": 2473,
      "Sco": 2474,
      "Team": 2475,
      "cles": 2476,
      "aft": 2477,
      "puter": 2478,
      "olu": 2479,
      "gest": 2480,
      "AC": 2481,
      "operating": 2482,
      "translation": 2483,
      "Service": 2484,
      "SD": 2485,
      "Foundation": 2486,
      "ibun": 2487,
      "ground": 2488,
      "Meas": 2489,
      "recent": 2490,
      "remit": 2491,
      "designed": 2492,
      "fees": 2493,
      "forward": 2494,
      "MO": 2495,
      "deal": 2496,
      "note": 2497,
      "manufact": 2498,
      "ank": 2499,
      "developing": 2500,
      "details": 2501,
      "Stu": 2502,
      "web": 2503,
      "legislation": 2504,
      "compon": 2505,
      "registrant": 2506,
      "nowledge": 2507,
      "CRT": 2508,
      "34": 2509,
      "calculate": 2510,
      "function": 2511,
      "Be": 2512,
      "test": 2513,
      "exported": 2514,
      "RI": 2515,
      "ticle": 2516,
      "Request": 2517,
      "family": 2518,
      "Lo": 2519,
      "workshop": 2520,
      "proceed": 2521,
      "uses": 2522,
      ",\"": 2523,
      "ICR": 2524,
      "reduce": 2525,
      "circumstances": 2526,
      "visit": 2527,
      "sector": 2528,
      "Statement": 2529,
      "partnerships": 2530,
      "Notice": 2531,
      "single": 2532,
      "reduc": 2533,
      "ordin": 2534,
      "Cour": 2535,
      "subst": 2536,
      "limit": 2537,
      "ibunal": 2538,
      "Author": 2539,
      "course": 2540,
      "saf": 2541,
      "profit": 2542,
      "conduct": 2543,
      "govern": 2544,
      "domestic": 2545,
      "serv": 2546,
      "Ob": 2547,
      "better": 2548,
      "filed": 2549,
      "going": 2550,
      "ipe": 2551,
      "Advisory": 2552,
      "ral": 2553,
      "responsible": 2554,
      "MP": 2555,
      "stain": 2556,
      "\".": 2557,
      "ply": 2558,
      "injury": 2559,
      "maximum": 2560,
      "values": 2561,
      "Pay": 2562,
      "itive": 2563,
      "800": 2564,
      "my": 2565,
      "GPT": 2566,
      "pension": 2567,
      "limited": 2568,
      "Federal": 2569,
      "opportunity": 2570,
      "listed": 2571,
      "System": 2572,
      "1999": 2573,
      "Care": 2574,
      "tle": 2575,
      "scientific": 2576,
      "reed": 2577,
      "Stud": 2578,
      "reasonable": 2579,
      "va": 2580,
      "curred": 2581,
      "criter": 2582,
      "stics": 2583,
      "draw": 2584,
      "PDF": 2585,
      "manufac": 2586,
      "understanding": 2587,
      "Bu": 2588,
      "VIL": 2589,
      "ult": 2590,
      "blig": 2591,
      "defined": 2592,
      "IP": 2593,
      "guide": 2594,
      "cellence": 2595,
      "Assist": 2596,
      "private": 2597,
      "arrange": 2598,
      "head": 2599,
      "ADA": 2600,
      "location": 2601,
      "levels": 2602,
      "pursuant": 2603,
      "RFA": 2604,
      "agencies": 2605,
      "ours": 2606,
      "hand": 2607,
      "deb": 2608,
      "exceeding": 2609,
      "ird": 2610,
      "Employment": 2611,
      "acquired": 2612,
      "disclosure": 2613,
      "sent": 2614,
      "guidelines": 2615,
      "relationship": 2616,
      "cy": 2617,
      "existing": 2618,
      "material": 2619,
      "lobal": 2620,
      "noted": 2621,
      "electronic": 2622,
      "coh": 2623,
      "izing": 2624,
      "acco": 2625,
      "44": 2626,
      "ked": 2627,
      "bar": 2628,
      "Ethics": 2629,
      "Tribunal": 2630,
      "paper": 2631,
      "Comp": 2632,
      "delivery": 2633,
      "Af": 2634,
      "Meeting": 2635,
      "Clin": 2636,
      "manufacture": 2637,
      "consist": 2638,
      "charities": 2639,
      "purchase": 2640,
      "accordance": 2641,
      "MUST": 2642,
      "credits": 2643,
      "range": 2644,
      "economic": 2645,
      "Profess": 2646,
      "volun": 2647,
      "RS": 2648,
      "unit": 2649,
      "mandate": 2650,
      "currently": 2651,
      "esity": 2652,
      "Comments": 2653,
      "Univers": 2654,
      "ured": 2655,
      "comb": 2656,
      "Po": 2657,
      "sections": 2658,
      "ewan": 2659,
      "travel": 2660,
      "Saskatch": 2661,
      "Applications": 2662,
      "num": 2663,
      "benefici": 2664,
      "Saskatchewan": 2665,
      "cle": 2666,
      "budget": 2667,
      "vision": 2668,
      "increased": 2669,
      "Border": 2670,
      "diseases": 2671,
      "train": 2672,
      "exempt": 2673,
      "oblig": 2674,
      "Export": 2675,
      "product": 2676,
      "propos": 2677,
      "facilit": 2678,
      "Cer": 2679,
      "though": 2680,
      "joint": 2681,
      "wo": 2682,
      "insurance": 2683,
      "broad": 2684,
      "inst": 2685,
      "pretation": 2686,
      "iers": 2687,
      "ang": 2688,
      "ox": 2689,
      "even": 2690,
      "board": 2691,
      "IF": 2692,
      "ses": 2693,
      "Benef": 2694,
      "early": 2695,
      "Network": 2696,
      "ub": 2697,
      "analysis": 2698,
      "PAR": 2699,
      "prices": 2700,
      "applied": 2701,
      "betes": 2702,
      "INMHA": 2703,
      "keep": 2704,
      "Organiz": 2705,
      "1998": 2706,
      "grow": 2707,
      "ulletin": 2708,
      "BC": 2709,
      "claimed": 2710,
      "recommendations": 2711,
      "inc": 2712,
      "body": 2713,
      "pair": 2714,
      "Qué": 2715,
      "ense": 2716,
      "influ": 2717,
      "death": 2718,
      "43": 2719,
      "corre": 2720,
      "vised": 2721,
      "aries": 2722,
      "sold": 2723,
      "territorial": 2724,
      "NO": 2725,
      "Telephone": 2726,
      "itures": 2727,
      "Québec": 2728,
      "Cancer": 2729,
      "every": 2730,
      "soci": 2731,
      "effect": 2732,
      "criteria": 2733,
      "expres": 2734,
      "exporters": 2735,
      "awards": 2736,
      "tical": 2737,
      "sw": 2738,
      "prevention": 2739,
      "network": 2740,
      "ery": 2741,
      "Please": 2742,
      "Prior": 2743,
      "release": 2744,
      "acter": 2745,
      "arily": 2746,
      "tificate": 2747,
      "dia": 2748,
      "allowance": 2749,
      "67": 2750,
      "ique": 2751,
      "target": 2752,
      "Fax": 2753,
      "Del": 2754,
      "fection": 2755,
      "length": 2756,
      "Training": 2757,
      "langu": 2758,
      "tia": 2759,
      "filing": 2760,
      "Grant": 2761,
      "ware": 2762,
      "Sen": 2763,
      "local": 2764,
      "behalf": 2765,
      "89": 2766,
      "COR": 2767,
      "measures": 2768,
      "successful": 2769,
      "SIMA": 2770,
      "separate": 2771,
      "Nova": 2772,
      "asse": 2773,
      "Issu": 2774,
      "oks": 2775,
      "implementation": 2776,
      "residential": 2777,
      "ensive": 2778,
      "weight": 2779,
      "recipient": 2780,
      "ays": 2781,
      "registration": 2782,
      "DU": 2783,
      "graph": 2784,
      "Forms": 2785,
      "Chapter": 2786,
      "processing": 2787,
      "ready": 2788,
      "operation": 2789,
      "ethics": 2790,
      "regional": 2791,
      "Ed": 2792,
      "participating": 2793,
      "Sta": 2794,
      "plac": 2795,
      "Hel": 2796,
      "event": 2797,
      "basic": 2798,
      "65": 2799,
      "fail": 2800,
      "ifying": 2801,
      "Code": 2802,
      "wide": 2803,
      "omin": 2804,
      "Exporter": 2805,
      "cra": 2806,
      "Comple": 2807,
      "contribution": 2808,
      "ious": 2809,
      "isms": 2810,
      "bon": 2811,
      "environment": 2812,
      "RAN": 2813,
      "reat": 2814,
      "Administr": 2815,
      "strategies": 2816,
      "ults": 2817,
      "PH": 2818,
      "Sal": 2819,
      "arti": 2820,
      "phen": 2821,
      "semin": 2822,
      "See": 2823,
      "several": 2824,
      "stakeholders": 2825,
      "plans": 2826,
      "Joh": 2827,
      "procedures": 2828,
      "six": 2829,
      "election": 2830,
      "Scotia": 2831,
      "authority": 2832,
      "auto": 2833,
      "remo": 2834,
      "Gill": 2835,
      "card": 2836,
      "XXXX": 2837,
      "patients": 2838,
      "ology": 2839,
      "iry": 2840,
      "sele": 2841,
      "remain": 2842,
      "ering": 2843,
      "open": 2844,
      "option": 2845,
      "ene": 2846,
      "taking": 2847,
      "oth": 2848,
      "explain": 2849,
      "publication": 2850,
      "ival": 2851,
      "ined": 2852,
      "mat": 2853,
      "dependent": 2854,
      "try": 2855,
      "collaboration": 2856,
      "exporter": 2857,
      "Class": 2858,
      "planning": 2859,
      "Tech": 2860,
      "qualified": 2861,
      "Nations": 2862,
      "Operating": 2863,
      "na": 2864,
      "pan": 2865,
      "charge": 2866,
      "Governing": 2867,
      "types": 2868,
      "Association": 2869,
      "compar": 2870,
      "demon": 2871,
      "having": 2872,
      "subsequent": 2873,
      "Social": 2874,
      "hr": 2875,
      "Aug": 2876,
      "demonstr": 2877,
      "athle": 2878,
      "hospital": 2879,
      "atis": 2880,
      "DI": 2881,
      "éal": 2882,
      "ité": 2883,
      "ues": 2884,
      "ieve": 2885,
      "ills": 2886,
      "AS": 2887,
      "Evaluation": 2888,
      "referred": 2889,
      "Rights": 2890,
      "ORT": 2891,
      "definition": 2892,
      "famil": 2893,
      "disposition": 2894,
      "Rel": 2895,
      "ships": 2896,
      "version": 2897,
      "tréal": 2898,
      "practice": 2899,
      "promote": 2900,
      "ecu": 2901,
      "Montréal": 2902,
      "advance": 2903,
      "Table": 2904,
      "regular": 2905,
      "Add": 2906,
      "aster": 2907,
      "ipal": 2908,
      "ICE": 2909,
      "written": 2910,
      "ession": 2911,
      "become": 2912,
      "Knowledge": 2913,
      "client": 2914,
      "Capital": 2915,
      "later": 2916,
      "restric": 2917,
      "carried": 2918,
      "usion": 2919,
      "August": 2920,
      "Fran": 2921,
      "ters": 2922,
      "Agree": 2923,
      "provinces": 2924,
      "oney": 2925,
      "sustain": 2926,
      "former": 2927,
      "techn": 2928,
      "gains": 2929,
      "ather": 2930,
      "expected": 2931,
      "science": 2932,
      "MUNICIPALIT": 2933,
      "nel": 2934,
      "iology": 2935,
      "therap": 2936,
      "hibit": 2937,
      "housing": 2938,
      "AU": 2939,
      "commitment": 2940,
      "tis": 2941,
      "tures": 2942,
      "Award": 2943,
      "designated": 2944,
      "likely": 2945,
      "havi": 2946,
      "IMHA": 2947,
      "Exp": 2948,
      "leaders": 2949,
      "publish": 2950,
      "igibility": 2951,
      "Neuro": 2952,
      "1997": 2953,
      "authorized": 2954,
      "Guidelines": 2955,
      "substanti": 2956,
      "Lt": 2957,
      "minim": 2958,
      "42": 2959,
      "satis": 2960,
      "BO": 2961,
      "consent": 2962,
      "erg": 2963,
      "immedi": 2964,
      "participation": 2965,
      "Support": 2966,
      "77": 2967,
      "Pur": 2968,
      "indicated": 2969,
      "CON": 2970,
      "She": 2971,
      "ET": 2972,
      "98": 2973,
      "meric": 2974,
      "Se": 2975,
      "KT": 2976,
      "Aging": 2977,
      "KB": 2978,
      "base": 2979,
      "originating": 2980,
      "Lab": 2981,
      "wee": 2982,
      "trade": 2983,
      "practices": 2984,
      "preci": 2985,
      "Regional": 2986,
      "QU": 2987,
      "usu": 2988,
      "tise": 2989,
      "oung": 2990,
      "primary": 2991,
      "aning": 2992,
      "presented": 2993,
      "format": 2994,
      "NMB": 2995,
      "give": 2996,
      "parent": 2997,
      "enda": 2998,
      "ocation": 2999,
      "Community": 3000,
      "Gene": 3001,
      "evalu": 3002,
      "forcement": 3003,
      "begin": 3004,
      "orders": 3005,
      "Her": 3006,
      "youth": 3007,
      "qualify": 3008,
      "Contact": 3009,
      "They": 3010,
      "McGill": 3011,
      "tools": 3012,
      "transaction": 3013,
      "Commissioner": 3014,
      "greater": 3015,
      "exclud": 3016,
      "ollar": 3017,
      "PR": 3018,
      "1A": 3019,
      "relating": 3020,
      "den": 3021,
      "ultural": 3022,
      "Ltd": 3023,
      "step": 3024,
      "Priv": 3025,
      "past": 3026,
      "teams": 3027,
      "GO": 3028,
      "sciences": 3029,
      "Offer": 3030,
      "plus": 3031,
      "agency": 3032,
      "diction": 3033,
      "processes": 3034,
      "compan": 3035,
      "scienti": 3036,
      "principal": 3037,
      "grad": 3038,
      "immun": 3039,
      "Mr": 3040,
      "Americ": 3041,
      "ctoral": 3042,
      "Over": 3043,
      "residents": 3044,
      "experience": 3045,
      "determining": 3046,
      "cells": 3047,
      "supported": 3048,
      "charitable": 3049,
      "expenditures": 3050,
      "source": 3051,
      "standards": 3052,
      "vail": 3053,
      "strategy": 3054,
      "NS": 3055,
      "VI": 3056,
      "progress": 3057,
      "CD": 3058,
      "One": 3059,
      "Are": 3060,
      "thr": 3061,
      "tach": 3062,
      "estimated": 3063,
      "Help": 3064,
      "methyl": 3065,
      "infr": 3066,
      "residence": 3067,
      "IAB": 3068,
      "efforts": 3069,
      "sis": 3070,
      "Aud": 3071,
      "food": 3072,
      "**": 3073,
      "empor": 3074,
      "transferred": 3075,
      "North": 3076,
      "ERS": 3077,
      "acid": 3078,
      "administrative": 3079,
      "Soci": 3080,
      "etc": 3081,
      "PRO": 3082,
      "third": 3083,
      "Court": 3084,
      "reviewed": 3085,
      "princi": 3086,
      "IVE": 3087,
      "Amount": 3088,
      "Process": 3089,
      "balance": 3090,
      "selling": 3091,
      "ict": 3092,
      "meetings": 3093,
      "strong": 3094,
      "incurred": 3095,
      "start": 3096,
      "imports": 3097,
      "investigators": 3098,
      "ais": 3099,
      "officer": 3100,
      "called": 3101,
      "ime": 3102,
      "official": 3103,
      "List": 3104,
      "T2": 3105,
      "irm": 3106,
      "confidential": 3107,
      "migration": 3108,
      "Corporation": 3109,
      "astru": 3110,
      "holder": 3111,
      "ero": 3112,
      "itis": 3113,
      "utes": 3114,
      "already": 3115,
      "Use": 3116,
      "ission": 3117,
      "want": 3118,
      "prote": 3119,
      "Proper": 3120,
      "still": 3121,
      "Annual": 3122,
      "Leg": 3123,
      "launch": 3124,
      "Fac": 3125,
      "accounting": 3126,
      "Provin": 3127,
      "Stre": 3128,
      "Children": 3129,
      "challeng": 3130,
      "send": 3131,
      "ern": 3132,
      "corporations": 3133,
      "Account": 3134,
      "tection": 3135,
      "extent": 3136,
      "money": 3137,
      "ides": 3138,
      "John": 3139,
      "achieve": 3140,
      "Brun": 3141,
      "nature": 3142,
      "CANADA": 3143,
      "deductions": 3144,
      "researcher": 3145,
      "carry": 3146,
      "Pop": 3147,
      "Up": 3148,
      "administration": 3149,
      ".)": 3150,
      "vo": 3151,
      "distribu": 3152,
      "framework": 3153,
      "submission": 3154,
      "RATION": 3155,
      "creation": 3156,
      "ars": 3157,
      "prevent": 3158,
      "amend": 3159,
      "upon": 3160,
      "ventions": 3161,
      "Pension": 3162,
      "\",": 3163,
      "tees": 3164,
      "Deliver": 3165,
      "until": 3166,
      "print": 3167,
      "bi": 3168,
      "uk": 3169,
      "Fellow": 3170,
      "cihr": 3171,
      "97": 3172,
      "attach": 3173,
      "Sciences": 3174,
      "sheet": 3175,
      "Your": 3176,
      "enhance": 3177,
      "HT": 3178,
      "Guide": 3179,
      "tance": 3180,
      "anced": 3181,
      "Université": 3182,
      "amin": 3183,
      "intended": 3184,
      "Clinical": 3185,
      "rad": 3186,
      "produced": 3187,
      "input": 3188,
      "astructure": 3189,
      "occur": 3190,
      "average": 3191,
      "supporting": 3192,
      "Educ": 3193,
      "sex": 3194,
      "poly": 3195,
      "beneficiary": 3196,
      "exchange": 3197,
      "prem": 3198,
      "enz": 3199,
      "chlor": 3200,
      "Meth": 3201,
      "rated": 3202,
      "reach": 3203,
      "dated": 3204,
      "gary": 3205,
      "Article": 3206,
      "penalty": 3207,
      "Financial": 3208,
      "SPR": 3209,
      "entory": 3210,
      "losses": 3211,
      "manent": 3212,
      "down": 3213,
      "pris": 3214,
      "makers": 3215,
      "Mental": 3216,
      "outcomes": 3217,
      "calculation": 3218,
      "ume": 3219,
      "permit": 3220,
      "PhD": 3221,
      "corporate": 3222,
      "Our": 3223,
      "––": 3224,
      "times": 3225,
      "91": 3226,
      "conducted": 3227,
      "depart": 3228,
      "Arch": 3229,
      "Agreement": 3230,
      "consu": 3231,
      "methods": 3232,
      "obesity": 3233,
      "furniture": 3234,
      "constru": 3235,
      "sufficient": 3236,
      "Medicine": 3237,
      "dian": 3238,
      "ticip": 3239,
      "except": 3240,
      "agno": 3241,
      "tobacco": 3242,
      "manner": 3243,
      "mechanisms": 3244,
      "Medical": 3245,
      "statement": 3246,
      "STE": 3247,
      "86": 3248,
      "innovative": 3249,
      "prelim": 3250,
      "SCO": 3251,
      "environmental": 3252,
      "swick": 3253,
      "56": 3254,
      "Principal": 3255,
      "Brunswick": 3256,
      "transactions": 3257,
      "parties": 3258,
      "sof": 3259,
      "border": 3260,
      "ident": 3261,
      "cross": 3262,
      "954": 3263,
      "tp": 3264,
      "tification": 3265,
      "preliminary": 3266,
      "expertise": 3267,
      "proval": 3268,
      "short": 3269,
      "ethyl": 3270,
      "thritis": 3271,
      "Colle": 3272,
      "utr": 3273,
      "Ty": 3274,
      "atural": 3275,
      "behavi": 3276,
      "irsc": 3277,
      "oph": 3278,
      "ecutive": 3279,
      "Dise": 3280,
      "party": 3281,
      "iod": 3282,
      "families": 3283,
      "pages": 3284,
      "Property": 3285,
      "anim": 3286,
      "create": 3287,
      "admin": 3288,
      "involve": 3289,
      "Interpretation": 3290,
      "Data": 3291,
      "ling": 3292,
      "done": 3293,
      "books": 3294,
      "indicate": 3295,
      "dollar": 3296,
      "suggest": 3297,
      "face": 3298,
      "1996": 3299,
      "Members": 3300,
      "abilities": 3301,
      "Calgary": 3302,
      "//": 3303,
      "water": 3304,
      "Since": 3305,
      "colum": 3306,
      "employed": 3307,
      "Home": 3308,
      "concerning": 3309,
      "Duty": 3310,
      "applicant": 3311,
      "Delivery": 3312,
      "Provincial": 3313,
      "cash": 3314,
      "reduced": 3315,
      "fall": 3316,
      "andid": 3317,
      "valid": 3318,
      "ouver": 3319,
      "unless": 3320,
      "vehicles": 3321,
      "lined": 3322,
      "municipal": 3323,
      "transportation": 3324,
      "onsor": 3325,
      "monitor": 3326,
      "supplier": 3327,
      "ose": 3328,
      "commodation": 3329,
      "zen": 3330,
      "http": 3331,
      "://": 3332,
      "governments": 3333,
      "known": 3334,
      "kind": 3335,
      "oples": 3336,
      "Example": 3337,
      "communication": 3338,
      "Some": 3339,
      "fully": 3340,
      "Engl": 3341,
      "Cred": 3342,
      "ably": 3343,
      "agent": 3344,
      "Competi": 3345,
      "English": 3346,
      "itage": 3347,
      "component": 3348,
      "Ef": 3349,
      "treal": 3350,
      "percentage": 3351,
      "student": 3352,
      "constitu": 3353,
      "onse": 3354,
      "EX": 3355,
      "Professor": 3356,
      "TOW": 3357,
      "son": 3358,
      "duction": 3359,
      "izes": 3360,
      "ishing": 3361,
      "Box": 3362,
      "peal": 3363,
      "bring": 3364,
      "telephone": 3365,
      "trad": 3366,
      "follows": 3367,
      "loor": 3368,
      "While": 3369,
      "link": 3370,
      "representative": 3371,
      "Response": 3372,
      "iev": 3373,
      "created": 3374,
      "tenance": 3375,
      "ancouver": 3376,
      "facilities": 3377,
      "Montreal": 3378,
      "Vancouver": 3379,
      "dex": 3380,
      "Commer": 3381,
      "Project": 3382,
      "patient": 3383,
      "iors": 3384,
      "nam": 3385,
      "requires": 3386,
      "Rem": 3387,
      "requested": 3388,
      "overall": 3389,
      "Society": 3390,
      "ibilities": 3391,
      "covered": 3392,
      "increasing": 3393,
      "protection": 3394,
      "approaches": 3395,
      "receipt": 3396,
      "however": 3397,
      "bor": 3398,
      "ximately": 3399,
      "syn": 3400,
      "bond": 3401,
      "scre": 3402,
      "Benefit": 3403,
      "52": 3404,
      "72": 3405,
      "Registr": 3406,
      "Assess": 3407,
      "aser": 3408,
      "itional": 3409,
      "usive": 3410,
      "applicants": 3411,
      "atab": 3412,
      "76": 3413,
      "subsidy": 3414,
      "intro": 3415,
      "motor": 3416,
      "News": 3417,
      "fib": 3418,
      "disability": 3419,
      "Year": 3420,
      "cup": 3421,
      "problems": 3422,
      "univers": 3423,
      "permanent": 3424,
      "Invest": 3425,
      "language": 3426,
      "added": 3427,
      "Assistant": 3428,
      "situation": 3429,
      "har": 3430,
      "CCA": 3431,
      "young": 3432,
      "RU": 3433,
      "FTA": 3434,
      "acad": 3435,
      "infrastructure": 3436,
      "Cur": 3437,
      "collected": 3438,
      "endor": 3439,
      "fication": 3440,
      "carrier": 3441,
      "discussed": 3442,
      "58": 3443,
      "Id": 3444,
      "pers": 3445,
      "96": 3446,
      "genetic": 3447,
      "living": 3448,
      "notice": 3449,
      "Sp": 3450,
      "endar": 3451,
      "officers": 3452,
      "slips": 3453,
      "super": 3454,
      "Republic": 3455,
      "expense": 3456,
      "olid": 3457,
      "condition": 3458,
      "obtained": 3459,
      "Population": 3460,
      "avel": 3461,
      "much": 3462,
      "tary": 3463,
      "documentation": 3464,
      "ished": 3465,
      "Cost": 3466,
      "atic": 3467,
      "throughout": 3468,
      "CORPO": 3469,
      "urement": 3470,
      "according": 3471,
      "clients": 3472,
      "findings": 3473,
      "ager": 3474,
      "move": 3475,
      "SAINT": 3476,
      "events": 3477,
      "appear": 3478,
      "htm": 3479,
      "olution": 3480,
      "diagno": 3481,
      "mob": 3482,
      "needed": 3483,
      "Street": 3484,
      "challenges": 3485,
      "Education": 3486,
      "excise": 3487,
      "UT": 3488,
      "lia": 3489,
      "committed": 3490,
      "tability": 3491,
      "dumped": 3492,
      "thern": 3493,
      "description": 3494,
      "AB": 3495,
      "High": 3496,
      "PORT": 3497,
      "Sur": 3498,
      "Computer": 3499,
      "calculated": 3500,
      "standard": 3501,
      "correct": 3502,
      "ML": 3503,
      "exer": 3504,
      "items": 3505,
      "proving": 3506,
      "psy": 3507,
      "ilot": 3508,
      "essage": 3509,
      "collection": 3510,
      "qualifying": 3511,
      "53": 3512,
      "ole": 3513,
      "Particip": 3514,
      "dig": 3515,
      "COM": 3516,
      "warehouse": 3517,
      "Direct": 3518,
      "gift": 3519,
      "cut": 3520,
      "ICRH": 3521,
      "CORPORATION": 3522,
      "sole": 3523,
      "CPP": 3524,
      "Opportun": 3525,
      "book": 3526,
      "concl": 3527,
      "shown": 3528,
      "Further": 3529,
      "Cir": 3530,
      "affect": 3531,
      "column": 3532,
      "ongoing": 3533,
      "tock": 3534,
      "trials": 3535,
      "emporary": 3536,
      "ane": 3537,
      "others": 3538,
      "Security": 3539,
      "participate": 3540,
      "rental": 3541,
      "premium": 3542,
      "situations": 3543,
      "collect": 3544,
      "82": 3545,
      "register": 3546,
      "51": 3547,
      "inventory": 3548,
      "gradu": 3549,
      "altern": 3550,
      "lu": 3551,
      "excellence": 3552,
      "longer": 3553,
      "decisions": 3554,
      "Build": 3555,
      "facilitate": 3556,
      "usually": 3557,
      "300": 3558,
      "ancing": 3559,
      "Resources": 3560,
      "finding": 3561,
      "privacy": 3562,
      "Steel": 3563,
      "reference": 3564,
      "Sm": 3565,
      "university": 3566,
      "iratory": 3567,
      "iling": 3568,
      "ulty": 3569,
      "units": 3570,
      "Protection": 3571,
      "earn": 3572,
      "reduction": 3573,
      "particularly": 3574,
      "tware": 3575,
      "companies": 3576,
      "Women": 3577,
      "Har": 3578,
      "gree": 3579,
      "ethical": 3580,
      "Email": 3581,
      "classified": 3582,
      "Task": 3583,
      "73": 3584,
      "actual": 3585,
      "Dav": 3586,
      "stati": 3587,
      "gender": 3588,
      "eration": 3589,
      "HOUS": 3590,
      "beli": 3591,
      "recognized": 3592,
      "yal": 3593,
      "safety": 3594,
      "Travel": 3595,
      "isition": 3596,
      "IHSPR": 3597,
      "iat": 3598,
      "contribute": 3599,
      "59": 3600,
      "More": 3601,
      "conference": 3602,
      "lecular": 3603,
      "leading": 3604,
      "poin": 3605,
      "website": 3606,
      "numbers": 3607,
      "Out": 3608,
      "sus": 3609,
      "cohol": 3610,
      "producer": 3611,
      "previously": 3612,
      "articles": 3613,
      "71": 3614,
      "identification": 3615,
      "quanti": 3616,
      "EDI": 3617,
      "informed": 3618,
      "entered": 3619,
      "scientists": 3620,
      "MAN": 3621,
      "regul": 3622,
      "responsibility": 3623,
      "adjustment": 3624,
      "often": 3625,
      "expect": 3626,
      "charges": 3627,
      "Ma": 3628,
      "Environ": 3629,
      "therefore": 3630,
      "effects": 3631,
      "thing": 3632,
      "ale": 3633,
      "renew": 3634,
      "Int": 3635,
      "logies": 3636,
      "...": 3637,
      "importance": 3638,
      "cargo": 3639,
      "cod": 3640,
      "global": 3641,
      "supports": 3642,
      "Conference": 3643,
      "fill": 3644,
      "Science": 3645,
      "Executive": 3646,
      "Internet": 3647,
      "consultants": 3648,
      "Stati": 3649,
      "categ": 3650,
      "educational": 3651,
      "announced": 3652,
      "approval": 3653,
      "communications": 3654,
      "copies": 3655,
      "ets": 3656,
      "owned": 3657,
      "producers": 3658,
      "Addition": 3659,
      "approximately": 3660,
      "stor": 3661,
      "Results": 3662,
      "Senior": 3663,
      "published": 3664,
      "And": 3665,
      "Perform": 3666,
      "GI": 3667,
      "ster": 3668,
      "sources": 3669,
      "Peer": 3670,
      "leadership": 3671,
      "Bio": 3672,
      "ifically": 3673,
      "establishment": 3674,
      "character": 3675,
      "sponsor": 3676,
      "host": 3677,
      "continued": 3678,
      "whose": 3679,
      "shipment": 3680,
      "reflect": 3681,
      "importers": 3682,
      "requirement": 3683,
      "chem": 3684,
      "tiveness": 3685,
      "goal": 3686,
      "Action": 3687,
      "populations": 3688,
      "lood": 3689,
      "agenda": 3690,
      "Administration": 3691,
      "rev": 3692,
      "critical": 3693,
      "Detail": 3694,
      "licence": 3695,
      "understand": 3696,
      "HE": 3697,
      "inery": 3698,
      "ective": 3699,
      "ker": 3700,
      "mic": 3701,
      "minimum": 3702,
      "ronic": 3703,
      "Subsection": 3704,
      "entry": 3705,
      "Address": 3706,
      "Rate": 3707,
      "arter": 3708,
      "goals": 3709,
      "neuro": 3710,
      "certificate": 3711,
      "BA": 3712,
      "Pa": 3713,
      "Newfound": 3714,
      "calendar": 3715,
      "Newfoundland": 3716,
      "From": 3717,
      "agreed": 3718,
      "tible": 3719,
      "thes": 3720,
      "offered": 3721,
      "yr": 3722,
      "consultation": 3723,
      "ded": 3724,
      "Master": 3725,
      "awar": 3726,
      "involving": 3727,
      "improved": 3728,
      "Working": 3729,
      "K1A": 3730,
      "degree": 3731,
      "Industry": 3732,
      "clearly": 3733,
      "media": 3734,
      "ctive": 3735,
      "positions": 3736,
      "classification": 3737,
      "lative": 3738,
      "Communic": 3739,
      "fab": 3740,
      "ules": 3741,
      "independent": 3742,
      "Activ": 3743,
      "Period": 3744,
      "rural": 3745,
      "ban": 3746,
      "ov": 3747,
      "mers": 3748,
      "aps": 3749,
      "Performance": 3750,
      "owners": 3751,
      "Commercial": 3752,
      "centres": 3753,
      "omed": 3754,
      "CX": 3755,
      "cance": 3756,
      "ician": 3757,
      "ferred": 3758,
      "ARD": 3759,
      "Insurance": 3760,
      "Anti": 3761,
      "internal": 3762,
      "invo": 3763,
      "representatives": 3764,
      "Investigators": 3765,
      "Gender": 3766,
      "might": 3767,
      "ped": 3768,
      "released": 3769,
      "word": 3770,
      "candid": 3771,
      "facility": 3772,
      "amine": 3773,
      "ention": 3774,
      "Docu": 3775,
      "prop": 3776,
      "pho": 3777,
      "resource": 3778,
      "power": 3779,
      "Post": 3780,
      "rule": 3781,
      "row": 3782,
      "tified": 3783,
      "63": 3784,
      "context": 3785,
      "Interest": 3786,
      "Translation": 3787,
      "IR": 3788,
      "Micha": 3789,
      "html": 3790,
      "Chairs": 3791,
      "package": 3792,
      "-[": 3793,
      "emer": 3794,
      "accepted": 3795,
      "conn": 3796,
      "content": 3797,
      "operations": 3798,
      "OPE": 3799,
      "1994": 3800,
      "payers": 3801,
      "close": 3802,
      "jus": 3803,
      "Location": 3804,
      "room": 3805,
      "MAR": 3806,
      "importation": 3807,
      "Innov": 3808,
      "Privacy": 3809,
      "Effec": 3810,
      "erve": 3811,
      "healthy": 3812,
      "allowed": 3813,
      "writing": 3814,
      "Personal": 3815,
      "PPH": 3816,
      "selected": 3817,
      "hist": 3818,
      "lack": 3819,
      "diffic": 3820,
      "consistent": 3821,
      "anta": 3822,
      "here": 3823,
      "collaborative": 3824,
      "Assessment": 3825,
      "79": 3826,
      "zero": 3827,
      "crimination": 3828,
      "immediately": 3829,
      "prepared": 3830,
      "ring": 3831,
      "DC": 3832,
      "purchases": 3833,
      "software": 3834,
      "Michael": 3835,
      "estination": 3836,
      "Tit": 3837,
      "eign": 3838,
      "Workshop": 3839,
      "BE": 3840,
      "datab": 3841,
      "strengthen": 3842,
      "Sim": 3843,
      "reti": 3844,
      "eased": 3845,
      "Youth": 3846,
      "rais": 3847,
      "vacc": 3848,
      "carbon": 3849,
      "Therefore": 3850,
      "encourage": 3851,
      "road": 3852,
      "vell": 3853,
      "Unit": 3854,
      "LI": 3855,
      "owing": 3856,
      "arrangement": 3857,
      "ibe": 3858,
      "Equ": 3859,
      "gets": 3860,
      "structure": 3861,
      "deducted": 3862,
      "Territ": 3863,
      "liament": 3864,
      "idem": 3865,
      "rench": 3866,
      "61": 3867,
      "viol": 3868,
      "Convention": 3869,
      "principles": 3870,
      "amples": 3871,
      "Statistics": 3872,
      "ibut": 3873,
      "announce": 3874,
      "craft": 3875,
      "accur": 3876,
      "pred": 3877,
      "Any": 3878,
      "elf": 3879,
      "MUNICIPALITE": 3880,
      "400": 3881,
      "salary": 3882,
      "mor": 3883,
      "los": 3884,
      "said": 3885,
      "68": 3886,
      "Based": 3887,
      "asked": 3888,
      "agreements": 3889,
      "Paid": 3890,
      "proceeds": 3891,
      "depos": 3892,
      "periods": 3893,
      "dy": 3894,
      "job": 3895,
      "hood": 3896,
      "ler": 3897,
      "Produc": 3898,
      "hours": 3899,
      "occup": 3900,
      "SER": 3901,
      "APP": 3902,
      "businesses": 3903,
      "Audit": 3904,
      "ferences": 3905,
      "interests": 3906,
      "54": 3907,
      "istry": 3908,
      "Charities": 3909,
      "Type": 3910,
      "Investigator": 3911,
      "SCH": 3912,
      "1995": 3913,
      "Field": 3914,
      "jud": 3915,
      "DA": 3916,
      "Title": 3917,
      "academic": 3918,
      "outlined": 3919,
      "Corporate": 3920,
      "TY": 3921,
      "regulations": 3922,
      "matter": 3923,
      "departments": 3924,
      "unique": 3925,
      "excess": 3926,
      "Access": 3927,
      "higher": 3928,
      "detailed": 3929,
      "Ke": 3930,
      "Allow": 3931,
      "74": 3932,
      "light": 3933,
      "Proactive": 3934,
      "HTML": 3935,
      "Importer": 3936,
      "late": 3937,
      "util": 3938,
      "CTION": 3939,
      "feed": 3940,
      "adequ": 3941,
      "universities": 3942,
      "survey": 3943,
      "Supplement": 3944,
      "French": 3945,
      "OPERAT": 3946,
      "vas": 3947,
      "VILLE": 3948,
      "HOUSING": 3949,
      "whom": 3950,
      "Foreign": 3951,
      "responsibilities": 3952,
      "load": 3953,
      "Additional": 3954,
      "Techno": 3955,
      "Adv": 3956,
      "clar": 3957,
      "stated": 3958,
      "allows": 3959,
      "satisf": 3960,
      "Although": 3961,
      "Mod": 3962,
      "estern": 3963,
      "Genetics": 3964,
      "outstanding": 3965,
      "withdraw": 3966,
      "Chin": 3967,
      "debt": 3968,
      "bert": 3969,
      "Port": 3970,
      "People": 3971,
      "territory": 3972,
      "beginning": 3973,
      "cribe": 3974,
      "EST": 3975,
      "Measures": 3976,
      "MON": 3977,
      "Strategy": 3978,
      "skills": 3979,
      "LTD": 3980,
      "few": 3981,
      "ITY": 3982,
      "objective": 3983,
      "pt": 3984,
      "err": 3985,
      "ancy": 3986,
      "atal": 3987,
      "jour": 3988,
      "BIT": 3989,
      "mm": 3990,
      "assign": 3991,
      "expand": 3992,
      "promotion": 3993,
      "incorpor": 3994,
      "sa": 3995,
      "ables": 3996,
      "brain": 3997,
      "cause": 3998,
      "ternal": 3999,
      "Complete": 4000,
      "interested": 4001,
      "Not": 4002,
      "court": 4003,
      "Addiction": 4004,
      "drugs": 4005,
      "WA": 4006,
      "pat": 4007,
      "TOWN": 4008,
      "OPERATIVE": 4009,
      "fix": 4010,
      "else": 4011,
      "replace": 4012,
      "users": 4013,
      "Partnerships": 4014,
      "Order": 4015,
      "G0": 4016,
      "omic": 4017,
      "S0": 4018,
      "Back": 4019,
      "Win": 4020,
      "society": 4021,
      "Bulletin": 4022,
      "tention": 4023,
      "diabetes": 4024,
      "pain": 4025,
      "guid": 4026,
      "Electr": 4027,
      "62": 4028,
      "kets": 4029,
      "specifically": 4030,
      "acquisition": 4031,
      "dissemin": 4032,
      "centre": 4033,
      "containing": 4034,
      "protect": 4035,
      "around": 4036,
      "makes": 4037,
      "utrition": 4038,
      "buy": 4039,
      "Accord": 4040,
      "Publications": 4041,
      "elements": 4042,
      "growth": 4043,
      "92": 4044,
      "interventions": 4045,
      "resulting": 4046,
      "volume": 4047,
      "signed": 4048,
      "travell": 4049,
      "Reporting": 4050,
      "apers": 4051,
      "athletes": 4052,
      "secondary": 4053,
      "Planning": 4054,
      "RAL": 4055,
      "panel": 4056,
      "def": 4057,
      "ula": 4058,
      "earned": 4059,
      "472": 4060,
      "64": 4061,
      "%)": 4062,
      "neg": 4063,
      "Calcul": 4064,
      "mus": 4065,
      "78": 4066,
      "INMD": 4067,
      "Control": 4068,
      "receiving": 4069,
      "refundable": 4070,
      "eck": 4071,
      "views": 4072,
      "maintenance": 4073,
      "spe": 4074,
      "preh": 4075,
      "World": 4076,
      "assessed": 4077,
      "mb": 4078,
      "Consul": 4079,
      "Determin": 4080,
      "ink": 4081,
      "Chinese": 4082,
      "Yuk": 4083,
      "Cr": 4084,
      "minor": 4085,
      "machinery": 4086,
      "rather": 4087,
      "dividends": 4088,
      "variety": 4089,
      "By": 4090,
      "accommodation": 4091,
      "comments": 4092,
      "advanta": 4093,
      "improving": 4094,
      "Fam": 4095,
      "plant": 4096,
      "charged": 4097,
      "workers": 4098,
      "Final": 4099,
      "paragraphs": 4100,
      "MD": 4101,
      "infec": 4102,
      "controlled": 4103,
      "multiple": 4104,
      "depreci": 4105,
      "Yukon": 4106,
      "sens": 4107,
      "monized": 4108,
      "accounts": 4109,
      "Each": 4110,
      "Secret": 4111,
      "primarily": 4112,
      "awareness": 4113,
      "allocated": 4114,
      "Infection": 4115,
      "relation": 4116,
      "burse": 4117,
      "break": 4118,
      "Objec": 4119,
      "amide": 4120,
      "ney": 4121,
      "Island": 4122,
      "gifts": 4123,
      "loan": 4124,
      "Parliament": 4125,
      "revised": 4126,
      "RPP": 4127,
      "presents": 4128,
      "plate": 4129,
      "naire": 4130,
      "contained": 4131,
      "formal": 4132,
      "genes": 4133,
      "week": 4134,
      "icians": 4135,
      "accoun": 4136,
      "summary": 4137,
      "FER": 4138,
      "immune": 4139,
      "ull": 4140,
      "concerns": 4141,
      "inf": 4142,
      "mally": 4143,
      "sor": 4144,
      "Through": 4145,
      "HABIT": 4146,
      "OD": 4147,
      "oid": 4148,
      "……": 4149,
      "update": 4150,
      "coming": 4151,
      "requests": 4152,
      "links": 4153,
      "manufactur": 4154,
      "pi": 4155,
      "premiums": 4156,
      "round": 4157,
      "deceased": 4158,
      "adop": 4159,
      "After": 4160,
      "David": 4161,
      "initiated": 4162,
      "juris": 4163,
      "Sou": 4164,
      "obligations": 4165,
      "positive": 4166,
      "matic": 4167,
      "%.": 4168,
      "career": 4169,
      "Qual": 4170,
      "sustainable": 4171,
      "coordin": 4172,
      "T1": 4173,
      "eligibility": 4174,
      "VILLA": 4175,
      "roke": 4176,
      "citi": 4177,
      "produce": 4178,
      "Immunity": 4179,
      "eas": 4180,
      "HABITATION": 4181,
      "tious": 4182,
      "81": 4183,
      "Day": 4184,
      "iting": 4185,
      "profession": 4186,
      "vascular": 4187,
      "repair": 4188,
      "trainees": 4189,
      "Opportunities": 4190,
      "dead": 4191,
      "lower": 4192,
      "doctoral": 4193,
      "Exhibit": 4194,
      "Bern": 4195,
      "OFF": 4196,
      "eu": 4197,
      "About": 4198,
      "effectiveness": 4199,
      "authorization": 4200,
      "instructions": 4201,
      "models": 4202,
      "oles": 4203,
      "focused": 4204,
      "holding": 4205,
      "fili": 4206,
      "proposal": 4207,
      "great": 4208,
      "complaint": 4209,
      "meaning": 4210,
      "NSO": 4211,
      "owner": 4212,
      "ones": 4213,
      "SERV": 4214,
      "wish": 4215,
      "Common": 4216,
      "laration": 4217,
      "emphas": 4218,
      "discuss": 4219,
      "Site": 4220,
      "LL": 4221,
      "essential": 4222,
      "stre": 4223,
      "Don": 4224,
      "Eng": 4225,
      "Dia": 4226,
      "rop": 4227,
      "today": 4228,
      "IAPH": 4229,
      "yar": 4230,
      "retain": 4231,
      "rement": 4232,
      "biology": 4233,
      "instal": 4234,
      "enable": 4235,
      "technical": 4236,
      "Bas": 4237,
      "struct": 4238,
      "Emer": 4239,
      "Credit": 4240,
      "purchaser": 4241,
      "heart": 4242,
      "Incl": 4243,
      "Archived": 4244,
      "VILLAGE": 4245,
      "suring": 4246,
      "rency": 4247,
      "Organization": 4248,
      "Bar": 4249,
      "Individ": 4250,
      "behaviour": 4251,
      "Investment": 4252,
      "initial": 4253,
      "My": 4254,
      "Vol": 4255,
      "plications": 4256,
      "awarded": 4257,
      "passeng": 4258,
      "tour": 4259,
      "demand": 4260,
      "Inte": 4261,
      "ison": 4262,
      "olar": 4263,
      "pects": 4264,
      "possession": 4265,
      "suggested": 4266,
      "hab": 4267,
      "themes": 4268,
      "refle": 4269,
      "assets": 4270,
      "EI": 4271,
      "aspects": 4272,
      "Head": 4273,
      "achiev": 4274,
      "HS": 4275,
      "online": 4276,
      "farming": 4277,
      "respective": 4278,
      "Queen": 4279,
      "seniors": 4280,
      "vailing": 4281,
      "dates": 4282,
      "look": 4283,
      "ensation": 4284,
      "ought": 4285,
      "ica": 4286,
      "entire": 4287,
      "concep": 4288,
      "iring": 4289,
      "prehensive": 4290,
      "Multi": 4291,
      "Manager": 4292,
      "space": 4293,
      "transmit": 4294,
      "miss": 4295,
      "TAL": 4296,
      "recr": 4297,
      "Saf": 4298,
      "Compl": 4299,
      "IPPH": 4300,
      "problem": 4301,
      "natural": 4302,
      "proposals": 4303,
      "Priority": 4304,
      "ineering": 4305,
      "Finance": 4306,
      "perspec": 4307,
      "investments": 4308,
      "alcohol": 4309,
      "mption": 4310,
      "Competition": 4311,
      "gar": 4312,
      "supplement": 4313,
      "substantially": 4314,
      "57": 4315,
      "Also": 4316,
      "statements": 4317,
      "Legis": 4318,
      "Ques": 4319,
      "NAFTA": 4320,
      "83": 4321,
      "Orig": 4322,
      "Area": 4323,
      "Diabetes": 4324,
      "quarter": 4325,
      "benz": 4326,
      "Effective": 4327,
      "ats": 4328,
      "dollars": 4329,
      "Last": 4330,
      "computer": 4331,
      "lit": 4332,
      "fee": 4333,
      "volunte": 4334,
      "proof": 4335,
      "Require": 4336,
      "plas": 4337,
      "amended": 4338,
      "ITCs": 4339,
      "whole": 4340,
      "parents": 4341,
      "laws": 4342,
      "Def": 4343,
      "bulletin": 4344,
      "SARS": 4345,
      "labour": 4346,
      "sco": 4347,
      "69": 4348,
      "ping": 4349,
      "implemented": 4350,
      "identifying": 4351,
      "Vis": 4352,
      "recommended": 4353,
      "acceptable": 4354,
      "J0": 4355,
      "hard": 4356,
      "Tel": 4357,
      "stein": 4358,
      "Document": 4359,
      "Western": 4360,
      "discrimination": 4361,
      "kele": 4362,
      "older": 4363,
      "tition": 4364,
      "rem": 4365,
      "Transport": 4366,
      "adjustments": 4367,
      "excluding": 4368,
      "Mac": 4369,
      "cher": 4370,
      "stim": 4371,
      "personnel": 4372,
      "sugges": 4373,
      "factor": 4374,
      "SC": 4375,
      "lex": 4376,
      "lat": 4377,
      "revenue": 4378,
      "membership": 4379,
      "Technology": 4380,
      "options": 4381,
      "voluntary": 4382,
      "nur": 4383,
      "intervention": 4384,
      "KE": 4385,
      "penalties": 4386,
      "branch": 4387,
      "political": 4388,
      "Ev": 4389,
      "bank": 4390,
      "og": 4391,
      "graduate": 4392,
      "Indian": 4393,
      "placed": 4394,
      "Rich": 4395,
      "959": 4396,
      "disciplines": 4397,
      "Ve": 4398,
      "relative": 4399,
      "committees": 4400,
      "normally": 4401,
      "exemption": 4402,
      "According": 4403,
      "undertaking": 4404,
      "During": 4405,
      "chronic": 4406,
      "alleg": 4407,
      "continues": 4408,
      "blood": 4409,
      "anned": 4410,
      "safe": 4411,
      "Trust": 4412,
      "tervailing": 4413,
      "Reports": 4414,
      "isters": 4415,
      "engaged": 4416,
      "examples": 4417,
      "deductible": 4418,
      "romo": 4419,
      "expressed": 4420,
      "keletal": 4421,
      "select": 4422,
      "enced": 4423,
      "SI": 4424,
      "Arthritis": 4425,
      "SY": 4426,
      "verification": 4427,
      "tify": 4428,
      "Mus": 4429,
      "integrated": 4430,
      "NET": 4431,
      "steps": 4432,
      "launched": 4433,
      "discussions": 4434,
      "OFFICE": 4435,
      "AP": 4436,
      "oil": 4437,
      "NEX": 4438,
      "spir": 4439,
      "sures": 4440,
      "Generally": 4441,
      "Registered": 4442,
      "FORM": 4443,
      "Partner": 4444,
      "Bre": 4445,
      "contains": 4446,
      "Building": 4447,
      "turn": 4448,
      "imin": 4449,
      "series": 4450,
      "Food": 4451,
      "omics": 4452,
      "Operations": 4453,
      "recently": 4454,
      "towards": 4455,
      "appeal": 4456,
      "learning": 4457,
      "LIC": 4458,
      "vic": 4459,
      "ont": 4460,
      "becomes": 4461,
      "SK": 4462,
      "infection": 4463,
      "Rebate": 4464,
      "rac": 4465,
      "along": 4466,
      "tabl": 4467,
      "etal": 4468,
      "Family": 4469,
      "aboriginal": 4470,
      "duced": 4471,
      "American": 4472,
      "West": 4473,
      "mix": 4474,
      "Taxable": 4475,
      "carrying": 4476,
      "94": 4477,
      "Econ": 4478,
      "bey": 4479,
      "competitions": 4480,
      "CES": 4481,
      "FN": 4482,
      "reserve": 4483,
      "disorders": 4484,
      "threat": 4485,
      "Cell": 4486,
      "RFI": 4487,
      "machines": 4488,
      "Innovation": 4489,
      "Ta": 4490,
      "pilot": 4491,
      "resh": 4492,
      "hot": 4493,
      "mid": 4494,
      "comprehensive": 4495,
      "Vi": 4496,
      "elect": 4497,
      "QC": 4498,
      "trial": 4499,
      "tually": 4500,
      "taxpayers": 4501,
      "preced": 4502,
      "Neurosciences": 4503,
      "officials": 4504,
      "Laval": 4505,
      "opin": 4506,
      "chloride": 4507,
      "affili": 4508,
      "tissu": 4509,
      "advice": 4510,
      "Vice": 4511,
      "cts": 4512,
      "vil": 4513,
      "relates": 4514,
      "applying": 4515,
      "commission": 4516,
      "NR": 4517,
      "YH": 4518,
      "negative": 4519,
      "ensuring": 4520,
      "recipients": 4521,
      "ownership": 4522,
      "Immigration": 4523,
      "elsewhere": 4524,
      "receipts": 4525,
      "Eligible": 4526,
      "proportion": 4527,
      "codes": 4528,
      "holds": 4529,
      "fire": 4530,
      "TOTAL": 4531,
      "Let": 4532,
      "margin": 4533,
      "goti": 4534,
      "statistics": 4535,
      "CSA": 4536,
      "Hear": 4537,
      "110": 4538,
      "nit": 4539,
      "rics": 4540,
      "ff": 4541,
      "fit": 4542,
      "relief": 4543,
      "ony": 4544,
      "ley": 4545,
      "fast": 4546,
      "size": 4547,
      "leave": 4548,
      "Method": 4549,
      "construction": 4550,
      "Enforcement": 4551,
      "supplied": 4552,
      "claims": 4553,
      "exercise": 4554,
      "Lim": 4555,
      "reim": 4556,
      "choose": 4557,
      "CV": 4558,
      "Pres": 4559,
      "attribu": 4560,
      "riter": 4561,
      "Products": 4562,
      "TON": 4563,
      "granted": 4564,
      "Rece": 4565,
      "City": 4566,
      "Prince": 4567,
      "serve": 4568,
      "Authorization": 4569,
      "fibres": 4570,
      "phenyl": 4571,
      "Distr": 4572,
      "caused": 4573,
      "responses": 4574,
      "addressed": 4575,
      "250": 4576,
      "T50": 4577,
      "GU": 4578,
      "ially": 4579,
      "stead": 4580,
      "confirm": 4581,
      "vessel": 4582,
      "ands": 4583,
      "effort": 4584,
      "psycho": 4585,
      "Pen": 4586,
      "stock": 4587,
      "workshops": 4588,
      "reasons": 4589,
      "Labrad": 4590,
      "ls": 4591,
      "Release": 4592,
      "Labrador": 4593,
      "illness": 4594,
      "delivered": 4595,
      "B3": 4596,
      "Global": 4597,
      "IGH": 4598,
      "monitoring": 4599,
      "chair": 4600,
      "ibr": 4601,
      "printed": 4602,
      "highly": 4603,
      "150": 4604,
      "PART": 4605,
      "fers": 4606,
      "furnish": 4607,
      "suffer": 4608,
      "resist": 4609,
      "gins": 4610,
      "tocol": 4611,
      "expenditure": 4612,
      "scope": 4613,
      "correspond": 4614,
      "nes": 4615,
      "changed": 4616,
      "FILE": 4617,
      "omedical": 4618,
      "BN": 4619,
      "prohib": 4620,
      "aircraft": 4621,
      "Disease": 4622,
      "UP": 4623,
      "ordination": 4624,
      "Registration": 4625,
      "mark": 4626,
      "lot": 4627,
      "iven": 4628,
      "shared": 4629,
      "arrangements": 4630,
      "reviews": 4631,
      "difference": 4632,
      "enge": 4633,
      "protein": 4634,
      "teach": 4635,
      "sharing": 4636,
      "Destination": 4637,
      "mits": 4638,
      "concern": 4639,
      "Dal": 4640,
      "Applicants": 4641,
      "versight": 4642,
      "----": 4643,
      "testing": 4644,
      "Franç": 4645,
      "emerging": 4646,
      "practition": 4647,
      "ft": 4648,
      "Excellence": 4649,
      "Peoples": 4650,
      "che": 4651,
      "School": 4652,
      "Bro": 4653,
      "tings": 4654,
      "brief": 4655,
      "RY": 4656,
      "answer": 4657,
      "Researchers": 4658,
      "schools": 4659,
      "restricted": 4660,
      "arriers": 4661,
      "animal": 4662,
      "ruling": 4663,
      "ung": 4664,
      "T3": 4665,
      "ideo": 4666,
      "1231": 4667,
      "________________________________": 4668,
      "war": 4669,
      "measure": 4670,
      "Detailed": 4671,
      "external": 4672,
      "schedule": 4673,
      "ury": 4674,
      "ergy": 4675,
      "Ger": 4676,
      "1993": 4677,
      "ATE": 4678,
      "puty": 4679,
      "Meal": 4680,
      "purchased": 4681,
      "professionals": 4682,
      "immigr": 4683,
      "undertaken": 4684,
      "involvement": 4685,
      "gas": 4686,
      "IHDC": 4687,
      "lev": 4688,
      "lier": 4689,
      "salts": 4690,
      "TAX": 4691,
      "Record": 4692,
      "km": 4693,
      "advis": 4694,
      "Indic": 4695,
      "fairs": 4696,
      "IHDCYH": 4697,
      "LAN": 4698,
      "Ver": 4699,
      "pare": 4700,
      "enyl": 4701,
      "Ms": 4702,
      "enforcement": 4703,
      "Status": 4704,
      "Main": 4705,
      "ico": 4706,
      "irth": 4707,
      "culatory": 4708,
      "fuge": 4709,
      "screening": 4710,
      "Current": 4711,
      "Will": 4712,
      "FO": 4713,
      "organ": 4714,
      "mes": 4715,
      "comply": 4716,
      "rought": 4717,
      "Collabor": 4718,
      "Company": 4719,
      "attend": 4720,
      "INTER": 4721,
      "beyond": 4722,
      "Afr": 4723,
      "consumption": 4724,
      "TD": 4725,
      "fig": 4726,
      "Expenses": 4727,
      "flow": 4728,
      "quart": 4729,
      "differences": 4730,
      "loskeletal": 4731,
      "Law": 4732,
      "thoxy": 4733,
      "respecting": 4734,
      "Vic": 4735,
      "regn": 4736,
      "ean": 4737,
      "pd": 4738,
      "iovascular": 4739,
      "questionnaire": 4740,
      "Origin": 4741,
      "culoskeletal": 4742,
      "performed": 4743,
      "Electronic": 4744,
      "1990": 4745,
      "contracts": 4746,
      "Bernstein": 4747,
      "setting": 4748,
      "components": 4749,
      "enza": 4750,
      "PER": 4751,
      "Tu": 4752,
      "affected": 4753,
      "tional": 4754,
      "gross": 4755,
      "GC": 4756,
      "1991": 4757,
      "properties": 4758,
      "reasonably": 4759,
      "topics": 4760,
      "obligation": 4761,
      "RF": 4762,
      "adequate": 4763,
      "divers": 4764,
      "appoint": 4765,
      "RES": 4766,
      "senior": 4767,
      "abs": 4768,
      "Royal": 4769,
      "dedic": 4770,
      "Respiratory": 4771,
      "Card": 4772,
      "VER": 4773,
      "ald": 4774,
      "risks": 4775,
      "therapy": 4776,
      "IE": 4777,
      "Pos": 4778,
      "ensee": 4779,
      "ently": 4780,
      "angible": 4781,
      "expiry": 4782,
      "win": 4783,
      "shipments": 4784,
      "dustrial": 4785,
      "Agr": 4786,
      "Produ": 4787,
      "LES": 4788,
      "furnishings": 4789,
      "dev": 4790,
      "majority": 4791,
      "iche": 4792,
      "Most": 4793,
      "Affairs": 4794,
      "Rental": 4795,
      "compet": 4796,
      "exti": 4797,
      "micro": 4798,
      "Deputy": 4799,
      "live": 4800,
      "presentation": 4801,
      "OMS": 4802,
      "TT": 4803,
      "ining": 4804,
      "receives": 4805,
      "Anal": 4806,
      "0L": 4807,
      "consequ": 4808,
      "distribution": 4809,
      "stab": 4810,
      "rap": 4811,
      "Bill": 4812,
      "fishing": 4813,
      "pharm": 4814,
      "amendments": 4815,
      "sets": 4816,
      "avoid": 4817,
      "quarters": 4818,
      "Euro": 4819,
      "ounce": 4820,
      "timely": 4821,
      "offices": 4822,
      "once": 4823,
      "Phys": 4824,
      "zenship": 4825,
      "accept": 4826,
      "arch": 4827,
      "represents": 4828,
      "600": 4829,
      "minus": 4830,
      "Budget": 4831,
      "ming": 4832,
      "avour": 4833,
      "equival": 4834,
      "bodies": 4835,
      "Requirements": 4836,
      "direction": 4837,
      "Initiatives": 4838,
      "Communications": 4839,
      "recognition": 4840,
      "uded": 4841,
      "technologies": 4842,
      "thereof": 4843,
      "Activities": 4844,
      "Hal": 4845,
      "VE": 4846,
      "hor": 4847,
      "entity": 4848,
      "Di": 4849,
      "etary": 4850,
      "NEXUS": 4851,
      "completing": 4852,
      "Country": 4853,
      "stat": 4854,
      "takes": 4855,
      "Study": 4856,
      "South": 4857,
      "CK": 4858,
      "culture": 4859,
      "text": 4860,
      "earlier": 4861,
      "Forum": 4862,
      "Edward": 4863,
      "Heritage": 4864,
      "T5013": 4865,
      "gam": 4866,
      "transmission": 4867,
      "numer": 4868,
      "idge": 4869,
      "convention": 4870,
      "negoti": 4871,
      "mention": 4872,
      "vendor": 4873,
      "Foot": 4874,
      "reedom": 4875,
      "element": 4876,
      "CUST": 4877,
      "King": 4878,
      "arts": 4879,
      "McMaster": 4880,
      "93": 4881,
      "calculating": 4882,
      "anticip": 4883,
      "idemiology": 4884,
      "core": 4885,
      "hop": 4886,
      "message": 4887,
      "foundation": 4888,
      "ELL": 4889,
      "explor": 4890,
      "FEREN": 4891,
      "claiming": 4892,
      "lay": 4893,
      "venues": 4894,
      "treated": 4895,
      "demonstrate": 4896,
      "recruit": 4897,
      "ains": 4898,
      "Robert": 4899,
      "sites": 4900,
      "prises": 4901,
      "solely": 4902,
      "reight": 4903,
      "licens": 4904,
      "BER": 4905,
      "subparagraph": 4906,
      "deadline": 4907,
      "stream": 4908,
      "useful": 4909,
      "genetics": 4910,
      "Winn": 4911,
      "monthly": 4912,
      "onour": 4913,
      "regulation": 4914,
      "pdf": 4915,
      "idents": 4916,
      "Chief": 4917,
      "housie": 4918,
      "Dalhousie": 4919,
      "dam": 4920,
      "tin": 4921,
      "invited": 4922,
      "encouraged": 4923,
      "attention": 4924,
      "ighted": 4925,
      "Media": 4926,
      "Paul": 4927,
      "operator": 4928,
      "cellent": 4929,
      "courses": 4930,
      "sectors": 4931,
      "rup": 4932,
      "works": 4933,
      "allocation": 4934,
      "taining": 4935,
      "draft": 4936,
      "search": 4937,
      "ulated": 4938,
      "operated": 4939,
      "aine": 4940,
      "relate": 4941,
      "deposit": 4942,
      "dee": 4943,
      "empt": 4944,
      "Adjust": 4945,
      "CUSTOMS": 4946,
      "ute": 4947,
      "adjusted": 4948,
      "ford": 4949,
      "STRI": 4950,
      "formula": 4951,
      "Authority": 4952,
      "exclusive": 4953,
      "APA": 4954,
      "WP": 4955,
      "atters": 4956,
      "RRIF": 4957,
      "Certificate": 4958,
      "MIN": 4959,
      "Sales": 4960,
      "says": 4961,
      "quir": 4962,
      "ector": 4963,
      "Eligibility": 4964,
      "billion": 4965,
      "onically": 4966,
      "iaz": 4967,
      "selves": 4968,
      "Design": 4969,
      "ipeg": 4970,
      "DO": 4971,
      "diversity": 4972,
      "Economic": 4973,
      "Europe": 4974,
      "hear": 4975,
      "agers": 4976,
      "embr": 4977,
      "worked": 4978,
      "kg": 4979,
      "Winnipeg": 4980,
      "espec": 4981,
      "especially": 4982,
      "Page": 4983,
      "Lan": 4984,
      "SION": 4985,
      "fined": 4986,
      "index": 4987,
      "retail": 4988,
      "Brain": 4989,
      "renov": 4990,
      "dissemination": 4991,
      "ason": 4992,
      "authorities": 4993,
      "ograph": 4994,
      "why": 4995,
      "remittance": 4996,
      "That": 4997,
      "120": 4998,
      "ICES": 4999,
      "Laur": 5000,
      "GAC": 5001,
      "ifies": 5002,
      "completion": 5003,
      "agents": 5004,
      "INFORM": 5005,
      "uitant": 5006,
      "Certain": 5007,
      "stage": 5008,
      "user": 5009,
      "Centres": 5010,
      "secure": 5011,
      "hosp": 5012,
      "Motion": 5013,
      "quiries": 5014,
      "fellow": 5015,
      "nd": 5016,
      "subheading": 5017,
      "Intro": 5018,
      "Mis": 5019,
      "itself": 5020,
      "ollow": 5021,
      "display": 5022,
      "legislative": 5023,
      "SCOGAC": 5024,
      "iation": 5025,
      "evaluate": 5026,
      "Joint": 5027,
      "INFORMATION": 5028,
      "Road": 5029,
      "dom": 5030,
      "memorandum": 5031,
      "UND": 5032,
      "imposed": 5033,
      "ART": 5034,
      "Transfer": 5035,
      "satisfied": 5036,
      "FE": 5037,
      "REG": 5038,
      "mobile": 5039,
      "consultations": 5040,
      "Sign": 5041,
      "disposed": 5042,
      "pic": 5043,
      "investigator": 5044,
      "REFEREN": 5045,
      "central": 5046,
      "depreciable": 5047,
      "confl": 5048,
      "Applicant": 5049,
      "Basic": 5050,
      "416": 5051,
      "earnings": 5052,
      "Filing": 5053,
      "birth": 5054,
      "news": 5055,
      "Pat": 5056,
      "acet": 5057,
      "Item": 5058,
      "Lead": 5059,
      "manufacturer": 5060,
      "Fellowship": 5061,
      "equivalent": 5062,
      "dou": 5063,
      "title": 5064,
      "quiry": 5065,
      "Mex": 5066,
      "essions": 5067,
      "Hy": 5068,
      "Province": 5069,
      "convey": 5070,
      "Announce": 5071,
      "Heart": 5072,
      "licensee": 5073,
      "sched": 5074,
      "relationships": 5075,
      "far": 5076,
      "became": 5077,
      "Amounts": 5078,
      "prise": 5079,
      "Related": 5080,
      "pool": 5081,
      "––––": 5082,
      "Cons": 5083,
      "pha": 5084,
      "Prepar": 5085,
      "Fu": 5086,
      "examination": 5087,
      "institutes": 5088,
      "compared": 5089,
      "iques": 5090,
      "ulture": 5091,
      "Contribu": 5092,
      "Capacity": 5093,
      "yet": 5094,
      "ulner": 5095,
      "INE": 5096,
      "Criter": 5097,
      "Pan": 5098,
      "estate": 5099,
      "Phase": 5100,
      "invoice": 5101,
      "(¶": 5102,
      "tabol": 5103,
      "coach": 5104,
      "oranda": 5105,
      "elimin": 5106,
      "Paragraph": 5107,
      "Key": 5108,
      "Ren": 5109,
      "Module": 5110,
      "Promo": 5111,
      "VAL": 5112,
      "brought": 5113,
      "unction": 5114,
      "region": 5115,
      "regions": 5116,
      "America": 5117,
      "Directors": 5118,
      "photo": 5119,
      "Cli": 5120,
      "resol": 5121,
      "1992": 5122,
      "Cy": 5123,
      "influence": 5124,
      "DISTRI": 5125,
      "Once": 5126,
      "participant": 5127,
      "DES": 5128,
      "database": 5129,
      "wor": 5130,
      "relevance": 5131,
      "aran": 5132,
      "track": 5133,
      "nic": 5134,
      "ota": 5135,
      "avings": 5136,
      "Region": 5137,
      "Issued": 5138,
      "Emerging": 5139,
      "Victor": 5140,
      "ah": 5141,
      "compu": 5142,
      "Temporary": 5143,
      "iatric": 5144,
      "habilit": 5145,
      "complainant": 5146,
      "introduced": 5147,
      "bursement": 5148,
      "Prefer": 5149,
      "files": 5150,
      "container": 5151,
      "appr": 5152,
      "burden": 5153,
      "weeks": 5154,
      "Criteria": 5155,
      "novel": 5156,
      "Compliance": 5157,
      "opinion": 5158,
      "lives": 5159,
      "manufactured": 5160,
      "buildings": 5161,
      "SOCI": 5162,
      "Framework": 5163,
      "Jean": 5164,
      "PC": 5165,
      "wers": 5166,
      "alter": 5167,
      "patho": 5168,
      "locations": 5169,
      "Sing": 5170,
      "excellent": 5171,
      "medicine": 5172,
      "Techn": 5173,
      "functions": 5174,
      "inding": 5175,
      "Disclo": 5176,
      "violence": 5177,
      "cas": 5178,
      "highest": 5179,
      "electronically": 5180,
      "Participants": 5181,
      "Scienti": 5182,
      "acquire": 5183,
      "passenger": 5184,
      "SYSTE": 5185,
      "effectively": 5186,
      "targeted": 5187,
      "remaining": 5188,
      "wood": 5189,
      "ising": 5190,
      "shows": 5191,
      "accountability": 5192,
      "India": 5193,
      "dispu": 5194,
      "molecular": 5195,
      "Peter": 5196,
      "served": 5197,
      "Safety": 5198,
      "itals": 5199,
      "seven": 5200,
      "floor": 5201,
      "lif": 5202,
      "incorporated": 5203,
      "hydroxy": 5204,
      "named": 5205,
      "Preferential": 5206,
      "AM": 5207,
      "eve": 5208,
      "roles": 5209,
      "themselves": 5210,
      "amino": 5211,
      "rating": 5212,
      "andom": 5213,
      "took": 5214,
      "dividend": 5215,
      "liter": 5216,
      "Airport": 5217,
      "CCC": 5218,
      "allowable": 5219,
      "serious": 5220,
      "challenge": 5221,
      "although": 5222,
      "Regulation": 5223,
      "thesis": 5224,
      "extile": 5225,
      "disabilities": 5226,
      "Chan": 5227,
      "dealing": 5228,
      "Incre": 5229,
      "igence": 5230,
      "IHR": 5231,
      "SH": 5232,
      "mpos": 5233,
      "prepare": 5234,
      "economy": 5235,
      "Time": 5236,
      "dim": 5237,
      "bot": 5238,
      "941": 5239,
      "Alan": 5240,
      "CF": 5241,
      "mentioned": 5242,
      "AG": 5243,
      "Avenue": 5244,
      "TS": 5245,
      "history": 5246,
      "T20": 5247,
      "ches": 5248,
      "Refund": 5249,
      "Dump": 5250,
      "ron": 5251,
      "propri": 5252,
      "describe": 5253,
      "T4A": 5254,
      "followed": 5255,
      "fields": 5256,
      "Footnote": 5257,
      "integration": 5258,
      "Rul": 5259,
      "stamp": 5260,
      "failure": 5261,
      "advantage": 5262,
      "bel": 5263,
      "pointed": 5264,
      "instalment": 5265,
      "compensation": 5266,
      "analy": 5267,
      "icing": 5268,
      "Determination": 5269,
      "ifications": 5270,
      "annuitant": 5271,
      "Step": 5272,
      "chequ": 5273,
      "examine": 5274,
      "limits": 5275,
      "retirement": 5276,
      "Games": 5277,
      "mend": 5278,
      "DISTRICT": 5279,
      "processed": 5280,
      "DIX": 5281,
      "Langu": 5282,
      "Floor": 5283,
      "cou": 5284,
      "iam": 5285,
      "EDU": 5286,
      "otw": 5287,
      "otwear": 5288,
      "Ge": 5289,
      "promoting": 5290,
      "excluded": 5291,
      "efficient": 5292,
      "attached": 5293,
      "ILL": 5294,
      "arms": 5295,
      "entially": 5296,
      "quantity": 5297,
      "directed": 5298,
      "frequ": 5299,
      "cin": 5300,
      "outcome": 5301,
      "summar": 5302,
      "123": 5303,
      "160": 5304,
      "references": 5305,
      "Yes": 5306,
      "addic": 5307,
      "causes": 5308,
      "heritage": 5309,
      "cot": 5310,
      "BP": 5311,
      "pyr": 5312,
      "improvements": 5313,
      "conducting": 5314,
      "Nutrition": 5315,
      "Coordin": 5316,
      "tabolism": 5317,
      "sugar": 5318,
      "operate": 5319,
      "customer": 5320,
      "doing": 5321,
      "folio": 5322,
      "Objectives": 5323,
      "fresh": 5324,
      "alpha": 5325,
      "APPEN": 5326,
      "CL": 5327,
      "scal": 5328,
      "istic": 5329,
      "assu": 5330,
      "tel": 5331,
      "via": 5332,
      "Pol": 5333,
      "territories": 5334,
      "dest": 5335,
      "cancell": 5336,
      "Search": 5337,
      "path": 5338,
      "networks": 5339,
      "video": 5340,
      "Ep": 5341,
      "addresses": 5342,
      "internationally": 5343,
      "Cre": 5344,
      "secu": 5345,
      "employers": 5346,
      "azine": 5347,
      "preceding": 5348,
      "APPENDIX": 5349,
      "combined": 5350,
      "diagnosis": 5351,
      "chart": 5352,
      "equity": 5353,
      "association": 5354,
      "Small": 5355,
      "Lic": 5356,
      "................................................................": 5357,
      "CS": 5358,
      "IER": 5359,
      "Jus": 5360,
      "Atlan": 5361,
      "Ear": 5362,
      "peals": 5363,
      "idine": 5364,
      "olutions": 5365,
      "simile": 5366,
      "NOT": 5367,
      "habilitation": 5368,
      "Bl": 5369,
      "OP": 5370,
      "aimed": 5371,
      "targets": 5372,
      "Applicable": 5373,
      "pression": 5374,
      "MUNICIPALITY": 5375,
      "Ship": 5376,
      "uation": 5377,
      "believe": 5378,
      "influenza": 5379,
      "ichever": 5380,
      "Many": 5381,
      "pleased": 5382,
      "availability": 5383,
      "sample": 5384,
      "esty": 5385,
      "abuse": 5386,
      "biological": 5387,
      "Classification": 5388,
      "assigned": 5389,
      "encing": 5390,
      "Charter": 5391,
      "subsections": 5392,
      "Only": 5393,
      "facts": 5394,
      "foster": 5395,
      "iii": 5396,
      "Estab": 5397,
      "las": 5398,
      "laboratory": 5399,
      "places": 5400,
      "rapid": 5401,
      "reme": 5402,
      "instruments": 5403,
      "expression": 5404,
      "substantial": 5405,
      "Fellowships": 5406,
      "administer": 5407,
      "alternative": 5408,
      "Cro": 5409,
      "Deduc": 5410,
      "Change": 5411,
      "%,": 5412,
      "enn": 5413,
      "contribut": 5414,
      "Accoun": 5415,
      "Payments": 5416,
      "eline": 5417,
      "institutional": 5418,
      "Farm": 5419,
      "Diseases": 5420,
      "side": 5421,
      "assem": 5422,
      "aceu": 5423,
      "propyl": 5424,
      "shel": 5425,
      "susp": 5426,
      "whichever": 5427,
      "Doctoral": 5428,
      "Question": 5429,
      "PU": 5430,
      "article": 5431,
      "providers": 5432,
      "corn": 5433,
      "remains": 5434,
      "Ware": 5435,
      "rest": 5436,
      "det": 5437,
      "TAR": 5438,
      "oking": 5439,
      "MES": 5440,
      "adopted": 5441,
      "contributed": 5442,
      "trustee": 5443,
      "Benefits": 5444,
      "growing": 5445,
      "controls": 5446,
      "Provide": 5447,
      "interactions": 5448,
      "carbox": 5449,
      "\")": 5450,
      "governance": 5451,
      "But": 5452,
      "dedicated": 5453,
      "greg": 5454,
      "mag": 5455,
      "accurate": 5456,
      "Mater": 5457,
      "ér": 5458,
      "provisional": 5459,
      "SERVICES": 5460,
      "hospitals": 5461,
      "Enh": 5462,
      "Introduction": 5463,
      "Establ": 5464,
      "learn": 5465,
      "tables": 5466,
      "wr": 5467,
      "ensus": 5468,
      "addressing": 5469,
      "continuous": 5470,
      "IAN": 5471,
      "iable": 5472,
      "kil": 5473,
      "tom": 5474,
      "governmental": 5475,
      "thus": 5476,
      "andemic": 5477,
      "phase": 5478,
      "VAN": 5479,
      "matters": 5480,
      "Psy": 5481,
      "Index": 5482,
      "traditional": 5483,
      "Atlantic": 5484,
      "ato": 5485,
      "uration": 5486,
      "surve": 5487,
      "productive": 5488,
      "Suppl": 5489,
      "explained": 5490,
      "near": 5491,
      "wine": 5492,
      "Northern": 5493,
      "Gre": 5494,
      "Areas": 5495,
      "Fall": 5496,
      "Apply": 5497,
      "sports": 5498,
      "always": 5499,
      "Such": 5500,
      "builder": 5501,
      "annually": 5502,
      "decre": 5503,
      "explains": 5504,
      "guidance": 5505,
      "BRO": 5506,
      "kers": 5507,
      "ondon": 5508,
      "Ministry": 5509,
      "Tob": 5510,
      "CIC": 5511,
      "resulted": 5512,
      "organized": 5513,
      "Follow": 5514,
      "Tim": 5515,
      "Prac": 5516,
      "explan": 5517,
      "Penal": 5518,
      "covery": 5519,
      "outlines": 5520,
      "marked": 5521,
      "posted": 5522,
      "Subject": 5523,
      "Issues": 5524,
      "urities": 5525,
      "donation": 5526,
      "Volun": 5527,
      "planned": 5528,
      "impair": 5529,
      "107": 5530,
      "adver": 5531,
      "earning": 5532,
      "puts": 5533,
      "interpre": 5534,
      "IONS": 5535,
      "biomedical": 5536,
      "Musculoskeletal": 5537,
      "aware": 5538,
      "Life": 5539,
      "London": 5540,
      "Priorities": 5541,
      "Justice": 5542,
      "describ": 5543,
      "College": 5544,
      "RIV": 5545,
      "inclusion": 5546,
      "Projects": 5547,
      "producing": 5548,
      "continuing": 5549,
      "mechanism": 5550,
      "renewal": 5551,
      "Ris": 5552,
      "imer": 5553,
      "mises": 5554,
      "Mexico": 5555,
      "Polic": 5556,
      "adap": 5557,
      "elt": 5558,
      "bul": 5559,
      "creating": 5560,
      "broker": 5561,
      "recognize": 5562,
      "Li": 5563,
      "itation": 5564,
      "involves": 5565,
      "Assistance": 5566,
      "peoples": 5567,
      "Accounting": 5568,
      "icultural": 5569,
      "IND": 5570,
      "Place": 5571,
      "Equipment": 5572,
      "Carr": 5573,
      "nom": 5574,
      "infectious": 5575,
      "Technical": 5576,
      "meets": 5577,
      "Organizations": 5578,
      "SYSTEMS": 5579,
      "istics": 5580,
      "check": 5581,
      "multidisciplinary": 5582,
      "innovation": 5583,
      "FT": 5584,
      "Full": 5585,
      "bes": 5586,
      "returned": 5587,
      "representation": 5588,
      "difficult": 5589,
      "gage": 5590,
      "ilt": 5591,
      "ually": 5592,
      "GRO": 5593,
      "PS": 5594,
      "REGION": 5595,
      "Harmonized": 5596,
      "replacement": 5597,
      "Position": 5598,
      "bates": 5599,
      "generation": 5600,
      "immigration": 5601,
      "containers": 5602,
      "Avail": 5603,
      "lists": 5604,
      "Meals": 5605,
      "extended": 5606,
      "treatments": 5607,
      "west": 5608,
      "Shar": 5609,
      "220": 5610,
      "Bet": 5611,
      "Bec": 5612,
      "arrival": 5613,
      "Prevention": 5614,
      "barriers": 5615,
      "actually": 5616,
      "sponsored": 5617,
      "argu": 5618,
      "certified": 5619,
      "operative": 5620,
      "determinants": 5621,
      "Identi": 5622,
      "gment": 5623,
      "liability": 5624,
      "wel": 5625,
      "Conf": 5626,
      "medium": 5627,
      "modified": 5628,
      "Age": 5629,
      "lying": 5630,
      "indicates": 5631,
      "enhanced": 5632,
      "fabrics": 5633,
      "Mart": 5634,
      "Respons": 5635,
      "intent": 5636,
      "guaran": 5637,
      "preparation": 5638,
      "bloc": 5639,
      "improvement": 5640,
      "Identific": 5641,
      "managers": 5642,
      "donations": 5643,
      "Associate": 5644,
      "theme": 5645,
      "ESS": 5646,
      "Persons": 5647,
      "Local": 5648,
      "CAR": 5649,
      "tissue": 5650,
      "useum": 5651,
      "linked": 5652,
      "category": 5653,
      "Citi": 5654,
      "ror": 5655,
      "cru": 5656,
      "Pursu": 5657,
      "Integr": 5658,
      "Identification": 5659,
      "bill": 5660,
      "ze": 5661,
      "relig": 5662,
      "odium": 5663,
      "104": 5664,
      "Discus": 5665,
      "Specific": 5666,
      "Circulatory": 5667,
      "categories": 5668,
      "oral": 5669,
      "spent": 5670,
      "Who": 5671,
      "competitive": 5672,
      "Payment": 5673,
      "immediate": 5674,
      "freight": 5675,
      "began": 5676,
      "aily": 5677,
      "1800": 5678,
      "uity": 5679,
      "Conditions": 5680,
      "confir": 5681,
      "embry": 5682,
      "Open": 5683,
      "notes": 5684,
      "operational": 5685,
      "letters": 5686,
      "assembl": 5687,
      "gaps": 5688,
      "newsp": 5689,
      "Background": 5690,
      "states": 5691,
      "Territories": 5692,
      "T5": 5693,
      "Chlor": 5694,
      "director": 5695,
      "Dumping": 5696,
      "ano": 5697,
      "ided": 5698,
      "increases": 5699,
      "THER": 5700,
      "Victoria": 5701,
      "lesser": 5702,
      "pending": 5703,
      "candidates": 5704,
      "ester": 5705,
      "workplace": 5706,
      "manage": 5707,
      "vaccine": 5708,
      "subs": 5709,
      "recommendation": 5710,
      "ficiency": 5711,
      "ogue": 5712,
      "Systems": 5713,
      "selection": 5714,
      "aneous": 5715,
      "offers": 5716,
      "Claim": 5717,
      "TD1": 5718,
      "arthritis": 5719,
      "experts": 5720,
      "diverse": 5721,
      "implications": 5722,
      "establishing": 5723,
      "keeping": 5724,
      "align": 5725,
      "shap": 5726,
      "currency": 5727,
      "1H": 5728,
      "Long": 5729,
      "pipe": 5730,
      "points": 5731,
      "OL": 5732,
      "portable": 5733,
      "insur": 5734,
      "James": 5735,
      "things": 5736,
      "abroad": 5737,
      "REB": 5738,
      "spection": 5739,
      "collaborations": 5740,
      "regardless": 5741,
      "fabric": 5742,
      "properly": 5743,
      "Water": 5744,
      "oline": 5745,
      "impacts": 5746,
      "Disclosure": 5747,
      "vulner": 5748,
      "presentations": 5749,
      "Countervailing": 5750,
      "dustries": 5751,
      "separately": 5752,
      "Wo": 5753,
      "mutual": 5754,
      "icy": 5755,
      "exports": 5756,
      "press": 5757,
      "PASS": 5758,
      "ifax": 5759,
      "Examples": 5760,
      "metal": 5761,
      "Micro": 5762,
      "Processing": 5763,
      "OT": 5764,
      "arel": 5765,
      "dial": 5766,
      "immigrants": 5767,
      "names": 5768,
      "fuel": 5769,
      "Molecular": 5770,
      "Mor": 5771,
      "payroll": 5772,
      "RCA": 5773,
      "Survey": 5774,
      "zens": 5775,
      "conver": 5776,
      "Limited": 5777,
      "left": 5778,
      "updated": 5779,
      "removed": 5780,
      "Atten": 5781,
      "bonded": 5782,
      "Notes": 5783,
      "GA": 5784,
      "Lunch": 5785,
      "Studies": 5786,
      "regulatory": 5787,
      "CAL": 5788,
      "Residents": 5789,
      "ultim": 5790,
      "amendment": 5791,
      "HI": 5792,
      "Nation": 5793,
      "Sk": 5794,
      "ariat": 5795,
      "feedback": 5796,
      "missibility": 5797,
      "interdisciplinary": 5798,
      "Disability": 5799,
      "candidate": 5800,
      "-[(": 5801,
      "raised": 5802,
      "Two": 5803,
      "101": 5804,
      "credited": 5805,
      "background": 5806,
      "Cargo": 5807,
      "ulate": 5808,
      "ktop": 5809,
      "orient": 5810,
      "gives": 5811,
      "speak": 5812,
      "protocol": 5813,
      "Den": 5814,
      "Self": 5815,
      "Similar": 5816,
      "Halifax": 5817,
      "Implement": 5818,
      "frame": 5819,
      "Election": 5820,
      "Break": 5821,
      "Pursuant": 5822,
      "loans": 5823,
      "closely": 5824,
      "aling": 5825,
      "aret": 5826,
      "feel": 5827,
      "practitioners": 5828,
      "mentary": 5829,
      "chemical": 5830,
      "Letter": 5831,
      "adults": 5832,
      "Before": 5833,
      "jurisdiction": 5834,
      "Individuals": 5835,
      "scale": 5836,
      "NOR": 5837,
      "consists": 5838,
      "recognizes": 5839,
      "criminal": 5840,
      "languages": 5841,
      "Faculty": 5842,
      "municipality": 5843,
      "ticultural": 5844,
      "interview": 5845,
      "lands": 5846,
      "figures": 5847,
      "bought": 5848,
      "Healthy": 5849,
      "Dan": 5850,
      "Tier": 5851,
      "formed": 5852,
      "Trials": 5853,
      "Plans": 5854,
      "Second": 5855,
      "tising": 5856,
      "combination": 5857,
      "Nomin": 5858,
      "fem": 5859,
      "engage": 5860,
      "accessible": 5861,
      "MOU": 5862,
      "administered": 5863,
      "Environment": 5864,
      "Message": 5865,
      "represented": 5866,
      "cm": 5867,
      "run": 5868,
      "capture": 5869,
      "alleged": 5870,
      "Analysis": 5871,
      "plied": 5872,
      "seek": 5873,
      "Vehic": 5874,
      "consequences": 5875,
      "stress": 5876,
      "perspective": 5877,
      "</": 5878,
      "interpretation": 5879,
      "Costs": 5880,
      "Deductions": 5881,
      "].": 5882,
      "tox": 5883,
      "Oversight": 5884,
      "ATER": 5885,
      "virus": 5886,
      "COMMUN": 5887,
      "drop": 5888,
      "Cod": 5889,
      "106": 5890,
      "Phil": 5891,
      "flex": 5892,
      "Stroke": 5893,
      "pregn": 5894,
      "tension": 5895,
      "temporary": 5896,
      "azole": 5897,
      "actively": 5898,
      "cotton": 5899,
      "Identif": 5900,
      "uss": 5901,
      "rome": 5902,
      "Drug": 5903,
      "Advance": 5904,
      "Ath": 5905,
      "session": 5906,
      "dictions": 5907,
      "significantly": 5908,
      "occurs": 5909,
      "mentor": 5910,
      "storage": 5911,
      "]-": 5912,
      "refers": 5913,
      "T40": 5914,
      "textile": 5915,
      "teen": 5916,
      "SCHEDU": 5917,
      "Discussion": 5918,
      "SCHEDULE": 5919,
      "CN": 5920,
      "ological": 5921,
      "amil": 5922,
      "worker": 5923,
      "Tobacco": 5924,
      "Bank": 5925,
      "Met": 5926,
      "div": 5927,
      "Attendee": 5928,
      "tur": 5929,
      "organizational": 5930,
      "Room": 5931,
      "therapeu": 5932,
      "Include": 5933,
      "quick": 5934,
      "Nun": 5935,
      "match": 5936,
      "transfers": 5937,
      "Official": 5938,
      "Arti": 5939,
      "sessions": 5940,
      "115": 5941,
      "ALL": 5942,
      "licensed": 5943,
      "Lou": 5944,
      "adult": 5945,
      "127": 5946,
      "aving": 5947,
      "Recom": 5948,
      "giving": 5949,
      "Corporations": 5950,
      "maintained": 5951,
      "Northwest": 5952,
      "Real": 5953,
      "pays": 5954,
      "Internal": 5955,
      "COUN": 5956,
      "install": 5957,
      "permits": 5958,
      "Aust": 5959,
      "tlement": 5960,
      "9A": 5961,
      "donor": 5962,
      "words": 5963,
      "Treat": 5964,
      "bid": 5965,
      "him": 5966,
      "atures": 5967,
      "deleg": 5968,
      "undertake": 5969,
      "connection": 5970,
      "ws": 5971,
      "Mark": 5972,
      "Bi": 5973,
      "Pharm": 5974,
      "Obesity": 5975,
      "Consult": 5976,
      "Richard": 5977,
      "Hous": 5978,
      "think": 5979,
      "liable": 5980,
      "delay": 5981,
      "Funds": 5982,
      "subsidizing": 5983,
      "wages": 5984,
      "ston": 5985,
      "iles": 5986,
      "Edmon": 5987,
      "athlete": 5988,
      "SCOC": 5989,
      "2009": 5990,
      "largest": 5991,
      "Clo": 5992,
      "Set": 5993,
      "SCE": 5994,
      "Term": 5995,
      "manufacturing": 5996,
      "ubber": 5997,
      "Français": 5998,
      "Rx": 5999,
      "Sust": 6000,
      "moving": 6001,
      "Immun": 6002,
      "medic": 6003,
      "Facsimile": 6004,
      "CXC": 6005,
      "Natural": 6006,
      "eduction": 6007,
      "CANPASS": 6008,
      "cam": 6009,
      "ience": 6010,
      "concerned": 6011,
      "Supplementary": 6012,
      "Risk": 6013,
      "NIH": 6014,
      "proceedings": 6015,
      "reducing": 6016,
      "FACT": 6017,
      "packages": 6018,
      "enous": 6019,
      "Resident": 6020,
      "acting": 6021,
      "inner": 6022,
      "itch": 6023,
      "ideas": 6024,
      "hospitality": 6025,
      "anticipated": 6026,
      "thres": 6027,
      "amm": 6028,
      "funda": 6029,
      "initiation": 6030,
      "customers": 6031,
      "Cultural": 6032,
      "iary": 6033,
      "pring": 6034,
      "appointment": 6035,
      "pall": 6036,
      "importations": 6037,
      "RURAL": 6038,
      "tivity": 6039,
      "prohibited": 6040,
      "absence": 6041,
      "amph": 6042,
      "France": 6043,
      "Edmonton": 6044,
      "accompl": 6045,
      "transition": 6046,
      "attract": 6047,
      "changing": 6048,
      "estimate": 6049,
      "Stem": 6050,
      "Available": 6051,
      "lights": 6052,
      "Month": 6053,
      "functional": 6054,
      "Kore": 6055,
      "iel": 6056,
      "thous": 6057,
      "bone": 6058,
      "ée": 6059,
      "emerg": 6060,
      "Decisions": 6061,
      "boxes": 6062,
      "Athle": 6063,
      "Mail": 6064,
      "sexual": 6065,
      "NON": 6066,
      "ips": 6067,
      "too": 6068,
      "tuition": 6069,
      "Relations": 6070,
      "Star": 6071,
      "someone": 6072,
      "mean": 6073,
      "premises": 6074,
      "Panel": 6075,
      "125": 6076,
      "commitments": 6077,
      "Legal": 6078,
      "CFI": 6079,
      "hom": 6080,
      "smo": 6081,
      "subsequently": 6082,
      "animals": 6083,
      "announcement": 6084,
      "emphasis": 6085,
      "Client": 6086,
      "marks": 6087,
      "IFF": 6088,
      "PSP": 6089,
      "105": 6090,
      "systematic": 6091,
      "institute": 6092,
      "exclusively": 6093,
      "Case": 6094,
      "UL": 6095,
      "concluded": 6096,
      "liqu": 6097,
      "Element": 6098,
      "ethnic": 6099,
      "Printed": 6100,
      "demonstrated": 6101,
      "daily": 6102,
      "remun": 6103,
      "Calculation": 6104,
      "felt": 6105,
      "hum": 6106,
      "discovery": 6107,
      "indicators": 6108,
      "Nunav": 6109,
      "LAND": 6110,
      "extensive": 6111,
      "constitute": 6112,
      "Announcement": 6113,
      "Sustain": 6114,
      "department": 6115,
      "factory": 6116,
      "treaty": 6117,
      "fugee": 6118,
      "cb": 6119,
      "Tariffs": 6120,
      "MIS": 6121,
      "bour": 6122,
      "yarn": 6123,
      "Procedu": 6124,
      "securities": 6125,
      "Subsid": 6126,
      "depending": 6127,
      "Bay": 6128,
      "star": 6129,
      "Contents": 6130,
      "Measurement": 6131,
      "Imported": 6132,
      "transmitted": 6133,
      "499": 6134,
      "Sher": 6135,
      "ault": 6136,
      "periodic": 6137,
      "larger": 6138,
      "custodian": 6139,
      "REFERENCES": 6140,
      "Changes": 6141,
      "Nunavut": 6142,
      "JO": 6143,
      "Relev": 6144,
      "generated": 6145,
      "achieved": 6146,
      "European": 6147,
      "MC": 6148,
      "illance": 6149,
      "built": 6150,
      "exception": 6151,
      "Administrative": 6152,
      "fixtures": 6153,
      "visor": 6154,
      "footwear": 6155,
      "verages": 6156,
      "Braz": 6157,
      "appears": 6158,
      "Union": 6159,
      "principle": 6160,
      "Recommend": 6161,
      "rolling": 6162,
      "Africa": 6163,
      "bing": 6164,
      "Decision": 6165,
      "Engineering": 6166,
      "eight": 6167,
      "resolution": 6168,
      "ulticultural": 6169,
      "quin": 6170,
      "ENE": 6171,
      "protected": 6172,
      "mi": 6173,
      "measurement": 6174,
      "ipei": 6175,
      "Taipei": 6176,
      "Honour": 6177,
      "sequently": 6178,
      "automatic": 6179,
      "T12": 6180,
      "travellers": 6181,
      "Contin": 6182,
      "Frank": 6183,
      "fine": 6184,
      "environments": 6185,
      "apparel": 6186,
      "118": 6187,
      "JE": 6188,
      "domin": 6189,
      "omet": 6190,
      "posal": 6191,
      "Declaration": 6192,
      "Smith": 6193,
      "map": 6194,
      "respondents": 6195,
      "citizens": 6196,
      "TOR": 6197,
      "transl": 6198,
      "Secretariat": 6199,
      "Crown": 6200,
      "reve": 6201,
      "levi": 6202,
      "Market": 6203,
      "Furthermore": 6204,
      "ids": 6205,
      "Force": 6206,
      "overview": 6207,
      "failed": 6208,
      "NT": 6209,
      "expo": 6210,
      "render": 6211,
      "samples": 6212,
      "plastic": 6213,
      "asp": 6214,
      "listing": 6215,
      "Student": 6216,
      "suggestions": 6217,
      "Brazil": 6218,
      "ecting": 6219,
      "beneficiaries": 6220,
      "newspapers": 6221,
      "T0": 6222,
      "UK": 6223,
      "Understanding": 6224,
      "spirits": 6225,
      "R2": 6226,
      "Inuit": 6227,
      "dependant": 6228,
      "Resource": 6229,
      "sensitive": 6230,
      "001": 6231,
      "iative": 6232,
      "revenues": 6233,
      "toward": 6234,
      "CHA": 6235,
      "R3": 6236,
      "ﬁc": 6237,
      "insu": 6238,
      "enjo": 6239,
      "tyl": 6240,
      "RESP": 6241,
      "ATIONS": 6242,
      "techniques": 6243,
      "cutting": 6244,
      "District": 6245,
      "SON": 6246,
      "Imp": 6247,
      "IES": 6248,
      "amal": 6249,
      "boards": 6250,
      "Crim": 6251,
      "LLP": 6252,
      "Rules": 6253,
      "URE": 6254,
      "complaints": 6255,
      "Loss": 6256,
      "Payroll": 6257,
      "permitted": 6258,
      "jointly": 6259,
      "prefer": 6260,
      "Summer": 6261,
      "Tuition": 6262,
      "Circular": 6263,
      "His": 6264,
      "conflict": 6265,
      "aled": 6266,
      "mandatory": 6267,
      "MEA": 6268,
      "zhe": 6269,
      "........................": 6270,
      "Professional": 6271,
      "Coordinator": 6272,
      "solutions": 6273,
      "yn": 6274,
      "counter": 6275,
      "Sick": 6276,
      "HRC": 6277,
      "soon": 6278,
      "advoc": 6279,
      "oxy": 6280,
      "illust": 6281,
      "guard": 6282,
      "integrity": 6283,
      "entitle": 6284,
      "piper": 6285,
      "TARIFF": 6286,
      "front": 6287,
      "luor": 6288,
      "elected": 6289,
      "topic": 6290,
      "error": 6291,
      "fundamental": 6292,
      "zheimer": 6293,
      "))": 6294,
      "905": 6295,
      "little": 6296,
      "WO": 6297,
      "email": 6298,
      "pressure": 6299,
      "governing": 6300,
      "ICH": 6301,
      "examined": 6302,
      "604": 6303,
      "stop": 6304,
      "consulting": 6305,
      "ever": 6306,
      "trail": 6307,
      "geograph": 6308,
      "Good": 6309,
      "explore": 6310,
      "BUS": 6311,
      "pill": 6312,
      "unused": 6313,
      "seen": 6314,
      "mailing": 6315,
      "proteins": 6316,
      "REGIONAL": 6317,
      "EC": 6318,
      "faculty": 6319,
      "came": 6320,
      "Alzheimer": 6321,
      "attributable": 6322,
      "resistance": 6323,
      "Treas": 6324,
      "191": 6325,
      "ik": 6326,
      "immunity": 6327,
      "subjects": 6328,
      "Purpose": 6329,
      "conven": 6330,
      "respiratory": 6331,
      "declaration": 6332,
      "Govern": 6333,
      "Quick": 6334,
      "fish": 6335,
      "reserv": 6336,
      "affiliated": 6337,
      "idin": 6338,
      "ERC": 6339,
      "locate": 6340,
      "recover": 6341,
      "Previous": 6342,
      "restrictions": 6343,
      "desktop": 6344,
      "CANAD": 6345,
      "oxo": 6346,
      "assessments": 6347,
      "implementing": 6348,
      "exceeds": 6349,
      "occurred": 6350,
      "northern": 6351,
      "Martin": 6352,
      "vary": 6353,
      "Metabolism": 6354,
      "Michel": 6355,
      "FAST": 6356,
      "Syn": 6357,
      "GRAN": 6358,
      "division": 6359,
      "withheld": 6360,
      "514": 6361,
      "Pack": 6362,
      "ficial": 6363,
      "allowances": 6364,
      "Gl": 6365,
      "profits": 6366,
      "carriers": 6367,
      "justice": 6368,
      "cbsa": 6369,
      "imaging": 6370,
      "Honourable": 6371,
      "bacter": 6372,
      "accounted": 6373,
      "measuring": 6374,
      "attending": 6375,
      "Quality": 6376,
      "CRE": 6377,
      "Given": 6378,
      "Loc": 6379,
      "iso": 6380,
      "Both": 6381,
      "colleag": 6382,
      "Cop": 6383,
      "PRC": 6384,
      "cig": 6385,
      "savings": 6386,
      "choice": 6387,
      "courier": 6388,
      "elfare": 6389,
      "Housing": 6390,
      "520": 6391,
      "cis": 6392,
      "asons": 6393,
      "Environmental": 6394,
      "Citizenship": 6395,
      "Dem": 6396,
      "Whe": 6397,
      "bag": 6398,
      "spous": 6399,
      "pattern": 6400,
      "mbly": 6401,
      "Future": 6402,
      "lost": 6403,
      "Manu": 6404,
      "keyboard": 6405,
      "coverage": 6406,
      "Standards": 6407,
      "amalgam": 6408,
      "Land": 6409,
      "crop": 6410,
      "lets": 6411,
      "STIHR": 6412,
      "D11": 6413,
      "shareholder": 6414,
      "starting": 6415,
      "Biology": 6416,
      "Ser": 6417,
      "eds": 6418,
      "additions": 6419,
      "uscrip": 6420,
      "Importers": 6421,
      "WH": 6422,
      "minutes": 6423,
      "Rob": 6424,
      "finished": 6425,
      "andomized": 6426,
      "813": 6427,
      "disclosed": 6428,
      "movement": 6429,
      "bound": 6430,
      "References": 6431,
      "paying": 6432,
      "LEY": 6433,
      "cycle": 6434,
      "cel": 6435,
      "reflects": 6436,
      "Following": 6437,
      "ien": 6438,
      "sil": 6439,
      "Chart": 6440,
      "intention": 6441,
      "Employee": 6442,
      "distributed": 6443,
      "PRE": 6444,
      "shipped": 6445,
      "flamm": 6446,
      "concept": 6447,
      "computing": 6448,
      "remuneration": 6449,
      "fax": 6450,
      "almost": 6451,
      "exists": 6452,
      "placebo": 6453,
      "derived": 6454,
      "USA": 6455,
      "abled": 6456,
      "1988": 6457,
      "Supplies": 6458,
      "explanation": 6459,
      "mil": 6460,
      "XXXXXX": 6461,
      "Legislative": 6462,
      "QPP": 6463,
      "gs": 6464,
      "Success": 6465,
      "industrial": 6466,
      "pricing": 6467,
      "mind": 6468,
      "colour": 6469,
      "Mechan": 6470,
      "osis": 6471,
      "MONT": 6472,
      "volunteers": 6473,
      "recruitment": 6474,
      "carboxyl": 6475,
      "CANADIAN": 6476,
      "CCT": 6477,
      "FM": 6478,
      "define": 6479,
      "cheque": 6480,
      "750": 6481,
      "BR": 6482,
      "firm": 6483,
      "uc": 6484,
      "inquiry": 6485,
      "looking": 6486,
      "appointed": 6487,
      "partial": 6488,
      "533": 6489,
      "Show": 6490,
      "registrants": 6491,
      "paratus": 6492,
      "Reasons": 6493,
      "Admissibility": 6494,
      "mpic": 6495,
      "Freedom": 6496,
      "Parts": 6497,
      "Sus": 6498,
      "111": 6499,
      "helping": 6500,
      "icide": 6501,
      "quota": 6502,
      "stical": 6503,
      "EDIFACT": 6504,
      "yarns": 6505,
      "Vendor": 6506,
      "rubber": 6507,
      "tum": 6508,
      "manuscrip": 6509,
      "marine": 6510,
      "wait": 6511,
      "thousands": 6512,
      "arising": 6513,
      "compound": 6514,
      "BUR": 6515,
      "unable": 6516,
      "started": 6517,
      "ré": 6518,
      "enough": 6519,
      "union": 6520,
      "tative": 6521,
      "End": 6522,
      "film": 6523,
      "PIP": 6524,
      "calling": 6525,
      "Competitions": 6526,
      "0W": 6527,
      "HIP": 6528,
      "SIN": 6529,
      "warr": 6530,
      "thyl": 6531,
      "INTE": 6532,
      "phan": 6533,
      "childhood": 6534,
      "cardiovascular": 6535,
      "vulnerable": 6536,
      "pandemic": 6537,
      "recher": 6538,
      "idental": 6539,
      "approve": 6540,
      "characteristics": 6541,
      "harm": 6542,
      "profile": 6543,
      "Target": 6544,
      "MORAN": 6545,
      "pite": 6546,
      "Marine": 6547,
      "MI": 6548,
      "gnitive": 6549,
      "QUE": 6550,
      "genesis": 6551,
      "Headquarters": 6552,
      "William": 6553,
      "confirmed": 6554,
      "Jap": 6555,
      "collective": 6556,
      "clinician": 6557,
      "Investigation": 6558,
      "Defin": 6559,
      "Accordingly": 6560,
      "worth": 6561,
      "Average": 6562,
      "149": 6563,
      "Pot": 6564,
      "TER": 6565,
      "verify": 6566,
      "submissions": 6567,
      "BY": 6568,
      "Bod": 6569,
      "Super": 6570,
      "granting": 6571,
      "Transportation": 6572,
      "Treasury": 6573,
      "700": 6574,
      "AGE": 6575,
      "olving": 6576,
      "apprais": 6577,
      "therapeutic": 6578,
      "inking": 6579,
      "venture": 6580,
      "stroke": 6581,
      "amate": 6582,
      "visual": 6583,
      "Direction": 6584,
      "practical": 6585,
      "Column": 6586,
      "Territorial": 6587,
      "volunteer": 6588,
      "Japan": 6589,
      "determines": 6590,
      "aceutical": 6591,
      "markets": 6592,
      "declar": 6593,
      "counsel": 6594,
      "nomin": 6595,
      "never": 6596,
      "NEW": 6597,
      "thma": 6598,
      "Concl": 6599,
      "Sustainable": 6600,
      "FRO": 6601,
      "130": 6602,
      "XXXXXXXXXX": 6603,
      "mass": 6604,
      "repayment": 6605,
      "Revised": 6606,
      "1227": 6607,
      "retro": 6608,
      "ACT": 6609,
      "NB": 6610,
      "beverages": 6611,
      "bringing": 6612,
      "Allowance": 6613,
      "PQ": 6614,
      "bit": 6615,
      "eric": 6616,
      "1987": 6617,
      "MEMORAN": 6618,
      "Secretary": 6619,
      "ibrary": 6620,
      "Austral": 6621,
      "yes": 6622,
      "COMP": 6623,
      "band": 6624,
      "ère": 6625,
      "conferences": 6626,
      "ville": 6627,
      "enjoy": 6628,
      "seeking": 6629,
      "Allowable": 6630,
      "…………": 6631,
      "Warehouse": 6632,
      "CMA": 6633,
      "Sul": 6634,
      "urs": 6635,
      "venu": 6636,
      "directions": 6637,
      "rc": 6638,
      "igne": 6639,
      "withholding": 6640,
      "pover": 6641,
      "iances": 6642,
      "Princi": 6643,
      "accum": 6644,
      "oked": 6645,
      "Sever": 6646,
      "meals": 6647,
      "sound": 6648,
      "kept": 6649,
      "indicating": 6650,
      "maintaining": 6651,
      "BOARD": 6652,
      "Indicate": 6653,
      "CCTB": 6654,
      "ects": 6655,
      "discover": 6656,
      "headings": 6657,
      "PUB": 6658,
      "amilton": 6659,
      "Hamilton": 6660,
      "Legislation": 6661,
      "Within": 6662,
      "Cam": 6663,
      "D13": 6664,
      "HU": 6665,
      "CGI": 6666,
      "Pilot": 6667,
      "Anne": 6668,
      "Appeals": 6669,
      "salaries": 6670,
      "Staff": 6671,
      "aking": 6672,
      "instead": 6673,
      "212": 6674,
      "unders": 6675,
      "covers": 6676,
      "bridge": 6677,
      "Recip": 6678,
      "Pier": 6679,
      "poor": 6680,
      "quests": 6681,
      "llect": 6682,
      "camp": 6683,
      "plit": 6684,
      "leader": 6685,
      "pursue": 6686,
      "Visit": 6687,
      "Articles": 6688,
      "350": 6689,
      "GRA": 6690,
      "apparatus": 6691,
      "Phone": 6692,
      "devices": 6693,
      "dispute": 6694,
      "Mal": 6695,
      "INN": 6696,
      "Appro": 6697,
      "Auto": 6698,
      "Teams": 6699,
      "databases": 6700,
      "beneficial": 6701,
      "born": 6702,
      "Ano": 6703,
      "socio": 6704,
      "Controlled": 6705,
      "confidentiality": 6706,
      "1989": 6707,
      "Doug": 6708,
      "vac": 6709,
      "oming": 6710,
      "celer": 6711,
      "Infec": 6712,
      "exc": 6713,
      "lligence": 6714,
      "180": 6715,
      "recorded": 6716,
      "expectations": 6717,
      "tium": 6718,
      "ette": 6719,
      "enders": 6720,
      "directors": 6721,
      "Lar": 6722,
      "LING": 6723,
      "aims": 6724,
      "methodology": 6725,
      "formerly": 6726,
      "raising": 6727,
      "withdrawal": 6728,
      "kins": 6729,
      "tangible": 6730,
      "uel": 6731,
      "consensus": 6732,
      "reviewers": 6733,
      "participated": 6734,
      "Purch": 6735,
      "contributing": 6736,
      "480": 6737,
      "UCC": 6738,
      "ATA": 6739,
      "procedure": 6740,
      "usual": 6741,
      "racial": 6742,
      "numerous": 6743,
      "Another": 6744,
      "1st": 6745,
      "Er": 6746,
      "gave": 6747,
      "anté": 6748,
      "Annex": 6749,
      "inclusive": 6750,
      "skin": 6751,
      "Russ": 6752,
      "rebates": 6753,
      "ibutes": 6754,
      "virtu": 6755,
      "representing": 6756,
      "Updated": 6757,
      "RC40": 6758,
      "BRA": 6759,
      "Fair": 6760,
      "houses": 6761,
      "broader": 6762,
      "shelter": 6763,
      "Manufact": 6764,
      "Sain": 6765,
      "grain": 6766,
      "frames": 6767,
      "documented": 6768,
      "communicate": 6769,
      "Collection": 6770,
      "colleagues": 6771,
      "BS": 6772,
      "royal": 6773,
      "Memoranda": 6774,
      "CRI": 6775,
      "Methyl": 6776,
      "iding": 6777,
      "qualifies": 6778,
      "extension": 6779,
      "definitions": 6780,
      "Completing": 6781,
      "journal": 6782,
      "CW": 6783,
      "recep": 6784,
      "disclose": 6785,
      "llectual": 6786,
      "900": 6787,
      "marr": 6788,
      "dem": 6789,
      "dispositions": 6790,
      "surv": 6791,
      "harmonized": 6792,
      "Bond": 6793,
      "Mary": 6794,
      "T500": 6795,
      "papers": 6796,
      "rein": 6797,
      "comment": 6798,
      "Experi": 6799,
      "Exchange": 6800,
      "courts": 6801,
      "Korea": 6802,
      "Mot": 6803,
      "tem": 6804,
      "energy": 6805,
      "adoption": 6806,
      "destro": 6807,
      "Tri": 6808,
      "ception": 6809,
      "Overview": 6810,
      "presence": 6811,
      "simply": 6812,
      "stakeholder": 6813,
      "NSERC": 6814,
      "utilization": 6815,
      "structures": 6816,
      "Events": 6817,
      "Rulings": 6818,
      "Che": 6819,
      "MER": 6820,
      "ju": 6821,
      "Nos": 6822,
      "COME": 6823,
      "oma": 6824,
      "ush": 6825,
      "dihydro": 6826,
      "acknowledge": 6827,
      "gather": 6828,
      "Does": 6829,
      "ulletins": 6830,
      "teaching": 6831,
      "CER": 6832,
      "org": 6833,
      "summer": 6834,
      "Spe": 6835,
      "alone": 6836,
      "ivable": 6837,
      "parities": 6838,
      "interviews": 6839,
      "deriv": 6840,
      "simpl": 6841,
      "***": 6842,
      "IX": 6843,
      "virtue": 6844,
      "expanded": 6845,
      "R0": 6846,
      "rew": 6847,
      "discre": 6848,
      "calls": 6849,
      "potentially": 6850,
      "Seniors": 6851,
      "FIE": 6852,
      "Mun": 6853,
      "schedul": 6854,
      "ACI": 6855,
      "tell": 6856,
      "breast": 6857,
      "House": 6858,
      "WOR": 6859,
      "tribut": 6860,
      "defer": 6861,
      "exhibit": 6862,
      "feas": 6863,
      "canad": 6864,
      "transitional": 6865,
      "ITED": 6866,
      "valued": 6867,
      "entering": 6868,
      "THOR": 6869,
      "observ": 6870,
      "studying": 6871,
      "Party": 6872,
      "instrument": 6873,
      "Labor": 6874,
      "mposium": 6875,
      "cing": 6876,
      "pul": 6877,
      "ican": 6878,
      "urban": 6879,
      "Governor": 6880,
      "TRAN": 6881,
      "pamph": 6882,
      "rati": 6883,
      "physicians": 6884,
      "Advisor": 6885,
      "yers": 6886,
      "emergency": 6887,
      "Fl": 6888,
      "rist": 6889,
      "Represent": 6890,
      "marketing": 6891,
      "ADAPT": 6892,
      "histor": 6893,
      "refunds": 6894,
      "recovery": 6895,
      "ophenyl": 6896,
      "conveyance": 6897,
      "Establish": 6898,
      "Because": 6899,
      "0W9": 6900,
      "roph": 6901,
      "deferred": 6902,
      "Accommodation": 6903,
      "scholar": 6904,
      "Mob": 6905,
      "subsidiary": 6906,
      "NU": 6907,
      "forum": 6908,
      "stages": 6909,
      "distin": 6910,
      "Chall": 6911,
      "lining": 6912,
      "advertising": 6913,
      "OU": 6914,
      "duration": 6915,
      "margins": 6916,
      "EXPORT": 6917,
      "panels": 6918,
      "oke": 6919,
      "wid": 6920,
      "tery": 6921,
      "trum": 6922,
      "Requests": 6923,
      "Role": 6924,
      "generate": 6925,
      "113": 6926,
      "Gif": 6927,
      "venant": 6928,
      "generative": 6929,
      "Similarly": 6930,
      "D17": 6931,
      "Fil": 6932,
      "chapter": 6933,
      "methoxy": 6934,
      "transit": 6935,
      "judic": 6936,
      "Individual": 6937,
      "Ther": 6938,
      "police": 6939,
      "PUBLIC": 6940,
      "rey": 6941,
      "publicly": 6942,
      "engineering": 6943,
      "Grad": 6944,
      "classes": 6945,
      "provider": 6946,
      "experiences": 6947,
      "fixed": 6948,
      "rehabilitation": 6949,
      "manuscripts": 6950,
      "File": 6951,
      "Price": 6952,
      "170": 6953,
      "advisory": 6954,
      "++": 6955,
      "Every": 6956,
      "WATER": 6957,
      "Epidemiology": 6958,
      "poverty": 6959,
      "nu": 6960,
      "Chris": 6961,
      "Committees": 6962,
      "hearing": 6963,
      "tism": 6964,
      "toll": 6965,
      "visible": 6966,
      "LAKE": 6967,
      "Private": 6968,
      "insp": 6969,
      "ened": 6970,
      "ower": 6971,
      "LAC": 6972,
      "civil": 6973,
      "steo": 6974,
      "Bal": 6975,
      "bear": 6976,
      "cooperation": 6977,
      "enterprises": 6978,
      "Confidential": 6979,
      "levied": 6980,
      "specify": 6981,
      "enterprise": 6982,
      "evaluated": 6983,
      "Portfolio": 6984,
      "managing": 6985,
      "subsidized": 6986,
      "nutrition": 6987,
      "substitu": 6988,
      "sense": 6989,
      "jurisdictions": 6990,
      "NSOs": 6991,
      "A0": 6992,
      "Learning": 6993,
      "cellular": 6994,
      "ISSE": 6995,
      "tificates": 6996,
      "Normal": 6997,
      "seminars": 6998,
      "formats": 6999,
      "PM": 7000,
      "electric": 7001,
      "specialized": 7002,
      "Labour": 7003,
      "nursing": 7004,
      "exposure": 7005,
      "Rural": 7006,
      "advised": 7007,
      "vege": 7008,
      "CITT": 7009,
      "2010": 7010,
      "Alliance": 7011,
      "remote": 7012,
      "piec": 7013,
      "achieving": 7014,
      "hope": 7015,
      "coaches": 7016,
      "Kar": 7017,
      "Next": 7018,
      "Using": 7019,
      "York": 7020,
      "abe": 7021,
      "brom": 7022,
      "COOPERATIVE": 7023,
      "patitis": 7024,
      "Four": 7025,
      "ries": 7026,
      "rail": 7027,
      "investigations": 7028,
      "advise": 7029,
      "advances": 7030,
      "audits": 7031,
      "sheets": 7032,
      "T11": 7033,
      "true": 7034,
      "consolid": 7035,
      "estimates": 7036,
      "kel": 7037,
      "Institutions": 7038,
      "acknow": 7039,
      "CAIS": 7040,
      "RRSPs": 7041,
      "incident": 7042,
      "Product": 7043,
      "pictures": 7044,
      "Pac": 7045,
      "yst": 7046,
      "associations": 7047,
      "perspectives": 7048,
      "acknowled": 7049,
      "Lev": 7050,
      "identifies": 7051,
      "GROUP": 7052,
      "oman": 7053,
      "interaction": 7054,
      "Carol": 7055,
      "machine": 7056,
      "Institutional": 7057,
      "fulfill": 7058,
      "clearance": 7059,
      "literature": 7060,
      "SCP": 7061,
      "favour": 7062,
      "mess": 7063,
      "stay": 7064,
      "programming": 7065,
      "identical": 7066,
      "religious": 7067,
      "tries": 7068,
      "clinicians": 7069,
      "avell": 7070,
      "quarterly": 7071,
      "HBP": 7072,
      "bed": 7073,
      "hex": 7074,
      "underlying": 7075,
      "Ministers": 7076,
      "flat": 7077,
      "Imports": 7078,
      "Should": 7079,
      "supplementary": 7080,
      "tend": 7081,
      "agricultural": 7082,
      "household": 7083,
      "Activity": 7084,
      "minority": 7085,
      "Tables": 7086,
      "overs": 7087,
      "aced": 7088,
      "compris": 7089,
      "Improve": 7090,
      "Adjustment": 7091,
      "Impact": 7092,
      "Sw": 7093,
      "iders": 7094,
      "ordinary": 7095,
      "requiring": 7096,
      "Currency": 7097,
      "humans": 7098,
      "lung": 7099,
      "inflamm": 7100,
      "chemistry": 7101,
      "Atta": 7102,
      "race": 7103,
      "ederation": 7104,
      "remission": 7105,
      "ership": 7106,
      "quare": 7107,
      "identity": 7108,
      "Statements": 7109,
      "grounds": 7110,
      "successfully": 7111,
      "graphic": 7112,
      "ray": 7113,
      "Travell": 7114,
      "Scholar": 7115,
      "Attach": 7116,
      "surface": 7117,
      "brooke": 7118,
      "Prepared": 7119,
      "Fig": 7120,
      "LIM": 7121,
      "thers": 7122,
      "conj": 7123,
      "custody": 7124,
      "Exporters": 7125,
      "PRODU": 7126,
      "relatively": 7127,
      "ros": 7128,
      "KS": 7129,
      "aple": 7130,
      "designation": 7131,
      "cancel": 7132,
      "plat": 7133,
      "annuity": 7134,
      "obtaining": 7135,
      "possibility": 7136,
      "Level": 7137,
      "alternate": 7138,
      "Physical": 7139,
      "Lu": 7140,
      "Mount": 7141,
      "cents": 7142,
      "recapture": 7143,
      "capable": 7144,
      "HAM": 7145,
      "divided": 7146,
      "450": 7147,
      "IRE": 7148,
      "nation": 7149,
      "tit": 7150,
      "Depart": 7151,
      "Altern": 7152,
      "491": 7153,
      "Sole": 7154,
      "dies": 7155,
      "IMPORT": 7156,
      "trusts": 7157,
      "hydrochloride": 7158,
      "polyester": 7159,
      "believ": 7160,
      "valuable": 7161,
      "say": 7162,
      "iculture": 7163,
      "entives": 7164,
      "Thus": 7165,
      "reviewing": 7166,
      "BAY": 7167,
      "952": 7168,
      "vaccines": 7169,
      "Laurier": 7170,
      ".:": 7171,
      "PST": 7172,
      "enquiries": 7173,
      "tot": 7174,
      "ampl": 7175,
      "hibits": 7176,
      "Treatment": 7177,
      "NGO": 7178,
      "focuses": 7179,
      "fairness": 7180,
      "Verification": 7181,
      "Locality": 7182,
      "CSD": 7183,
      "mort": 7184,
      "PROF": 7185,
      "Highway": 7186,
      "Details": 7187,
      "View": 7188,
      "displayed": 7189,
      "SCPMEA": 7190,
      "ots": 7191,
      "Reti": 7192,
      "indication": 7193,
      "Monitor": 7194,
      "CHE": 7195,
      "Round": 7196,
      "TCP": 7197,
      "iological": 7198,
      "terminal": 7199,
      "terminated": 7200,
      "dialogue": 7201,
      "ener": 7202,
      "plants": 7203,
      "settings": 7204,
      "LU": 7205,
      "fc": 7206,
      "Refer": 7207,
      "204": 7208,
      "Farming": 7209,
      "optical": 7210,
      "256": 7211,
      "helps": 7212,
      "packaged": 7213,
      "Implementation": 7214,
      "Sherbrooke": 7215,
      "Instru": 7216,
      "Franco": 7217,
      "therapies": 7218,
      "appreci": 7219,
      "Expend": 7220,
      "Marie": 7221,
      "Best": 7222,
      "convic": 7223,
      "preparing": 7224,
      "exceptions": 7225,
      "phosp": 7226,
      "scheduled": 7227,
      "coordination": 7228,
      "faction": 7229,
      "trained": 7230,
      "instance": 7231,
      "ETY": 7232,
      "impairment": 7233,
      "eless": 7234,
      "102": 7235,
      "AMP": 7236,
      "Jud": 7237,
      "ps": 7238,
      "efficiency": 7239,
      "placement": 7240,
      "248": 7241,
      "physician": 7242,
      "FMV": 7243,
      "LAT": 7244,
      "Sl": 7245,
      "scr": 7246,
      "examining": 7247,
      "contractor": 7248,
      "companied": 7249,
      "infections": 7250,
      "coordinated": 7251,
      "Mé": 7252,
      "146": 7253,
      "Host": 7254,
      "Records": 7255,
      "Munic": 7256,
      "AST": 7257,
      "wall": 7258,
      "endors": 7259,
      "1985": 7260,
      "114": 7261,
      "allowing": 7262,
      "antibio": 7263,
      "cast": 7264,
      "suitable": 7265,
      "erse": 7266,
      "ulties": 7267,
      "Their": 7268,
      "Finally": 7269,
      "Evidence": 7270,
      "derivatives": 7271,
      "YY": 7272,
      "ball": 7273,
      "consum": 7274,
      "Thom": 7275,
      "RC4": 7276,
      "eliminate": 7277,
      "alloy": 7278,
      "concent": 7279,
      "rulings": 7280,
      "Genetic": 7281,
      "repairs": 7282,
      "respectively": 7283,
      "ADAPTER": 7284,
      "ba": 7285,
      "ades": 7286,
      "extra": 7287,
      "healthcare": 7288,
      "Consequently": 7289,
      "utory": 7290,
      "fects": 7291,
      "DED": 7292,
      "privile": 7293,
      "necessarily": 7294,
      "affecting": 7295,
      "assessing": 7296,
      "focusing": 7297,
      "RFAs": 7298,
      "Contributions": 7299,
      "SOL": 7300,
      "autom": 7301,
      "damage": 7302,
      "write": 7303,
      "Wood": 7304,
      "ultimately": 7305,
      "ETA": 7306,
      "Employees": 7307,
      "decrease": 7308,
      "Remit": 7309,
      "Criminal": 7310,
      "DIT": 7311,
      "Jour": 7312,
      "TRA": 7313,
      "consumer": 7314,
      "nine": 7315,
      "itex": 7316,
      "decitex": 7317,
      "Fail": 7318,
      "oul": 7319,
      "strengths": 7320,
      "chloro": 7321,
      "bility": 7322,
      "1143": 7323,
      "decide": 7324,
      "Credits": 7325,
      "IST": 7326,
      "Mu": 7327,
      "targeting": 7328,
      "Present": 7329,
      "Renew": 7330,
      "destroy": 7331,
      "accompanied": 7332,
      "annum": 7333,
      "ATIONAL": 7334,
      "copper": 7335,
      "statistical": 7336,
      "addiction": 7337,
      "quickly": 7338,
      "Pacific": 7339,
      "Inst": 7340,
      "usions": 7341,
      "waste": 7342,
      "INCOME": 7343,
      "engagement": 7344,
      "linkages": 7345,
      "synthesis": 7346,
      "Estim": 7347,
      "OG": 7348,
      "zed": 7349,
      "terror": 7350,
      "visits": 7351,
      "extend": 7352,
      "Penalty": 7353,
      "threshold": 7354,
      "Australia": 7355,
      "AA": 7356,
      "Bel": 7357,
      "Event": 7358,
      "IZ": 7359,
      "rence": 7360,
      "stainless": 7361,
      "Equity": 7362,
      "errors": 7363,
      "hydr": 7364,
      "SOU": 7365,
      "exploration": 7366,
      "Pierre": 7367,
      "idney": 7368,
      "ems": 7369,
      "experimental": 7370,
      "Focus": 7371,
      "lump": 7372,
      "rd": 7373,
      "vest": 7374,
      "kilomet": 7375,
      "></": 7376,
      "Agenda": 7377,
      "decided": 7378,
      "Sheet": 7379,
      "diagnostic": 7380,
      "neur": 7381,
      "Covenant": 7382,
      "termination": 7383,
      "garlic": 7384,
      "0L5": 7385,
      "Mer": 7386,
      "epidemiology": 7387,
      "foot": 7388,
      "mainly": 7389,
      "Listing": 7390,
      "digit": 7391,
      "Intent": 7392,
      "san": 7393,
      "124": 7394,
      "aker": 7395,
      "Career": 7396,
      "graphy": 7397,
      "connected": 7398,
      "Fact": 7399,
      "aler": 7400,
      "ites": 7401,
      "shor": 7402,
      "preval": 7403,
      "spectrum": 7404,
      "covering": 7405,
      "showing": 7406,
      "psych": 7407,
      "GHR": 7408,
      "paign": 7409,
      "Minutes": 7410,
      "ampion": 7411,
      "clarify": 7412,
      "Donald": 7413,
      "describes": 7414,
      "bulk": 7415,
      "aggreg": 7416,
      "emption": 7417,
      "receivable": 7418,
      "tests": 7419,
      "(\"": 7420,
      "gap": 7421,
      "solution": 7422,
      "thick": 7423,
      "Expl": 7424,
      "away": 7425,
      "removal": 7426,
      "NZ": 7427,
      "homes": 7428,
      "gery": 7429,
      "automobile": 7430,
      "Collaborative": 7431,
      "Center": 7432,
      "Dif": 7433,
      "Kee": 7434,
      "Sem": 7435,
      "owe": 7436,
      "iber": 7437,
      "distribut": 7438,
      "newly": 7439,
      "Appeal": 7440,
      "becoming": 7441,
      "sells": 7442,
      "Early": 7443,
      "Nur": 7444,
      "certification": 7445,
      "Print": 7446,
      "KI": 7447,
      "Source": 7448,
      "glass": 7449,
      "experienced": 7450,
      "SSHRC": 7451,
      "dominium": 7452,
      "ccra": 7453,
      "uate": 7454,
      "curric": 7455,
      "driven": 7456,
      "investigate": 7457,
      "technological": 7458,
      "CAP": 7459,
      "woven": 7460,
      "branches": 7461,
      "Susan": 7462,
      "SM": 7463,
      "Well": 7464,
      "cler": 7465,
      "CITY": 7466,
      "explo": 7467,
      "Stephen": 7468,
      "HOMES": 7469,
      "Accountability": 7470,
      "city": 7471,
      "ureau": 7472,
      "severe": 7473,
      "expert": 7474,
      "supervision": 7475,
      "MISSION": 7476,
      "LY": 7477,
      "Young": 7478,
      "importing": 7479,
      "ock": 7480,
      "criptions": 7481,
      "ERSON": 7482,
      "invoices": 7483,
      "behavioural": 7484,
      "850": 7485,
      "lap": 7486,
      "olve": 7487,
      "interim": 7488,
      "negl": 7489,
      "muscle": 7490,
      "arc": 7491,
      "crete": 7492,
      "V0": 7493,
      "dé": 7494,
      "ino": 7495,
      "Check": 7496,
      "tingu": 7497,
      "signature": 7498,
      "invested": 7499,
      "enrolled": 7500,
      "acceler": 7501,
      "willing": 7502,
      "preferred": 7503,
      "RCMP": 7504,
      "existence": 7505,
      "notify": 7506,
      "Rev": 7507,
      "regularly": 7508,
      "Infectious": 7509,
      "anger": 7510,
      "alition": 7511,
      "town": 7512,
      "ORS": 7513,
      "Suite": 7514,
      "fluor": 7515,
      "SUM": 7516,
      "reflected": 7517,
      "moved": 7518,
      "ARCH": 7519,
      "Expiry": 7520,
      "Maintenance": 7521,
      "Cardiovascular": 7522,
      "Languages": 7523,
      "Between": 7524,
      "P0": 7525,
      "dians": 7526,
      "minister": 7527,
      "1986": 7528,
      "cellaneous": 7529,
      "pharmac": 7530,
      "bad": 7531,
      "bud": 7532,
      "apy": 7533,
      "door": 7534,
      "developmental": 7535,
      "TEE": 7536,
      "ASSOCI": 7537,
      "Remission": 7538,
      "corresponding": 7539,
      "UM": 7540,
      "incur": 7541,
      "commodity": 7542,
      "Laboratory": 7543,
      "managed": 7544,
      "SAINTE": 7545,
      "fri": 7546,
      "957": 7547,
      "exercis": 7548,
      "mixed": 7549,
      "propriet": 7550,
      "dle": 7551,
      "116": 7552,
      "regarded": 7553,
      "truction": 7554,
      "Ox": 7555,
      "Old": 7556,
      "cognitive": 7557,
      "weighted": 7558,
      "ulticulturalism": 7559,
      "Wind": 7560,
      "glo": 7561,
      "rees": 7562,
      "store": 7563,
      "bell": 7564,
      "grand": 7565,
      "190": 7566,
      "103": 7567,
      "tainment": 7568,
      "TAIN": 7569,
      "mediate": 7570,
      "satisfaction": 7571,
      "vin": 7572,
      "aby": 7573,
      "tetra": 7574,
      "commonly": 7575,
      "Important": 7576,
      "cleaning": 7577,
      "Maj": 7578,
      "revocation": 7579,
      "GH": 7580,
      "Reduc": 7581,
      "aces": 7582,
      "Countries": 7583,
      "Central": 7584,
      "Meetings": 7585,
      "MENTS": 7586,
      "museum": 7587,
      "CIL": 7588,
      "acted": 7589,
      "201": 7590,
      "bench": 7591,
      "Pass": 7592,
      "bus": 7593,
      "Scientist": 7594,
      "Fit": 7595,
      "Mach": 7596,
      "ogn": 7597,
      "retention": 7598,
      "ARY": 7599,
      "calculations": 7600,
      "retained": 7601,
      "surveillance": 7602,
      "female": 7603,
      "Journal": 7604,
      "pes": 7605,
      "sought": 7606,
      "umes": 7607,
      "CIAL": 7608,
      "express": 7609,
      "Due": 7610,
      "orge": 7611,
      "asthma": 7612,
      "108": 7613,
      "135": 7614,
      "exportation": 7615,
      "Supreme": 7616,
      "hon": 7617,
      "itud": 7618,
      "transplant": 7619,
      "certificates": 7620,
      "ocy": 7621,
      "handling": 7622,
      "firearms": 7623,
      "messages": 7624,
      "replaced": 7625,
      "admission": 7626,
      "Returns": 7627,
      "Breakfast": 7628,
      "toxic": 7629,
      "amalgamation": 7630,
      "aut": 7631,
      "commercialization": 7632,
      "SL": 7633,
      "VII": 7634,
      "composed": 7635,
      "ONTO": 7636,
      "merit": 7637,
      "OE": 7638,
      "zone": 7639,
      "anks": 7640,
      "ago": 7641,
      "certify": 7642,
      "Stru": 7643,
      "Recogn": 7644,
      "stamped": 7645,
      "VA": 7646,
      "hour": 7647,
      "leased": 7648,
      "Compet": 7649,
      "Producer": 7650,
      "Enhance": 7651,
      "Por": 7652,
      "Ré": 7653,
      "santé": 7654,
      "ulum": 7655,
      "TAWA": 7656,
      "departmental": 7657,
      "Consider": 7658,
      "Procedures": 7659,
      "recherche": 7660,
      "tood": 7661,
      "olly": 7662,
      "Explan": 7663,
      "Notices": 7664,
      "Meaning": 7665,
      "nearest": 7666,
      "COMMUNITY": 7667,
      "ana": 7668,
      "ita": 7669,
      "140": 7670,
      "suppliers": 7671,
      "sett": 7672,
      "dimension": 7673,
      "XIII": 7674,
      "alse": 7675,
      "entities": 7676,
      "ationale": 7677,
      "council": 7678,
      "download": 7679,
      "cigaret": 7680,
      "itudinal": 7681,
      "DD": 7682,
      "carb": 7683,
      "Municipal": 7684,
      "Bis": 7685,
      "NF": 7686,
      "Regina": 7687,
      "HEAD": 7688,
      "Vehicle": 7689,
      "FROM": 7690,
      "Ken": 7691,
      "ye": 7692,
      "titu": 7693,
      "illed": 7694,
      "Motor": 7695,
      "automated": 7696,
      "Fare": 7697,
      "MRC": 7698,
      "¢/": 7699,
      "Supplemental": 7700,
      "Gifts": 7701,
      "Sun": 7702,
      "catal": 7703,
      "gun": 7704,
      "sodium": 7705,
      "asfc": 7706,
      "staple": 7707,
      "notification": 7708,
      "spending": 7709,
      "Christ": 7710,
      "Prim": 7711,
      "worldwide": 7712,
      "achievement": 7713,
      "suggests": 7714,
      "519": 7715,
      "RCT": 7716,
      "idation": 7717,
      "fruit": 7718,
      "Benz": 7719,
      "AUT": 7720,
      "reimbur": 7721,
      "double": 7722,
      "PI": 7723,
      "advanced": 7724,
      "menu": 7725,
      "accomplish": 7726,
      "DNA": 7727,
      "Oly": 7728,
      "fa": 7729,
      "coated": 7730,
      "blank": 7731,
      "Acad": 7732,
      "Termin": 7733,
      "Function": 7734,
      "NATIONAL": 7735,
      "uptake": 7736,
      "vessels": 7737,
      "Douglas": 7738,
      "Us": 7739,
      "behaviours": 7740,
      "ODS": 7741,
      "Voluntary": 7742,
      "imal": 7743,
      "metric": 7744,
      "remitted": 7745,
      "keli": 7746,
      "Bur": 7747,
      "accompany": 7748,
      "duplic": 7749,
      "continuation": 7750,
      "offence": 7751,
      "Model": 7752,
      "iazol": 7753,
      "TORONTO": 7754,
      "NZT": 7755,
      "(%)": 7756,
      "Cross": 7757,
      "split": 7758,
      "ylo": 7759,
      "Industrial": 7760,
      "cold": 7761,
      "mond": 7762,
      "Boards": 7763,
      "intellectual": 7764,
      "Communication": 7765,
      "Mid": 7766,
      "inar": 7767,
      "reading": 7768,
      "club": 7769,
      "countervailing": 7770,
      "Chairperson": 7771,
      "pillars": 7772,
      "kelihood": 7773,
      "knit": 7774,
      "forming": 7775,
      "INESS": 7776,
      "intend": 7777,
      "constitutes": 7778,
      "strengthened": 7779,
      "bromide": 7780,
      "rig": 7781,
      "devo": 7782,
      "auth": 7783,
      "modern": 7784,
      "preventing": 7785,
      "borrow": 7786,
      "arise": 7787,
      "channel": 7788,
      "considering": 7789,
      "consisting": 7790,
      "comparison": 7791,
      "AUTHOR": 7792,
      "BUSINESS": 7793,
      "DON": 7794,
      "és": 7795,
      "edge": 7796,
      "ecess": 7797,
      "lod": 7798,
      "dep": 7799,
      "detection": 7800,
      "condominium": 7801,
      "INV": 7802,
      "aux": 7803,
      "cohort": 7804,
      "Agri": 7805,
      "Psycho": 7806,
      "Ber": 7807,
      "rich": 7808,
      "entia": 7809,
      "460": 7810,
      "cards": 7811,
      "instances": 7812,
      "trends": 7813,
      "403": 7814,
      "lossary": 7815,
      "simple": 7816,
      "Graduate": 7817,
      "IB": 7818,
      "curement": 7819,
      "Proof": 7820,
      "Acqu": 7821,
      "owns": 7822,
      "POI": 7823,
      "cyclo": 7824,
      "Salary": 7825,
      "hate": 7826,
      "pet": 7827,
      "solid": 7828,
      "tt": 7829,
      "suicide": 7830,
      "Three": 7831,
      "falls": 7832,
      "--------": 7833,
      "Majesty": 7834,
      "nil": 7835,
      "solic": 7836,
      "accommod": 7837,
      "Elgin": 7838,
      "wage": 7839,
      "accr": 7840,
      "genomics": 7841,
      "operates": 7842,
      "Offices": 7843,
      "occupational": 7844,
      "230": 7845,
      "lies": 7846,
      "thread": 7847,
      "join": 7848,
      "Partnered": 7849,
      "Paper": 7850,
      "outreach": 7851,
      "rendered": 7852,
      "Find": 7853,
      "Mat": 7854,
      "OTHER": 7855,
      "Industries": 7856,
      "duct": 7857,
      "Charity": 7858,
      "ARE": 7859,
      "Mand": 7860,
      "ensures": 7861,
      "Concer": 7862,
      "Bru": 7863,
      "acceptance": 7864,
      "Standard": 7865,
      "injuries": 7866,
      "bara": 7867,
      "Its": 7868,
      "tibility": 7869,
      "tol": 7870,
      "Injur": 7871,
      "hypo": 7872,
      "takings": 7873,
      "IFIC": 7874,
      "Issue": 7875,
      "-$": 7876,
      "428": 7877,
      "Ow": 7878,
      "bial": 7879,
      "trip": 7880,
      "controlling": 7881,
      "certainty": 7882,
      "television": 7883,
      "Duties": 7884,
      "understood": 7885,
      "comprised": 7886,
      "410": 7887,
      "EW": 7888,
      "amb": 7889,
      "settlement": 7890,
      "hyper": 7891,
      "recommends": 7892,
      "realized": 7893,
      "theses": 7894,
      "Philip": 7895,
      "aul": 7896,
      "URN": 7897,
      "everyone": 7898,
      "abeth": 7899,
      "946": 7900,
      "FIN": 7901,
      "Have": 7902,
      "Send": 7903,
      "aband": 7904,
      "neither": 7905,
      "Need": 7906,
      "analys": 7907,
      "Language": 7908,
      "Monitoring": 7909,
      "ASSOCIATION": 7910,
      "B2": 7911,
      "WE": 7912,
      "destination": 7913,
      "wire": 7914,
      "manager": 7915,
      "OTTAWA": 7916,
      "GRAND": 7917,
      "Indig": 7918,
      "administrator": 7919,
      "preparations": 7920,
      "drawback": 7921,
      "conjunction": 7922,
      "ham": 7923,
      "shif": 7924,
      "Taxes": 7925,
      "centage": 7926,
      "jection": 7927,
      "azol": 7928,
      "incidentals": 7929,
      "Indigenous": 7930,
      "129": 7931,
      "considers": 7932,
      "Drs": 7933,
      "Option": 7934,
      "meaningful": 7935,
      "correspondence": 7936,
      "spousal": 7937,
      "patterns": 7938,
      "iage": 7939,
      "wal": 7940,
      "inspection": 7941,
      "preserv": 7942,
      "Certification": 7943,
      "030": 7944,
      "FC": 7945,
      "Pain": 7946,
      "gov": 7947,
      "packaging": 7948,
      "Barbara": 7949,
      "Red": 7950,
      "prescription": 7951,
      "sulf": 7952,
      "ROSS": 7953,
      "Operational": 7954,
      "Update": 7955,
      "TOWNS": 7956,
      "entive": 7957,
      "season": 7958,
      "Why": 7959,
      "learned": 7960,
      "PARO": 7961,
      "block": 7962,
      "Relevant": 7963,
      "leasing": 7964,
      "seiz": 7965,
      "Alcohol": 7966,
      "East": 7967,
      "promis": 7968,
      "eme": 7969,
      "pertaining": 7970,
      "141": 7971,
      "influences": 7972,
      "width": 7973,
      "020": 7974,
      "Civ": 7975,
      "ELE": 7976,
      "yer": 7977,
      "126": 7978,
      "Taxpayer": 7979,
      "147": 7980,
      "passed": 7981,
      "Opportunity": 7982,
      "Policies": 7983,
      "TOWNSHIP": 7984,
      "happ": 7985,
      "SUB": 7986,
      "Major": 7987,
      "Miscellaneous": 7988,
      "WOOD": 7989,
      "Even": 7990,
      "M5": 7991,
      "apters": 7992,
      "emo": 7993,
      "elder": 7994,
      "RET": 7995,
      "authorize": 7996,
      "reader": 7997,
      "Participation": 7998,
      "hosted": 7999,
      "indirect": 8000,
      "ALS": 8001,
      "enhancing": 8002,
      "cancelled": 8003,
      "Materials": 8004,
      "Fees": 8005,
      "HER": 8006,
      "ologies": 8007,
      "discovered": 8008,
      "developments": 8009,
      "plicit": 8010,
      "requesting": 8011,
      "AGEMENT": 8012,
      "tims": 8013,
      "belong": 8014,
      "demo": 8015,
      "ulative": 8016,
      "ansion": 8017,
      "LEG": 8018,
      "responding": 8019,
      "BOW": 8020,
      "Sir": 8021,
      "extr": 8022,
      "agrees": 8023,
      "ione": 8024,
      "Production": 8025,
      "monetary": 8026,
      "Postal": 8027,
      "––––––––": 8028,
      "begins": 8029,
      "tert": 8030,
      "meal": 8031,
      "discount": 8032,
      "Off": 8033,
      "likelihood": 8034,
      "Charges": 8035,
      "remove": 8036,
      "citizenship": 8037,
      "acetate": 8038,
      "canada": 8039,
      "Amon": 8040,
      "Institut": 8041,
      "increasingly": 8042,
      "adverse": 8043,
      "incidence": 8044,
      "RIVER": 8045,
      "palliative": 8046,
      "LIMITED": 8047,
      "gent": 8048,
      "isol": 8049,
      "fran": 8050,
      "232": 8051,
      "JECT": 8052,
      "Renewal": 8053,
      "thickness": 8054,
      "112": 8055,
      "CSP": 8056,
      "raw": 8057,
      "white": 8058,
      "disbursement": 8059,
      "seller": 8060,
      "NAME": 8061,
      "FORD": 8062,
      "quantities": 8063,
      "rupt": 8064,
      "pregnancy": 8065,
      "PAROISSE": 8066,
      "Among": 8067,
      "designate": 8068,
      "Conclusion": 8069,
      "incorrect": 8070,
      "concrete": 8071,
      "wholes": 8072,
      "Applied": 8073,
      "helped": 8074,
      "introduction": 8075,
      "freedom": 8076,
      "square": 8077,
      "viv": 8078,
      "anne": 8079,
      "asset": 8080,
      "lose": 8081,
      "Deemed": 8082,
      "MANAGEMENT": 8083,
      "omedicine": 8084,
      "Questions": 8085,
      "resistant": 8086,
      "tier": 8087,
      "depression": 8088,
      "compass": 8089,
      "Memorial": 8090,
      "Amend": 8091,
      "raise": 8092,
      "integrate": 8093,
      "SULT": 8094,
      "pharmaceutical": 8095,
      "shape": 8096,
      "240": 8097,
      "RP": 8098,
      "RQ": 8099,
      "Wa": 8100,
      "clothing": 8101,
      "Subsidy": 8102,
      "Dinner": 8103,
      "UE": 8104,
      "Vo": 8105,
      "chosen": 8106,
      "Arts": 8107,
      "renovation": 8108,
      "Windsor": 8109,
      "GRE": 8110,
      "strain": 8111,
      "umption": 8112,
      "SEARCH": 8113,
      "debts": 8114,
      "instalments": 8115,
      "George": 8116,
      "itative": 8117,
      "itig": 8118,
      "something": 8119,
      "MBER": 8120,
      "spirit": 8121,
      "fittings": 8122,
      "Recommendations": 8123,
      "revealed": 8124,
      "proprietor": 8125,
      "ias": 8126,
      "indirectly": 8127,
      "ington": 8128,
      "ols": 8129,
      "mode": 8130,
      "Provisions": 8131,
      "carbonyl": 8132,
      "dynam": 8133,
      "Large": 8134,
      "Saint": 8135,
      "false": 8136,
      "inher": 8137,
      "ido": 8138,
      "Taxation": 8139,
      "Corre": 8140,
      "Member": 8141,
      "bt": 8142,
      "olog": 8143,
      "ario": 8144,
      "beta": 8145,
      "cium": 8146,
      "netic": 8147,
      "630": 8148,
      "CENT": 8149,
      "Fire": 8150,
      "pour": 8151,
      "traf": 8152,
      "notified": 8153,
      "careg": 8154,
      "reimbursement": 8155,
      "Mill": 8156,
      "Wil": 8157,
      "afford": 8158,
      "CTN": 8159,
      "DEL": 8160,
      "FIRE": 8161,
      "rooms": 8162,
      "osteo": 8163,
      "prob": 8164,
      "considerable": 8165,
      "predecess": 8166,
      "schedules": 8167,
      "resolve": 8168,
      "Psych": 8169,
      "420": 8170,
      "Cef": 8171,
      "VEL": 8172,
      "brings": 8173,
      "performing": 8174,
      "anomedicine": 8175,
      "spread": 8176,
      "D10": 8177,
      "saw": 8178,
      "emempt": 8179,
      "posite": 8180,
      "tality": 8181,
      "thereby": 8182,
      "careers": 8183,
      "attle": 8184,
      "reached": 8185,
      "linkage": 8186,
      "atur": 8187,
      "weak": 8188,
      "workforce": 8189,
      "121": 8190,
      "memory": 8191,
      "Guides": 8192,
      "Club": 8193,
      "Currently": 8194,
      "insurable": 8195,
      "discoveries": 8196,
      "cd": 8197,
      "allocate": 8198,
      "grade": 8199,
      "Less": 8200,
      "holid": 8201,
      "tempor": 8202,
      "extreme": 8203,
      "strengthening": 8204,
      "advancement": 8205,
      "CONT": 8206,
      "jobs": 8207,
      "assembled": 8208,
      "Solely": 8209,
      "Fish": 8210,
      "hes": 8211,
      "beverage": 8212,
      "underway": 8213,
      "wheel": 8214,
      "encourages": 8215,
      "Contribution": 8216,
      "Figure": 8217,
      "Amin": 8218,
      "Sam": 8219,
      "Sug": 8220,
      "1971": 8221,
      "networking": 8222,
      "Humanities": 8223,
      "540": 8224,
      "Rac": 8225,
      "T10": 8226,
      "ichlor": 8227,
      "Bruce": 8228,
      "GENE": 8229,
      "mill": 8230,
      "var": 8231,
      "ored": 8232,
      "consecu": 8233,
      "izabeth": 8234,
      "offset": 8235,
      "Designated": 8236,
      "CFIA": 8237,
      "Les": 8238,
      "SME": 8239,
      "WEST": 8240,
      "rise": 8241,
      "mineral": 8242,
      "financing": 8243,
      "depends": 8244,
      "subsidies": 8245,
      "Prem": 8246,
      "comparable": 8247,
      "frequently": 8248,
      "reserves": 8249,
      "consecutive": 8250,
      "inations": 8251,
      "ilty": 8252,
      "disorder": 8253,
      "END": 8254,
      "leads": 8255,
      "Hospitality": 8256,
      "limitations": 8257,
      "supervisor": 8258,
      "structural": 8259,
      "AAP": 8260,
      "welfare": 8261,
      "Entry": 8262,
      "Elizabeth": 8263,
      "satisfactory": 8264,
      "Increase": 8265,
      "discretion": 8266,
      "PHA": 8267,
      "motive": 8268,
      "spective": 8269,
      "offering": 8270,
      "mobility": 8271,
      "latest": 8272,
      "PROFIT": 8273,
      "prosecu": 8274,
      "ceived": 8275,
      "mini": 8276,
      "arrive": 8277,
      "counts": 8278,
      "Overall": 8279,
      "achievements": 8280,
      "FIELD": 8281,
      "330": 8282,
      "Metal": 8283,
      "SIT": 8284,
      "iac": 8285,
      "ils": 8286,
      "ulating": 8287,
      "umin": 8288,
      "stipend": 8289,
      "issuing": 8290,
      "responsive": 8291,
      "lighted": 8292,
      "tations": 8293,
      "van": 8294,
      "apping": 8295,
      "encouraging": 8296,
      "CU": 8297,
      "ding": 8298,
      "answers": 8299,
      "intangible": 8300,
      "shipping": 8301,
      "mortgage": 8302,
      "Clar": 8303,
      "ption": 8304,
      "Franço": 8305,
      "fugees": 8306,
      "Governance": 8307,
      "Primary": 8308,
      "affects": 8309,
      "Online": 8310,
      "highway": 8311,
      "Parties": 8312,
      "burg": 8313,
      "210": 8314,
      "D3": 8315,
      "Vir": 8316,
      "guilty": 8317,
      "Topics": 8318,
      "BEC": 8319,
      "Promotion": 8320,
      "Federation": 8321,
      "kr": 8322,
      "Coordination": 8323,
      "operators": 8324,
      "fost": 8325,
      "insufficient": 8326,
      "prom": 8327,
      "Steering": 8328,
      "smaller": 8329,
      "printing": 8330,
      "racism": 8331,
      "2nd": 8332,
      "dental": 8333,
      "wholly": 8334,
      "reliable": 8335,
      "minorities": 8336,
      "manufacturers": 8337,
      "010": 8338,
      "Det": 8339,
      "thal": 8340,
      "posing": 8341,
      "Upon": 8342,
      "Practices": 8343,
      "bicy": 8344,
      "task": 8345,
      "apart": 8346,
      "abling": 8347,
      "strip": 8348,
      "Excep": 8349,
      "DEX": 8350,
      "professor": 8351,
      "Métis": 8352,
      "iform": 8353,
      "withhold": 8354,
      "attended": 8355,
      "revoked": 8356,
      "Germany": 8357,
      "Mobility": 8358,
      "enario": 8359,
      "ached": 8360,
      "ensity": 8361,
      "methodologies": 8362,
      "Measuring": 8363,
      "thought": 8364,
      "Hydro": 8365,
      "Vacc": 8366,
      "atics": 8367,
      "iar": 8368,
      "asion": 8369,
      "unpaid": 8370,
      "Brief": 8371,
      "401": 8372,
      "specifications": 8373,
      "submitting": 8374,
      "crimes": 8375,
      "correction": 8376,
      "radio": 8377,
      "collecting": 8378,
      "buyer": 8379,
      "Single": 8380,
      "predecessor": 8381,
      "gir": 8382,
      "tro": 8383,
      "prog": 8384,
      "128": 8385,
      "ANT": 8386,
      "elling": 8387,
      "226": 8388,
      "college": 8389,
      "Percentage": 8390,
      "volumes": 8391,
      "typically": 8392,
      "serving": 8393,
      "Compensation": 8394,
      "municipalities": 8395,
      "confirmation": 8396,
      "Injury": 8397,
      "ycin": 8398,
      "atured": 8399,
      "coholic": 8400,
      "onym": 8401,
      "spinal": 8402,
      "ORIG": 8403,
      "closing": 8404,
      "Ethical": 8405,
      "Whether": 8406,
      "D8": 8407,
      "ales": 8408,
      "undertakings": 8409,
      "getting": 8410,
      "postdoctoral": 8411,
      "5525": 8412,
      "Volunte": 8413,
      "225": 8414,
      "Yr": 8415,
      "scan": 8416,
      "dele": 8417,
      "marking": 8418,
      "Suf": 8419,
      "attack": 8420,
      "tested": 8421,
      "DUM": 8422,
      "preferential": 8423,
      "Deduction": 8424,
      "iph": 8425,
      "engine": 8426,
      "facing": 8427,
      "Short": 8428,
      "placing": 8429,
      "liquid": 8430,
      "Az": 8431,
      "ACB": 8432,
      "Dist": 8433,
      "fort": 8434,
      "ression": 8435,
      "wealth": 8436,
      "updates": 8437,
      "fraud": 8438,
      "thetic": 8439,
      "psychological": 8440,
      "cs": 8441,
      "none": 8442,
      "Proceed": 8443,
      "evolution": 8444,
      "accessories": 8445,
      "ADRE": 8446,
      "possess": 8447,
      "accuracy": 8448,
      "wishes": 8449,
      "3rd": 8450,
      "STATE": 8451,
      "COU": 8452,
      "Calculating": 8453,
      "Civil": 8454,
      "ORIGIN": 8455,
      "night": 8456,
      "......": 8457,
      "campaign": 8458,
      "KO": 8459,
      "rout": 8460,
      "confidence": 8461,
      "Behavi": 8462,
      "conclusion": 8463,
      "latter": 8464,
      "arguments": 8465,
      "flexibility": 8466,
      "Culture": 8467,
      "Prel": 8468,
      "aks": 8469,
      "gal": 8470,
      "oversight": 8471,
      "pm": 8472,
      "vou": 8473,
      "regulated": 8474,
      "Daniel": 8475,
      "ignee": 8476,
      "aggregate": 8477,
      "Bulletins": 8478,
      "Candid": 8479,
      "HAR": 8480,
      "expansion": 8481,
      "mortality": 8482,
      "tissues": 8483,
      "Identify": 8484,
      "MEMORANDUM": 8485,
      "Eas": 8486,
      "ende": 8487,
      "iminary": 8488,
      "disposal": 8489,
      "viewed": 8490,
      "residency": 8491,
      "guides": 8492,
      "sometimes": 8493,
      "features": 8494,
      "renewed": 8495,
      "automatically": 8496,
      "Approach": 8497,
      "Preliminary": 8498,
      "Dim": 8499,
      "lord": 8500,
      "ara": 8501,
      "780": 8502,
      "Hô": 8503,
      "chief": 8504,
      "CIT": 8505,
      "polymers": 8506,
      "Nominating": 8507,
      "CY": 8508,
      "isation": 8509,
      "dees": 8510,
      "Third": 8511,
      "Prime": 8512,
      "ENCE": 8513,
      "butyl": 8514,
      "Genome": 8515,
      "Strength": 8516,
      "discipline": 8517,
      "substance": 8518,
      "screen": 8519,
      "fibre": 8520,
      "Distribu": 8521,
      "Dian": 8522,
      "hind": 8523,
      "parency": 8524,
      "Protocol": 8525,
      "audited": 8526,
      "serves": 8527,
      "passengers": 8528,
      "Multiple": 8529,
      "chairs": 8530,
      "Continu": 8531,
      "Definition": 8532,
      "Body": 8533,
      "Right": 8534,
      "ny": 8535,
      "seed": 8536,
      "INST": 8537,
      "reproductive": 8538,
      "tubes": 8539,
      "duce": 8540,
      "Prair": 8541,
      "surgery": 8542,
      "Students": 8543,
      "MM": 8544,
      "Randomized": 8545,
      "leather": 8546,
      "decline": 8547,
      "Valuation": 8548,
      "Terms": 8549,
      "strongly": 8550,
      "plastics": 8551,
      "African": 8552,
      "Singh": 8553,
      "prevalence": 8554,
      "Sector": 8555,
      "Ze": 8556,
      "recreation": 8557,
      "disparities": 8558,
      "joined": 8559,
      "instruction": 8560,
      "stores": 8561,
      "receptor": 8562,
      "Retirement": 8563,
      "CLA": 8564,
      "Lor": 8565,
      "sle": 8566,
      "refined": 8567,
      "005": 8568,
      "comed": 8569,
      "portive": 8570,
      "conversion": 8571,
      "productivity": 8572,
      "CHAR": 8573,
      "promotes": 8574,
      "CADEX": 8575,
      "Fraser": 8576,
      "curriculum": 8577,
      "-{": 8578,
      "Tur": 8579,
      "cited": 8580,
      "wash": 8581,
      "IDENT": 8582,
      "Values": 8583,
      "atherine": 8584,
      "homeless": 8585,
      "Principle": 8586,
      "kinson": 8587,
      "Sample": 8588,
      "fere": 8589,
      "asks": 8590,
      "Chronic": 8591,
      "Prize": 8592,
      "shareholders": 8593,
      "Accounts": 8594,
      "ACC": 8595,
      "EU": 8596,
      "Tol": 8597,
      "yle": 8598,
      "inputs": 8599,
      "ille": 8600,
      "Placed": 8601,
      "representations": 8602,
      "versions": 8603,
      "forwarded": 8604,
      "Networks": 8605,
      "Missis": 8606,
      "newsletter": 8607,
      "IO": 8608,
      "Low": 8609,
      "replaces": 8610,
      "cha": 8611,
      "lol": 8612,
      "ifest": 8613,
      "tained": 8614,
      "contributes": 8615,
      "autism": 8616,
      "scientist": 8617,
      "predic": 8618,
      "Blue": 8619,
      "haps": 8620,
      "dow": 8621,
      "viral": 8622,
      "Louise": 8623,
      "Olympic": 8624,
      "gens": 8625,
      "sn": 8626,
      "2221": 8627,
      "azep": 8628,
      "TELE": 8629,
      "deaths": 8630,
      "widely": 8631,
      "accountable": 8632,
      "commissions": 8633,
      "Expenditures": 8634,
      "Divid": 8635,
      "Gains": 8636,
      "Spring": 8637,
      "cks": 8638,
      "wind": 8639,
      "ented": 8640,
      "adoles": 8641,
      "deals": 8642,
      "cooperative": 8643,
      "sustainability": 8644,
      "sensiti": 8645,
      "Police": 8646,
      "analyses": 8647,
      ")/": 8648,
      "refugee": 8649,
      "rozen": 8650,
      "forces": 8651,
      "velo": 8652,
      "heav": 8653,
      "gran": 8654,
      "Consent": 8655,
      "symp": 8656,
      "audience": 8657,
      "Importation": 8658,
      "practitioner": 8659,
      "Carrier": 8660,
      "MFN": 8661,
      "War": 8662,
      "aly": 8663,
      "Inland": 8664,
      "______": 8665,
      "Interdisciplinary": 8666,
      "Coalition": 8667,
      "originally": 8668,
      "integral": 8669,
      "Green": 8670,
      "reimbursed": 8671,
      "era": 8672,
      "lebr": 8673,
      "Dead": 8674,
      "143": 8675,
      "statutory": 8676,
      "mposia": 8677,
      "217": 8678,
      "RIC": 8679,
      "park": 8680,
      "CCPC": 8681,
      "Weight": 8682,
      "attemp": 8683,
      "Courier": 8684,
      "declared": 8685,
      "E60": 8686,
      "Jeff": 8687,
      "onium": 8688,
      "forced": 8689,
      "engaging": 8690,
      "IGN": 8691,
      "COMMISSION": 8692,
      "Outcomes": 8693,
      "TCPS": 8694,
      "447": 8695,
      "DP": 8696,
      "WK": 8697,
      "vit": 8698,
      "revers": 8699,
      "breakdown": 8700,
      ")?": 8701,
      "Bureau": 8702,
      "Sud": 8703,
      "VIS": 8704,
      "equality": 8705,
      "celebr": 8706,
      "pete": 8707,
      "Jose": 8708,
      "Freedoms": 8709,
      "Multiculturalism": 8710,
      "ike": 8711,
      "pip": 8712,
      "forth": 8713,
      "distingu": 8714,
      "assment": 8715,
      "travelling": 8716,
      "lifesty": 8717,
      "destroyed": 8718,
      "320": 8719,
      "Hold": 8720,
      "apparent": 8721,
      "incorporating": 8722,
      "Athlete": 8723,
      "elderly": 8724,
      "Diversity": 8725,
      "Library": 8726,
      "imum": 8727,
      ".....": 8728,
      "considerations": 8729,
      "LTR": 8730,
      "easy": 8731,
      "Locator": 8732,
      "warrant": 8733,
      "'-": 8734,
      "rod": 8735,
      "ilat": 8736,
      "connec": 8737,
      "empl": 8738,
      "drive": 8739,
      "completely": 8740,
      "GOODS": 8741,
      "insulin": 8742,
      "entitlement": 8743,
      "K1": 8744,
      "memoranda": 8745,
      "highlighted": 8746,
      "collections": 8747,
      "objection": 8748,
      "Sections": 8749,
      "661": 8750,
      "drawn": 8751,
      "hosting": 8752,
      "victims": 8753,
      "[...": 8754,
      "fif": 8755,
      "fight": 8756,
      "compete": 8757,
      "Regenerative": 8758,
      "Progress": 8759,
      "uga": 8760,
      "epid": 8761,
      "highlight": 8762,
      "UNT": 8763,
      "advancing": 8764,
      "incentives": 8765,
      "suffering": 8766,
      "resolved": 8767,
      "Coding": 8768,
      "Pati": 8769,
      "amed": 8770,
      "ibly": 8771,
      "Refresh": 8772,
      "aves": 8773,
      "morbid": 8774,
      "Showcase": 8775,
      "BEL": 8776,
      "ration": 8777,
      "spring": 8778,
      "recre": 8779,
      "Inspection": 8780,
      "clause": 8781,
      "weigh": 8782,
      "epidem": 8783,
      "902": 8784,
      "Received": 8785,
      "Several": 8786,
      "pamphlet": 8787,
      "Failure": 8788,
      "recreational": 8789,
      "2R": 8790,
      "Ped": 8791,
      "WS": 8792,
      "insignificant": 8793,
      "reform": 8794,
      "spend": 8795,
      "logist": 8796,
      "waiver": 8797,
      "administrators": 8798,
      "Personnel": 8799,
      "UTIONS": 8800,
      "Intelligence": 8801,
      "Clear": 8802,
      "Sof": 8803,
      "TNE": 8804,
      "ersed": 8805,
      "yourself": 8806,
      "filer": 8807,
      "failing": 8808,
      "Archives": 8809,
      "difficulties": 8810,
      "\").": 8811,
      "9th": 8812,
      "Brian": 8813,
      "Funded": 8814,
      "Strategies": 8815,
      "Employer": 8816,
      "nomine": 8817,
      "STATEMENT": 8818,
      "Ment": 8819,
      "MIC": 8820,
      "Make": 8821,
      "theless": 8822,
      "prion": 8823,
      "109": 8824,
      "offenders": 8825,
      "complexity": 8826,
      "Andrew": 8827,
      "Volume": 8828,
      "rapidly": 8829,
      "divisions": 8830,
      "budgets": 8831,
      "[...]": 8832,
      "BON": 8833,
      "D19": 8834,
      "GX": 8835,
      "mice": 8836,
      "powers": 8837,
      "facilitating": 8838,
      "evaluating": 8839,
      "device": 8840,
      "happens": 8841,
      "Cash": 8842,
      "zing": 8843,
      "Confl": 8844,
      "207": 8845,
      "ENS": 8846,
      "retiring": 8847,
      "Chloro": 8848,
      "050": 8849,
      "encompass": 8850,
      "heat": 8851,
      "pow": 8852,
      "1980": 8853,
      "seminar": 8854,
      "easier": 8855,
      "beer": 8856,
      "iger": 8857,
      "STER": 8858,
      "missing": 8859,
      "partnering": 8860,
      "threats": 8861,
      "administering": 8862,
      "subscrib": 8863,
      "oriented": 8864,
      "4809A": 8865,
      "DATA": 8866,
      "mut": 8867,
      "vity": 8868,
      "aland": 8869,
      "proposes": 8870,
      "distance": 8871,
      "External": 8872,
      "Marina": 8873,
      "SPORT": 8874,
      "onsors": 8875,
      "Submit": 8876,
      "LOCAL": 8877,
      "Clinician": 8878,
      "stored": 8879,
      "competent": 8880,
      "Signature": 8881,
      "distinct": 8882,
      "CRC": 8883,
      "Dor": 8884,
      "Pers": 8885,
      "attr": 8886,
      "amination": 8887,
      "tage": 8888,
      "execu": 8889,
      "888": 8890,
      "Collections": 8891,
      "Competent": 8892,
      "weld": 8893,
      "thi": 8894,
      "logists": 8895,
      "Kingdom": 8896,
      "surveys": 8897,
      "describing": 8898,
      "exciting": 8899,
      "negligible": 8900,
      "Ado": 8901,
      "WIT": 8902,
      "industries": 8903,
      "chec": 8904,
      "Indians": 8905,
      "cultures": 8906,
      "LET": 8907,
      "proceeding": 8908,
      "journ": 8909,
      "protocols": 8910,
      "119": 8911,
      "Jack": 8912,
      "fat": 8913,
      "intr": 8914,
      "aste": 8915,
      "permission": 8916,
      "umed": 8917,
      "diet": 8918,
      "outline": 8919,
      "Containing": 8920,
      "genic": 8921,
      "Inventory": 8922,
      "potent": 8923,
      "banks": 8924,
      "LIBRA": 8925,
      "consumers": 8926,
      "Frequ": 8927,
      "nutr": 8928,
      "alcoholic": 8929,
      "repay": 8930,
      "suc": 8931,
      "002": 8932,
      "Cancell": 8933,
      "ifer": 8934,
      "alling": 8935,
      "onds": 8936,
      "280": 8937,
      "Enterprises": 8938,
      "custom": 8939,
      "SOCIETY": 8940,
      "ratings": 8941,
      "Travellers": 8942,
      "SOR": 8943,
      "till": 8944,
      "issuer": 8945,
      "hoc": 8946,
      "entertainment": 8947,
      "practic": 8948,
      "partnered": 8949,
      "TECH": 8950,
      "Ethyl": 8951,
      "cycl": 8952,
      "naires": 8953,
      "greatest": 8954,
      "NORTH": 8955,
      "Experimental": 8956,
      "LIBRARY": 8957,
      "730": 8958,
      "Rail": 8959,
      "subtract": 8960,
      "ITE": 8961,
      "ranked": 8962,
      "audi": 8963,
      "Supply": 8964,
      "Charge": 8965,
      "exceptional": 8966,
      "hardware": 8967,
      "PRODUCT": 8968,
      "Zealand": 8969,
      "Men": 8970,
      "alle": 8971,
      "appen": 8972,
      "liabilities": 8973,
      "hotel": 8974,
      "mainframe": 8975,
      "electrical": 8976,
      "familiar": 8977,
      "Penalties": 8978,
      "traffic": 8979,
      "Ron": 8980,
      "Restric": 8981,
      "County": 8982,
      "appropriately": 8983,
      "acquires": 8984,
      "oxide": 8985,
      "BOR": 8986,
      "POE": 8987,
      "staffing": 8988,
      "truck": 8989,
      "Issuing": 8990,
      "FNT": 8991,
      "Ruling": 8992,
      "QUEBEC": 8993,
      "Hist": 8994,
      "pital": 8995,
      "procurement": 8996,
      "acute": 8997,
      "iveness": 8998,
      "closed": 8999,
      "license": 9000,
      "Franc": 9001,
      "middle": 9002,
      "bottom": 9003,
      "Mississa": 9004,
      "went": 9005,
      "cry": 9006,
      "Proposed": 9007,
      "RESEARCH": 9008,
      "Works": 9009,
      "Refreshments": 9010,
      "Reduction": 9011,
      "Tod": 9012,
      "ri": 9013,
      "enters": 9014,
      "adrc": 9015,
      "ceases": 9016,
      "dist": 9017,
      "opening": 9018,
      "INES": 9019,
      "Officers": 9020,
      "ISH": 9021,
      "donald": 9022,
      "assume": 9023,
      "guarantee": 9024,
      "orientation": 9025,
      "temporarily": 9026,
      "Mississauga": 9027,
      "JD": 9028,
      "KET": 9029,
      "NCE": 9030,
      "Tha": 9031,
      "Wash": 9032,
      "explicit": 9033,
      "idea": 9034,
      "117": 9035,
      "driver": 9036,
      "attempt": 9037,
      "assembly": 9038,
      "constructed": 9039,
      "easily": 9040,
      "Microbiology": 9041,
      "Base": 9042,
      "BLE": 9043,
      "eg": 9044,
      "posit": 9045,
      "Start": 9046,
      "Approved": 9047,
      "dram": 9048,
      "Website": 9049,
      "module": 9050,
      "Membership": 9051,
      "weekly": 9052,
      "cancellation": 9053,
      "Preparedness": 9054,
      "Hôpital": 9055,
      "040": 9056,
      "DPSP": 9057,
      "Hand": 9058,
      "Ital": 9059,
      "rick": 9060,
      "perceived": 9061,
      "Stor": 9062,
      "adding": 9063,
      "ranging": 9064,
      "Pharmac": 9065,
      "Museum": 9066,
      "PERSON": 9067,
      "TB": 9068,
      "Ukr": 9069,
      "pon": 9070,
      "tri": 9071,
      "transparency": 9072,
      "ameter": 9073,
      "faced": 9074,
      "informatics": 9075,
      "showed": 9076,
      "Consultation": 9077,
      "Collaboration": 9078,
      "compounds": 9079,
      "epidemic": 9080,
      "560": 9081,
      "Ou": 9082,
      "drome": 9083,
      "sou": 9084,
      "iced": 9085,
      "assurance": 9086,
      "Those": 9087,
      "conting": 9088,
      "cultur": 9089,
      "landlord": 9090,
      "inside": 9091,
      "largely": 9092,
      "NR4": 9093,
      "NOTICE": 9094,
      "kilometres": 9095,
      "Glossary": 9096,
      "Now": 9097,
      "SEN": 9098,
      "honour": 9099,
      "Refugee": 9100,
      "upcoming": 9101,
      "Counsel": 9102,
      "highlights": 9103,
      "ricia": 9104,
      "BOUR": 9105,
      "atoon": 9106,
      "believes": 9107,
      "Press": 9108,
      "Pipe": 9109,
      "refunded": 9110,
      "forec": 9111,
      "resale": 9112,
      "notices": 9113,
      "illin": 9114,
      "uding": 9115,
      "phon": 9116,
      "hibition": 9117,
      "administers": 9118,
      "Cas": 9119,
      "PL": 9120,
      "RM": 9121,
      "jun": 9122,
      "dues": 9123,
      "SPE": 9124,
      "transferor": 9125,
      "delivering": 9126,
      "tumour": 9127,
      "NI": 9128,
      "Again": 9129,
      "Asse": 9130,
      "IDGE": 9131,
      "MAP": 9132,
      "Saskatoon": 9133,
      "ilingual": 9134,
      "Kingston": 9135,
      "Patricia": 9136,
      "Potential": 9137,
      "girls": 9138,
      "culturally": 9139,
      "Lines": 9140,
      "rob": 9141,
      "leases": 9142,
      "INS": 9143,
      "270": 9144,
      "VIEW": 9145,
      "threatening": 9146,
      "crued": 9147,
      "clerosis": 9148,
      "resumption": 9149,
      "translate": 9150,
      "Approval": 9151,
      "259": 9152,
      "Submission": 9153,
      "households": 9154,
      "postal": 9155,
      "missible": 9156,
      "sufferance": 9157,
      "embryos": 9158,
      "GENERAL": 9159,
      "DER": 9160,
      "gency": 9161,
      "ceme": 9162,
      "olf": 9163,
      "deed": 9164,
      "bleached": 9165,
      "178": 9166,
      "traum": 9167,
      "satisfy": 9168,
      "Em": 9169,
      "Must": 9170,
      "NCIC": 9171,
      "boat": 9172,
      "exporting": 9173,
      "Arrange": 9174,
      "Validation": 9175,
      "visiting": 9176,
      "Newsletter": 9177,
      "medication": 9178,
      "?\"": 9179,
      "Camp": 9180,
      "Eric": 9181,
      "enture": 9182,
      "Influ": 9183,
      "Conduct": 9184,
      "complement": 9185,
      "airs": 9186,
      "remitting": 9187,
      "Documents": 9188,
      "Complain": 9189,
      "Macdonald": 9190,
      "Receiver": 9191,
      "Thomas": 9192,
      "Joseph": 9193,
      "nearly": 9194,
      "ises": 9195,
      "distric": 9196,
      "spect": 9197,
      "produces": 9198,
      "occas": 9199,
      "specification": 9200,
      "Charitable": 9201,
      "Facilit": 9202,
      "PHAC": 9203,
      "cemetery": 9204,
      "260": 9205,
      "Ian": 9206,
      "KA": 9207,
      "iron": 9208,
      "portfolio": 9209,
      "output": 9210,
      "138": 9211,
      "fila": 9212,
      "Feed": 9213,
      "Groups": 9214,
      "dealer": 9215,
      "Chem": 9216,
      "gy": 9217,
      "brokers": 9218,
      "exemptions": 9219,
      "politi": 9220,
      "Sale": 9221,
      "QUART": 9222,
      "Nic": 9223,
      "substances": 9224,
      "motiv": 9225,
      "owed": 9226,
      "ISSU": 9227,
      "INTERNATIONAL": 9228,
      "historical": 9229,
      "sto": 9230,
      "udes": 9231,
      "Rehabilitation": 9232,
      "139": 9233,
      "destruction": 9234,
      "surtax": 9235,
      "Transaction": 9236,
      "Safe": 9237,
      "Denis": 9238,
      "Challeng": 9239,
      "NL": 9240,
      "attitu": 9241,
      "complications": 9242,
      "Novel": 9243,
      "REAL": 9244,
      "treating": 9245,
      "reduces": 9246,
      "responded": 9247,
      "APPLIC": 9248,
      "Rates": 9249,
      "Select": 9250,
      "TC": 9251,
      "nar": 9252,
      "eters": 9253,
      "supportive": 9254,
      "crew": 9255,
      "identiﬁ": 9256,
      "ALTH": 9257,
      "dependence": 9258,
      "glu": 9259,
      "equally": 9260,
      "fails": 9261,
      "protecting": 9262,
      "prosecution": 9263,
      "Eastern": 9264,
[...]
