{
  "version": "1.0",
  "truncation": null,
  "padding": {
    "strategy": {
      "Fixed": 256
    },
    "direction": "Right",
    "pad_to_multiple_of": null,
    "pad_id": 1,
    "pad_type_id": 0,
    "pad_token": "<pad>"
  },
  "added_tokens": [
    {
      "id": 0,
      "content": "<unk>",
      "single_word": false,
      "lstrip": false,
      "rstrip": false,
      "normalized": false,
      "special": true
    },
    {
      "id": 1,
      "content": "<pad>",
      "single_word": false,
      "lstrip": false,
      "rstrip": false,
      "normalized": false,
      "special": true
    },
    {
      "id": 2,
      "content": "<bos>",
      "single_word": false,
      "lstrip": false,
      "rstrip": false,
      "normalized": false,
      "special": true
    },
    {
      "id": 3,
      "content": "<eos>",
      "single_word": false,
      "lstrip": false,
      "rstrip": false,
      "normalized": false,
      "special": true
    }
  ],
  "normalizer": null,
  "pre_tokenizer": {
    "type": "Whitespace"
  },
  "post_processor": null,
  "decoder": null,
  "model": {
    "type": "BPE",
    "dropout": null,
    "unk_token": null,
    "continuing_subword_prefix": null,
    "end_of_word_suffix": null,
    "fuse_unk": false,
    "byte_fallback": false,
    "ignore_merges": false,
    "vocab": {
      "<unk>": 0,
      "<pad>": 1,
      "<bos>": 2,
      "<eos>": 3,
      "\u0004": 4,
      "\u000e": 5,
      "\u000f": 6,
      "\u0010": 7,
      "\u0011": 8,
      "\u0012": 9,
      "\u0013": 10,
      "\u0014": 11,
      "\u0015": 12,
      "\u0016": 13,
      "\u0017": 14,
      "\u0018": 15,
      "\u0019": 16,
      "\u001a": 17,
      "\u001b": 18,
      "\u001c": 19,
      "\u001d": 20,
      "\u001e": 21,
      "\u001f": 22,
      "!": 23,
      "\"": 24,
      "#": 25,
      "$": 26,
      "%": 27,
      "&": 28,
      "'": 29,
      "(": 30,
      ")": 31,
      "*": 32,
      "+": 33,
      ",": 34,
      "-": 35,
      ".": 36,
      "/": 37,
      "0": 38,
      "1": 39,
      "2": 40,
      "3": 41,
      "4": 42,
      "5": 43,
      "6": 44,
      "7": 45,
      "8": 46,
      "9": 47,
      ":": 48,
      ";": 49,
      "<": 50,
      "=": 51,
      ">": 52,
      "?": 53,
      "@": 54,
      "A": 55,
      "B": 56,
      "C": 57,
      "D": 58,
      "E": 59,
      "F": 60,
      "G": 61,
      "H": 62,
      "I": 63,
      "J": 64,
      "K": 65,
      "L": 66,
      "M": 67,
      "N": 68,
      "O": 69,
      "P": 70,
      "Q": 71,
      "R": 72,
      "S": 73,
      "T": 74,
      "U": 75,
      "V": 76,
      "W": 77,
      "X": 78,
      "Y": 79,
      "Z": 80,
      "[": 81,
      "\\": 82,
      "]": 83,
      "^": 84,
      "_": 85,
      "`": 86,
      "a": 87,
      "b": 88,
      "c": 89,
      "d": 90,
      "e": 91,
      "f": 92,
      "g": 93,
      "h": 94,
      "i": 95,
      "j": 96,
      "k": 97,
      "l": 98,
      "m": 99,
      "n": 100,
      "o": 101,
      "p": 102,
      "q": 103,
      "r": 104,
      "s": 105,
      "t": 106,
      "u": 107,
      "v": 108,
      "w": 109,
      "x": 110,
      "y": 111,
      "z": 112,
      "{": 113,
      "|": 114,
      "}": 115,
      "~": 116,
      "": 117,
      "": 118,
      "": 119,
      "": 120,
      "": 121,
      "": 122,
      "": 123,
      "": 124,
      "": 125,
      "": 126,
      "": 127,
      "": 128,
      "": 129,
      "": 130,
      "": 131,
      "": 132,
      "": 133,
      "": 134,
      "": 135,
      "¡": 136,
      "¢": 137,
      "£": 138,
      "¥": 139,
      "¦": 140,
      "§": 141,
      "¨": 142,
      "©": 143,
      "ª": 144,
      "«": 145,
      "¬": 146,
      "­": 147,
      "®": 148,
      "¯": 149,
      "°": 150,
      "±": 151,
      "²": 152,
      "³": 153,
      "´": 154,
      "µ": 155,
      "¶": 156,
      "·": 157,
      "¸": 158,
      "¹": 159,
      "º": 160,
      "»": 161,
      "¼": 162,
      "½": 163,
      "¾": 164,
      "¿": 165,
      "À": 166,
      "Á": 167,
      "Â": 168,
      "Ã": 169,
      "Ä": 170,
      "Å": 171,
      "Æ": 172,
      "Ç": 173,
      "È": 174,
      "É": 175,
      "Ê": 176,
      "Ë": 177,
      "Ì": 178,
      "Î": 179,
      "Ï": 180,
      "Ñ": 181,
      "Ó": 182,
      "Ô": 183,
      "Õ": 184,
      "Ö": 185,
      "×": 186,
      "Ø": 187,
      "Ù": 188,
      "Ú": 189,
      "Û": 190,
      "Ü": 191,
      "Ý": 192,
      "Þ": 193,
      "ß": 194,
      "à": 195,
      "á": 196,
      "â": 197,
      "ã": 198,
      "ä": 199,
      "å": 200,
      "æ": 201,
      "ç": 202,
      "è": 203,
      "é": 204,
      "ê": 205,
      "ë": 206,
      "ì": 207,
      "í": 208,
      "î": 209,
      "ï": 210,
      "ð": 211,
      "ñ": 212,
      "ò": 213,
      "ó": 214,
      "ô": 215,
      "ö": 216,
      "÷": 217,
      "ø": 218,
      "ù": 219,
      "ú": 220,
      "û": 221,
      "ü": 222,
      "ý": 223,
      "ė": 224,
      "Œ": 225,
      "œ": 226,
      "ŕ": 227,
      "Ş": 228,
      "Š": 229,
      "Ž": 230,
      "ƒ": 231,
      "ʼ": 232,
      "ˆ": 233,
      "˘": 234,
      "˚": 235,
      "̊": 236,
      "Θ": 237,
      "Τ": 238,
      "Φ": 239,
      "α": 240,
      "β": 241,
      "δ": 242,
      "ε": 243,
      "λ": 244,
      "τ": 245,
      "ϑ": 246,
      "ї": 247,
      "ừ": 248,
      "‐": 249,
      "‑": 250,
      "–": 251,
      "—": 252,
      "―": 253,
      "‘": 254,
      "’": 255,
      "‚": 256,
      "”": 257,
      "†": 258,
      "‡": 259,
      "•": 260,
      "…": 261,
      "‰": 262,
      "‹": 263,
      "›": 264,
      "⁄": 265,
      "⁮": 266,
      "€": 267,
      "™": 268,
      "Ω": 269,
      "⅓": 270,
      "⅛": 271,
      "⅜": 272,
      "→": 273,
      "↓": 274,
      "↔": 275,
      "⇒": 276,
      "−": 277,
      "∗": 278,
      "√": 279,
      "≈": 280,
      "≡": 281,
      "≤": 282,
      "≥": 283,
      "⋅": 284,
      "⌠": 285,
      "⌧": 286,
      "⎯": 287,
      "─": 288,
      "■": 289,
      "□": 290,
      "▪": 291,
      "▲": 292,
      "▼": 293,
      "●": 294,
      "◦": 295,
      "♦": 296,
      "✓": 297,
      "✔": 298,
      "✗": 299,
      "✘": 300,
      "❍": 301,
      "❏": 302,
      "❑": 303,
      "➙": 304,
      "➟": 305,
      "➠": 306,
      "": 307,
      "": 308,
      "": 309,
      "": 310,
      "": 311,
      "": 312,
      "": 313,
      "": 314,
      "ﬀ": 315,
      "ﬁ": 316,
      "ﬂ": 317,
      "ﬃ": 318,
      "�": 319,
      "es": 320,
      "on": 321,
      "en": 322,
      "de": 323,
      "ti": 324,
      "an": 325,
      "re": 326,
      "er": 327,
      "ou": 328,
      "le": 329,
      "ent": 330,
      "la": 331,
      "in": 332,
      "is": 333,
      "tion": 334,
      "qu": 335,
      "et": 336,
      "les": 337,
      "it": 338,
      "des": 339,
      "au": 340,
      "pr": 341,
      "or": 342,
      "ur": 343,
      "ar": 344,
      "un": 345,
      "ch": 346,
      "ment": 347,
      "ra": 348,
      "du": 349,
      "ant": 350,
      "our": 351,
      "te": 352,
      "ation": 353,
      "om": 354,
      "se": 355,
      "ce": 356,
      "li": 357,
      "que": 358,
      "és": 359,
      "ne": 360,
      "con": 361,
      "ci": 362,
      "ta": 363,
      "dé": 364,
      "si": 365,
      "il": 366,
      "par": 367,
      "di": 368,
      "tr": 369,
      "pro": 370,
      "ve": 371,
      "al": 372,
      "pour": 373,
      "ans": 374,
      "ir": 375,
      "ont": 376,
      "00": 377,
      "com": 378,
      "pa": 379,
      "ré": 380,
      "té": 381,
      "me": 382,
      "une": 383,
      "mp": 384,
      "tre": 385,
      "aux": 386,
      "ces": 387,
      "sur": 388,
      "ex": 389,
      "su": 390,
      "ire": 391,
      "ac": 392,
      "ri": 393,
      "ous": 394,
      "ad": 395,
      "tu": 396,
      "che": 397,
      "ers": 398,
      "us": 399,
      "est": 400,
      "né": 401,
      "dans": 402,
      "qui": 403,
      "po": 404,
      "..": 405,
      "ma": 406,
      "pe": 407,
      "fi": 408,
      "cher": 409,
      "lo": 410,
      "ité": 411,
      "ter": 412,
      "fa": 413,
      "vo": 414,
      "ap": 415,
      "cherche": 416,
      "vi": 417,
      "ven": 418,
      "ro": 419,
      "tra": 420,
      "urs": 421,
      "200": 422,
      "mé": 423,
      "ge": 424,
      "res": 425,
      "pl": 426,
      "ins": 427,
      "el": 428,
      "cu": 429,
      "co": 430,
      "ser": 431,
      "mes": 432,
      "ca": 433,
      "ts": 434,
      "por": 435,
      "for": 436,
      "ments": 437,
      "man": 438,
      "tions": 439,
      "ques": 440,
      "ie": 441,
      "ten": 442,
      "ig": 443,
      "iv": 444,
      "min": 445,
      "ab": 446,
      "recherche": 447,
      "so": 448,
      "imp": 449,
      "mo": 450,
      "Can": 451,
      "ires": 452,
      "ren": 453,
      "ons": 454,
      "pas": 455,
      "lis": 456,
      "gra": 457,
      "fin": 458,
      "ale": 459,
      "sant": 460,
      "ction": 461,
      "dis": 462,
      "ada": 463,
      "ée": 464,
      "parti": 465,
      "Canada": 466,
      "cation": 467,
      "pu": 468,
      "do": 469,
      "ver": 470,
      "pé": 471,
      "mb": 472,
      "ance": 473,
      "th": 474,
      "été": 475,
      "ants": 476,
      "sont": 477,
      "santé": 478,
      "ff": 479,
      "tes": 480,
      "....": 481,
      "vous": 482,
      "déc": 483,
      "as": 484,
      "ées": 485,
      "mis": 486,
      "to": 487,
      "sa": 488,
      "entre": 489,
      "Les": 490,
      "Le": 491,
      "ère": 492,
      "lu": 493,
      "ite": 494,
      "per": 495,
      "In": 496,
      "bi": 497,
      "vis": 498,
      "plus": 499,
      "eu": 500,
      "onne": 501,
      "pers": 502,
      "éta": 503,
      "bu": 504,
      "form": 505,
      "lle": 506,
      "tri": 507,
      "pré": 508,
      "ave": 509,
      "cer": 510,
      "titu": 511,
      "rés": 512,
      "ens": 513,
      "mar": 514,
      "ations": 515,
      "ob": 516,
      "no": 517,
      "at": 518,
      "RS": 519,
      "gi": 520,
      "ités": 521,
      "tres": 522,
      "ouve": 523,
      "its": 524,
      "deman": 525,
      "gram": 526,
      "ine": 527,
      "tiv": 528,
      "ph": 529,
      "prés": 530,
      "emp": 531,
      "port": 532,
      "can": 533,
      "av": 534,
      "être": 535,
      "ag": 536,
      "teur": 537,
      "igne": 538,
      "bli": 539,
      "chan": 540,
      "mi": 541,
      "peu": 542,
      "lé": 543,
      "produ": 544,
      "comm": 545,
      "servi": 546,
      "ni": 547,
      "soci": 548,
      "tif": 549,
      "ble": 550,
      "na": 551,
      "ence": 552,
      "ès": 553,
      "don": 554,
      "sion": 555,
      "pli": 556,
      "pris": 557,
      "gé": 558,
      "pri": 559,
      "__": 560,
      "nu": 561,
      "ours": 562,
      "non": 563,
      "end": 564,
      "nes": 565,
      "pos": 566,
      "seigne": 567,
      "IRS": 568,
      "Un": 569,
      "lement": 570,
      "ec": 571,
      "reven": 572,
      "tou": 573,
      "mont": 574,
      "avec": 575,
      "uti": 576,
      "présent": 577,
      "gan": 578,
      "IRSC": 579,
      "ul": 580,
      "aires": 581,
      "sement": 582,
      "ille": 583,
      "ette": 584,
      "La": 585,
      "tis": 586,
      "jet": 587,
      "im": 588,
      "program": 589,
      "ganis": 590,
      "impor": 591,
      "fon": 592,
      "vent": 593,
      "19": 594,
      "va": 595,
      "inter": 596,
      "ration": 597,
      "fé": 598,
      "adi": 599,
      "seignements": 600,
      "voir": 601,
      "cons": 602,
      "id": 603,
      "ON": 604,
      "utilis": 605,
      "rer": 606,
      "organis": 607,
      "uni": 608,
      "ate": 609,
      "aire": 610,
      "tive": 611,
      "ari": 612,
      "anné": 613,
      "ue": 614,
      "ouver": 615,
      "acc": 616,
      "ient": 617,
      "services": 618,
      "pay": 619,
      "ux": 620,
      "ls": 621,
      "bles": 622,
      "10": 623,
      "renseignements": 624,
      "trans": 625,
      "rec": 626,
      "der": 627,
      "autres": 628,
      "dro": 629,
      "ôt": 630,
      "décla": 631,
      "appli": 632,
      "gr": 633,
      "four": 634,
      "personne": 635,
      "TP": 636,
      "cip": 637,
      "ure": 638,
      "comp": 639,
      "able": 640,
      "Ins": 641,
      "ois": 642,
      "publi": 643,
      "oi": 644,
      "age": 645,
      "am": 646,
      "rais": 647,
      "rit": 648,
      "En": 649,
      "revenu": 650,
      "enti": 651,
      "nation": 652,
      "minis": 653,
      "aut": 654,
      "Com": 655,
      "cé": 656,
      "........": 657,
      "sé": 658,
      "teurs": 659,
      "ors": 660,
      "laire": 661,
      "ES": 662,
      "ents": 663,
      "IN": 664,
      "comme": 665,
      "met": 666,
      "elle": 667,
      "vé": 668,
      "votre": 669,
      "ain": 670,
      "tique": 671,
      "nom": 672,
      "canadi": 673,
      "bien": 674,
      "nement": 675,
      "ivers": 676,
      "fourn": 677,
      "ils": 678,
      "géné": 679,
      "montant": 680,
      "eur": 681,
      "lig": 682,
      "suiv": 683,
      "marchan": 684,
      "sub": 685,
      "xe": 686,
      "tant": 687,
      "formation": 688,
      "emplo": 689,
      "ini": 690,
      "12": 691,
      "ture": 692,
      "sou": 693,
      "lles": 694,
      "peut": 695,
      "lon": 696,
      "leur": 697,
      "tiques": 698,
      "os": 699,
      "année": 700,
      "pon": 701,
      "cré": 702,
      "bre": 703,
      "ères": 704,
      "cette": 705,
      "nouve": 706,
      "AN": 707,
      "posi": 708,
      "son": 709,
      "Institu": 710,
      "dises": 711,
      "ER": 712,
      "tal": 713,
      "TI": 714,
      "cri": 715,
      "marchandises": 716,
      "tribu": 717,
      "inté": 718,
      ").": 719,
      "ég": 720,
      "fait": 721,
      "impôt": 722,
      "pi": 723,
      "fication": 724,
      "),": 725,
      "ill": 726,
      "AR": 727,
      "000": 728,
      "ses": 729,
      "termin": 730,
      "péri": 731,
      "DE": 732,
      "ales": 733,
      "Pour": 734,
      "avant": 735,
      "donné": 736,
      "Au": 737,
      "tic": 738,
      "trava": 739,
      "entrepris": 740,
      "canadien": 741,
      "onnes": 742,
      "cul": 743,
      "13": 744,
      "Pro": 745,
      "bil": 746,
      "clu": 747,
      "demande": 748,
      "Re": 749,
      "sy": 750,
      "ente": 751,
      "Si": 752,
      "direc": 753,
      "sus": 754,
      "ures": 755,
      "val": 756,
      "Ch": 757,
      "cal": 758,
      "faire": 759,
      "ord": 760,
      "ing": 761,
      "iss": 762,
      "dou": 763,
      "dép": 764,
      "nous": 765,
      "personnes": 766,
      "cours": 767,
      "Con": 768,
      "tin": 769,
      "11": 770,
      "isi": 771,
      "RE": 772,
      "of": 773,
      "ges": 774,
      "Co": 775,
      "activ": 776,
      "vin": 777,
      "étu": 778,
      "programme": 779,
      "sous": 780,
      "Univers": 781,
      "erci": 782,
      "20": 783,
      "and": 784,
      "ances": 785,
      "tives": 786,
      "ique": 787,
      "CI": 788,
      "vers": 789,
      "près": 790,
      "partie": 791,
      "vention": 792,
      "AS": 793,
      "car": 794,
      "lab": 795,
      "méro": 796,
      "AL": 797,
      "st": 798,
      "rela": 799,
      "dom": 800,
      "poli": 801,
      "TPS": 802,
      "gouver": 803,
      "doit": 804,
      "formu": 805,
      "____": 806,
      "ai": 807,
      "ang": 808,
      "indi": 809,
      "2006": 810,
      "rap": 811,
      "tats": 812,
      "eff": 813,
      "De": 814,
      "tifs": 815,
      "Loi": 816,
      "ssi": 817,
      "Il": 818,
      "déclaration": 819,
      "graph": 820,
      "ez": 821,
      "ard": 822,
      "IS": 823,
      "chercheurs": 824,
      "ème": 825,
      "généra": 826,
      "pre": 827,
      "cas": 828,
      "Dé": 829,
      "cha": 830,
      "finan": 831,
      "Institut": 832,
      "199": 833,
      "gie": 834,
      "oin": 835,
      "missi": 836,
      "ption": 837,
      "provin": 838,
      "Par": 839,
      "ences": 840,
      "ancement": 841,
      "conna": 842,
      "tenir": 843,
      "ines": 844,
      "autre": 845,
      "sul": 846,
      "détermin": 847,
      "vez": 848,
      "alis": 849,
      "ait": 850,
      "cl": 851,
      "valu": 852,
      "enf": 853,
      "prin": 854,
      "deux": 855,
      "mbre": 856,
      "para": 857,
      "TV": 858,
      "ode": 859,
      "employ": 860,
      "15": 861,
      "jus": 862,
      "pla": 863,
      "particip": 864,
      "culi": 865,
      "2007": 866,
      "èg": 867,
      "ême": 868,
      "ct": 869,
      "2005": 870,
      "dev": 871,
      "projet": 872,
      "particuli": 873,
      "mon": 874,
      "résid": 875,
      "douan": 876,
      "fici": 877,
      "ables": 878,
      "On": 879,
      "traté": 880,
      "programmes": 881,
      "artic": 882,
      "blis": 883,
      "TVH": 884,
      "da": 885,
      "EN": 886,
      "société": 887,
      "mati": 888,
      "cad": 889,
      "parten": 890,
      "concer": 891,
      "OR": 892,
      "Qu": 893,
      "tous": 894,
      "ise": 895,
      "30": 896,
      "évalu": 897,
      "gis": 898,
      "tari": 899,
      "remb": 900,
      "régi": 901,
      "ton": 902,
      "tru": 903,
      "gouvernement": 904,
      "entreprise": 905,
      "admissi": 906,
      "tés": 907,
      "données": 908,
      "adminis": 909,
      "tia": 910,
      "lors": 911,
      "oc": 912,
      "vale": 913,
      "lop": 914,
      "labor": 915,
      "lieu": 916,
      "bé": 917,
      "Ré": 918,
      "droits": 919,
      "amen": 920,
      "travail": 921,
      "velop": 922,
      "off": 923,
      "leurs": 924,
      "où": 925,
      "ju": 926,
      "fais": 927,
      "financement": 928,
      "tation": 929,
      "straté": 930,
      "équi": 931,
      "laires": 932,
      "IT": 933,
      "ivent": 934,
      "reç": 935,
      "moins": 936,
      "14": 937,
      "Université": 938,
      "exemp": 939,
      "ainsi": 940,
      "cadre": 941,
      "consul": 942,
      "vir": 943,
      "produits": 944,
      "mais": 945,
      "gu": 946,
      "suivant": 947,
      "ds": 948,
      "sci": 949,
      "contribu": 950,
      "itu": 951,
      "certa": 952,
      "même": 953,
      "activités": 954,
      "tout": 955,
      "prend": 956,
      "pes": 957,
      "elles": 958,
      "AC": 959,
      "établis": 960,
      "pement": 961,
      "ner": 962,
      "inf": 963,
      "Ce": 964,
      "ventions": 965,
      "peuvent": 966,
      "élé": 967,
      "paragraph": 968,
      "cla": 969,
      "nant": 970,
      "dont": 971,
      "numéro": 972,
      "frais": 973,
      "médi": 974,
      "apit": 975,
      "vie": 976,
      "cor": 977,
      "50": 978,
      "résul": 979,
      "mala": 980,
      "remp": 981,
      "demandes": 982,
      "quer": 983,
      "2004": 984,
      "tement": 985,
      "sour": 986,
      "nombre": 987,
      "col": 988,
      "permet": 989,
      "avez": 990,
      "docu": 991,
      "afin": 992,
      "éle": 993,
      "dre": 994,
      "lar": 995,
      "traite": 996,
      "Vous": 997,
      "communi": 998,
      "position": 999,
      "pres": 1000,
      "yl": 1001,
      "amé": 1002,
      "AD": 1003,
      "formulaire": 1004,
      "men": 1005,
      "cent": 1006,
      "grou": 1007,
      "oris": 1008,
      "ef": 1009,
      "maladi": 1010,
      "crit": 1011,
      "administra": 1012,
      "doivent": 1013,
      "diff": 1014,
      "jour": 1015,
      "prof": 1016,
      "alement": 1017,
      "selon": 1018,
      "Ag": 1019,
      "téri": 1020,
      "organismes": 1021,
      "vertu": 1022,
      "compte": 1023,
      "cou": 1024,
      "dit": 1025,
      "18": 1026,
      "commun": 1027,
      "après": 1028,
      "FC": 1029,
      "ris": 1030,
      "rait": 1031,
      "péci": 1032,
      "connaiss": 1033,
      "16": 1034,
      "consi": 1035,
      "examen": 1036,
      "ches": 1037,
      "endant": 1038,
      "mise": 1039,
      "paie": 1040,
      "dévelop": 1041,
      "lation": 1042,
      "comman": 1043,
      "fonction": 1044,
      "voy": 1045,
      "application": 1046,
      "droit": 1047,
      "rembour": 1048,
      "TION": 1049,
      "tenu": 1050,
      "dés": 1051,
      "ligne": 1052,
      "information": 1053,
      "spéci": 1054,
      "effec": 1055,
      "olo": 1056,
      "méth": 1057,
      "béné": 1058,
      "ol": 1059,
      "Dans": 1060,
      "ba": 1061,
      "lè": 1062,
      "paragraphe": 1063,
      "................": 1064,
      "fr": 1065,
      "féren": 1066,
      "stratégi": 1067,
      "cr": 1068,
      "syst": 1069,
      "matière": 1070,
      "OU": 1071,
      "pays": 1072,
      "avoir": 1073,
      "els": 1074,
      "anti": 1075,
      "taxe": 1076,
      "op": 1077,
      "one": 1078,
      "cteur": 1079,
      "assu": 1080,
      "aussi": 1081,
      "gement": 1082,
      "um": 1083,
      "total": 1084,
      "sera": 1085,
      "dédu": 1086,
      "premi": 1087,
      "fins": 1088,
      "entifi": 1089,
      "Ex": 1090,
      "valeur": 1091,
      "RC": 1092,
      "semb": 1093,
      "enfants": 1094,
      "contra": 1095,
      "bes": 1096,
      "prix": 1097,
      "fis": 1098,
      "faç": 1099,
      "rapport": 1100,
      "eurs": 1101,
      "article": 1102,
      "soit": 1103,
      "rê": 1104,
      "fournit": 1105,
      "VI": 1106,
      "contre": 1107,
      "vre": 1108,
      "coû": 1109,
      "sions": 1110,
      "ves": 1111,
      "ision": 1112,
      "fica": 1113,
      "céd": 1114,
      "alité": 1115,
      "représent": 1116,
      "appro": 1117,
      "canadienne": 1118,
      "ach": 1119,
      "fer": 1120,
      "seu": 1121,
      "fois": 1122,
      "temp": 1123,
      "eng": 1124,
      "ouvez": 1125,
      "éth": 1126,
      "40": 1127,
      "cep": 1128,
      "pons": 1129,
      "join": 1130,
      "cau": 1131,
      "taux": 1132,
      "cel": 1133,
      "ASFC": 1134,
      "période": 1135,
      "commerci": 1136,
      "ay": 1137,
      "Program": 1138,
      "pouvez": 1139,
      "initia": 1140,
      "mbres": 1141,
      "possi": 1142,
      "hu": 1143,
      "Dire": 1144,
      "effectu": 1145,
      "internation": 1146,
      "17": 1147,
      "également": 1148,
      "ww": 1149,
      "règ": 1150,
      "plan": 1151,
      "seil": 1152,
      "ali": 1153,
      "rations": 1154,
      "bilité": 1155,
      "améli": 1156,
      "Des": 1157,
      "An": 1158,
      "fédé": 1159,
      "résultats": 1160,
      "établi": 1161,
      "illi": 1162,
      "organisme": 1163,
      "fac": 1164,
      "développement": 1165,
      "considé": 1166,
      "pou": 1167,
      "institu": 1168,
      "cations": 1169,
      "bienfais": 1170,
      "bienfaisance": 1171,
      "enre": 1172,
      "façon": 1173,
      "isse": 1174,
      "financi": 1175,
      "cessus": 1176,
      "25": 1177,
      "31": 1178,
      "lan": 1179,
      "plu": 1180,
      "vue": 1181,
      "TA": 1182,
      "hi": 1183,
      "tien": 1184,
      "sta": 1185,
      "bure": 1186,
      "main": 1187,
      "remboursement": 1188,
      "nexe": 1189,
      "déta": 1190,
      "ger": 1191,
      "biens": 1192,
      "tech": 1193,
      "Dr": 1194,
      "nor": 1195,
      "jec": 1196,
      "répon": 1197,
      "ôle": 1198,
      "raison": 1199,
      "cur": 1200,
      "page": 1201,
      "gar": 1202,
      "aide": 1203,
      "modi": 1204,
      "visi": 1205,
      "tées": 1206,
      "fonds": 1207,
      "ér": 1208,
      "toch": 1209,
      "laboration": 1210,
      "intérê": 1211,
      "porta": 1212,
      "enses": 1213,
      "princip": 1214,
      "90": 1215,
      "dus": 1216,
      "concernant": 1217,
      "appe": 1218,
      "compris": 1219,
      "cour": 1220,
      "connaissances": 1221,
      "LE": 1222,
      "tochton": 1223,
      "nent": 1224,
      "membres": 1225,
      "poin": 1226,
      "chaque": 1227,
      "service": 1228,
      "soins": 1229,
      "inclu": 1230,
      "étr": 1231,
      "orer": 1232,
      "yen": 1233,
      "ête": 1234,
      "calcul": 1235,
      "popu": 1236,
      "iné": 1237,
      "public": 1238,
      "capit": 1239,
      "entes": 1240,
      "iques": 1241,
      "obtenir": 1242,
      "dur": 1243,
      "toutes": 1244,
      "mentaires": 1245,
      "ctions": 1246,
      "date": 1247,
      "politiques": 1248,
      "véri": 1249,
      "quel": 1250,
      "vos": 1251,
      "pac": 1252,
      "appu": 1253,
      "hab": 1254,
      "euille": 1255,
      "22": 1256,
      "douanes": 1257,
      "TM": 1258,
      "ARC": 1259,
      "TC": 1260,
      "je": 1261,
      "impo": 1262,
      "Une": 1263,
      "but": 1264,
      "net": 1265,
      "pendant": 1266,
      "toute": 1267,
      "subventions": 1268,
      "processus": 1269,
      "clini": 1270,
      "ber": 1271,
      "sup": 1272,
      "aine": 1273,
      "condi": 1274,
      "subvention": 1275,
      "annu": 1276,
      "sements": 1277,
      "sources": 1278,
      "provinci": 1279,
      "orig": 1280,
      "produit": 1281,
      "TE": 1282,
      "titre": 1283,
      "prior": 1284,
      "contr": 1285,
      "acqu": 1286,
      "pec": 1287,
      "Al": 1288,
      "Agence": 1289,
      "mor": 1290,
      "défin": 1291,
      "néces": 1292,
      "rée": 1293,
      "NE": 1294,
      "exig": 1295,
      "meu": 1296,
      "gestion": 1297,
      "capital": 1298,
      "lui": 1299,
      "Programme": 1300,
      "sition": 1301,
      "trois": 1302,
      "rédu": 1303,
      "import": 1304,
      "fédéra": 1305,
      "LA": 1306,
      "IC": 1307,
      "respons": 1308,
      "24": 1309,
      "publique": 1310,
      "évaluation": 1311,
      "quent": 1312,
      "let": 1313,
      "sig": 1314,
      "Ontari": 1315,
      "fe": 1316,
      "revenus": 1317,
      "iter": 1318,
      "ret": 1319,
      "ché": 1320,
      "export": 1321,
      "ellement": 1322,
      "profes": 1323,
      "Ontario": 1324,
      "60": 1325,
      "maladies": 1326,
      "questions": 1327,
      "ide": 1328,
      "établissement": 1329,
      "part": 1330,
      "question": 1331,
      "férence": 1332,
      "capac": 1333,
      "uses": 1334,
      "seront": 1335,
      "sans": 1336,
      "tée": 1337,
      "temps": 1338,
      "conti": 1339,
      "exemple": 1340,
      "mping": 1341,
      "veau": 1342,
      "amin": 1343,
      "irs": 1344,
      "scientifi": 1345,
      "plé": 1346,
      "nés": 1347,
      "________": 1348,
      "Su": 1349,
      "montants": 1350,
      "bri": 1351,
      "années": 1352,
      "étrang": 1353,
      "positions": 1354,
      "vant": 1355,
      "eux": 1356,
      "utilisation": 1357,
      "Date": 1358,
      "ues": 1359,
      "nos": 1360,
      "exp": 1361,
      "suite": 1362,
      "important": 1363,
      "dumping": 1364,
      "domaine": 1365,
      "contrat": 1366,
      "site": 1367,
      "xes": 1368,
      "2008": 1369,
      "vente": 1370,
      "2003": 1371,
      "action": 1372,
      "char": 1373,
      "devez": 1374,
      "af": 1375,
      "prest": 1376,
      "système": 1377,
      "puis": 1378,
      "pren": 1379,
      "impos": 1380,
      "opé": 1381,
      "production": 1382,
      "seulement": 1383,
      "mettre": 1384,
      "préc": 1385,
      "traitement": 1386,
      "bureau": 1387,
      "cli": 1388,
      "constitu": 1389,
      "pie": 1390,
      "ori": 1391,
      "ATION": 1392,
      "aliné": 1393,
      "mission": 1394,
      "derni": 1395,
      "partenari": 1396,
      "SI": 1397,
      "prendre": 1398,
      "Ser": 1399,
      "CO": 1400,
      "situ": 1401,
      "associ": 1402,
      "notre": 1403,
      "ity": 1404,
      "tochtones": 1405,
      "23": 1406,
      "dépenses": 1407,
      "cription": 1408,
      "28": 1409,
      "objec": 1410,
      "ages": 1411,
      "raient": 1412,
      "emploi": 1413,
      "réuni": 1414,
      "étudi": 1415,
      "Nous": 1416,
      "cotis": 1417,
      "aines": 1418,
      "jou": 1419,
      "tré": 1420,
      "ler": 1421,
      "llec": 1422,
      "suivants": 1423,
      "21": 1424,
      "exerci": 1425,
      "ck": 1426,
      "pen": 1427,
      "élec": 1428,
      "tère": 1429,
      "demander": 1430,
      "imposition": 1431,
      "politique": 1432,
      "change": 1433,
      "mul": 1434,
      "03": 1435,
      "OF": 1436,
      "pra": 1437,
      "Canadi": 1438,
      "sujet": 1439,
      "ga": 1440,
      "eb": 1441,
      "bénéfici": 1442,
      "ty": 1443,
      "administration": 1444,
      "tent": 1445,
      "explo": 1446,
      "Tou": 1447,
      "PR": 1448,
      "Servi": 1449,
      "déterminer": 1450,
      "candi": 1451,
      "projets": 1452,
      "imm": 1453,
      "particulier": 1454,
      "mesure": 1455,
      "ourses": 1456,
      "duci": 1457,
      "moyen": 1458,
      "quelle": 1459,
      "milli": 1460,
      "admissibles": 1461,
      "base": 1462,
      "27": 1463,
      "Autres": 1464,
      "tein": 1465,
      "moment": 1466,
      "actu": 1467,
      "mu": 1468,
      "prob": 1469,
      "autoris": 1470,
      "tta": 1471,
      "était": 1472,
      "hy": 1473,
      "lations": 1474,
      "décision": 1475,
      "mment": 1476,
      "continu": 1477,
      "enqu": 1478,
      "enregis": 1479,
      "anté": 1480,
      "26": 1481,
      "communau": 1482,
      "95": 1483,
      "UN": 1484,
      "fiduci": 1485,
      "cro": 1486,
      "Mo": 1487,
      "MD": 1488,
      "Cette": 1489,
      "égard": 1490,
      "gue": 1491,
      "jours": 1492,
      "ÉU": 1493,
      "assur": 1494,
      "crivez": 1495,
      "liv": 1496,
      "tection": 1497,
      "rou": 1498,
      "exercice": 1499,
      "nécessa": 1500,
      "savoir": 1501,
      "2002": 1502,
      "tez": 1503,
      "rempli": 1504,
      "tention": 1505,
      "actions": 1506,
      "mer": 1507,
      "lim": 1508,
      "place": 1509,
      "fabri": 1510,
      "formé": 1511,
      "envir": 1512,
      "ayant": 1513,
      "culture": 1514,
      "prom": 1515,
      "II": 1516,
      "Ces": 1517,
      "taire": 1518,
      "alinéa": 1519,
      "toire": 1520,
      "Nouve": 1521,
      "tivement": 1522,
      "loi": 1523,
      "vation": 1524,
      "80": 1525,
      "collec": 1526,
      "annexe": 1527,
      "région": 1528,
      "wa": 1529,
      "For": 1530,
      "nique": 1531,
      "éb": 1532,
      "lorsque": 1533,
      "forme": 1534,
      "dol": 1535,
      "mesures": 1536,
      "section": 1537,
      "priv": 1538,
      "1er": 1539,
      "abil": 1540,
      "ports": 1541,
      "groupe": 1542,
      "nolo": 1543,
      "suivantes": 1544,
      "accès": 1545,
      "document": 1546,
      "crédit": 1547,
      "itation": 1548,
      "lier": 1549,
      "divers": 1550,
      "conjoin": 1551,
      "indiqu": 1552,
      "29": 1553,
      "adres": 1554,
      "01": 1555,
      "aci": 1556,
      "tron": 1557,
      "générale": 1558,
      "poni": 1559,
      "Web": 1560,
      "TR": 1561,
      "télé": 1562,
      "iste": 1563,
      "xi": 1564,
      "conclu": 1565,
      "onto": 1566,
      "som": 1567,
      "documents": 1568,
      "avis": 1569,
      "ressources": 1570,
      "études": 1571,
      "eure": 1572,
      "chi": 1573,
      "oronto": 1574,
      "mois": 1575,
      "dat": 1576,
      "disponi": 1577,
      "princi": 1578,
      "personnel": 1579,
      "États": 1580,
      "dollar": 1581,
      "ru": 1582,
      "sionne": 1583,
      "aient": 1584,
      "vier": 1585,
      "CH": 1586,
      "Lors": 1587,
      "tie": 1588,
      "illeurs": 1589,
      "tég": 1590,
      "employés": 1591,
      "venir": 1592,
      "gc": 1593,
      "point": 1594,
      "aly": 1595,
      "appel": 1596,
      "Toronto": 1597,
      "Direction": 1598,
      "fem": 1599,
      "mande": 1600,
      "vérification": 1601,
      "nouvelles": 1602,
      "04": 1603,
      "dation": 1604,
      "cue": 1605,
      "feuille": 1606,
      "cause": 1607,
      "réalis": 1608,
      "2001": 1609,
      "ébec": 1610,
      "Québec": 1611,
      "examin": 1612,
      "supplé": 1613,
      "chez": 1614,
      "recomman": 1615,
      "national": 1616,
      "certains": 1617,
      "UR": 1618,
      "écu": 1619,
      "sécur": 1620,
      "utiliser": 1621,
      "défini": 1622,
      "territ": 1623,
      "capacité": 1624,
      "unes": 1625,
      "pit": 1626,
      ".,": 1627,
      "technolo": 1628,
      "ox": 1629,
      "conditions": 1630,
      "ttawa": 1631,
      "èmes": 1632,
      "Comité": 1633,
      "Nom": 1634,
      "caux": 1635,
      "nouveaux": 1636,
      "Ottawa": 1637,
      "100": 1638,
      "exportation": 1639,
      "Ar": 1640,
      "Télé": 1641,
      "SE": 1642,
      "dollars": 1643,
      "dire": 1644,
      "ception": 1645,
      "Mar": 1646,
      "cteurs": 1647,
      "pare": 1648,
      "résident": 1649,
      "milieu": 1650,
      "dition": 1651,
      "auc": 1652,
      "née": 1653,
      "cin": 1654,
      "Centre": 1655,
      "jan": 1656,
      "enquête": 1657,
      "exporta": 1658,
      "étés": 1659,
      "gment": 1660,
      "semble": 1661,
      "trices": 1662,
      "niveau": 1663,
      "propos": 1664,
      "nature": 1665,
      "onnement": 1666,
      "Bure": 1667,
      "importa": 1668,
      "univers": 1669,
      "participation": 1670,
      "visant": 1671,
      "nées": 1672,
      "électron": 1673,
      "ante": 1674,
      "éthique": 1675,
      "Ac": 1676,
      "tro": 1677,
      "Unis": 1678,
      "Services": 1679,
      "ologie": 1680,
      "fourniture": 1681,
      "Col": 1682,
      "femmes": 1683,
      "conseil": 1684,
      "propri": 1685,
      "Éta": 1686,
      "conom": 1687,
      "déclarations": 1688,
      "reçu": 1689,
      "tex": 1690,
      "copie": 1691,
      "mars": 1692,
      "janvier": 1693,
      "équipe": 1694,
      "offre": 1695,
      "recher": 1696,
      "protection": 1697,
      "initiative": 1698,
      "XX": 1699,
      "sieurs": 1700,
      "oire": 1701,
      "coût": 1702,
      "fu": 1703,
      "No": 1704,
      "paiement": 1705,
      "99": 1706,
      "Mon": 1707,
      "améliorer": 1708,
      "cir": 1709,
      "dement": 1710,
      "entreprises": 1711,
      "applique": 1712,
      "participants": 1713,
      ");": 1714,
      "domaines": 1715,
      "rez": 1716,
      "comité": 1717,
      "Nu": 1718,
      "soutien": 1719,
      "nouveau": 1720,
      "fournir": 1721,
      "partenaires": 1722,
      "ENT": 1723,
      "liers": 1724,
      "laquelle": 1725,
      "itaires": 1726,
      "accep": 1727,
      "dent": 1728,
      "06": 1729,
      "pati": 1730,
      "bourses": 1731,
      "priorités": 1732,
      "économ": 1733,
      "professionne": 1734,
      "présente": 1735,
      "Bureau": 1736,
      "objet": 1737,
      "rier": 1738,
      "inves": 1739,
      "disposition": 1740,
      "ateurs": 1741,
      "payer": 1742,
      "vée": 1743,
      "IM": 1744,
      "étude": 1745,
      "tenant": 1746,
      "ats": 1747,
      "désig": 1748,
      "effet": 1749,
      "omb": 1750,
      "PA": 1751,
      "principa": 1752,
      "cy": 1753,
      "cale": 1754,
      "sécurité": 1755,
      "rent": 1756,
      "recherches": 1757,
      "bilis": 1758,
      "ran": 1759,
      "Reven": 1760,
      "précis": 1761,
      "gran": 1762,
      "immeu": 1763,
      "assurer": 1764,
      "70": 1765,
      "»,": 1766,
      "fiducie": 1767,
      "sep": 1768,
      "era": 1769,
      "ître": 1770,
      "table": 1771,
      "essa": 1772,
      "mod": 1773,
      "admissible": 1774,
      "général": 1775,
      "As": 1776,
      "Mc": 1777,
      "porte": 1778,
      "SA": 1779,
      "stratégique": 1780,
      "fédéral": 1781,
      "inscrit": 1782,
      "juin": 1783,
      "University": 1784,
      "www": 1785,
      "cet": 1786,
      "trait": 1787,
      "oblig": 1788,
      "province": 1789,
      "CC": 1790,
      "Canadiens": 1791,
      "cellu": 1792,
      "rece": 1793,
      "ril": 1794,
      "cus": 1795,
      "stru": 1796,
      "sociétés": 1797,
      "modification": 1798,
      "huma": 1799,
      "cement": 1800,
      "plusieurs": 1801,
      "Numéro": 1802,
      "pertin": 1803,
      "catég": 1804,
      "multi": 1805,
      "PE": 1806,
      "DU": 1807,
      "produire": 1808,
      "Ren": 1809,
      "formément": 1810,
      "ministre": 1811,
      "accise": 1812,
      "cine": 1813,
      "sport": 1814,
      "ète": 1815,
      "analy": 1816,
      "dée": 1817,
      "613": 1818,
      "augment": 1819,
      "tifica": 1820,
      "présid": 1821,
      "vision": 1822,
      "èces": 1823,
      "concours": 1824,
      "accor": 1825,
      "illes": 1826,
      "êtes": 1827,
      "hicu": 1828,
      "05": 1829,
      "fron": 1830,
      "sse": 1831,
      "contrôle": 1832,
      "proven": 1833,
      "besoin": 1834,
      "intérêts": 1835,
      "groupes": 1836,
      "mention": 1837,
      "engage": 1838,
      "inscr": 1839,
      "jusqu": 1840,
      "cembre": 1841,
      "consé": 1842,
      "oins": 1843,
      "nouvelle": 1844,
      "TH": 1845,
      "Cour": 1846,
      "méde": 1847,
      "cancer": 1848,
      "02": 1849,
      "ST": 1850,
      "régime": 1851,
      "qua": 1852,
      "ront": 1853,
      "certaines": 1854,
      "liste": 1855,
      "phone": 1856,
      "employé": 1857,
      "indus": 1858,
      "dispositions": 1859,
      "attein": 1860,
      "esti": 1861,
      "rées": 1862,
      "ies": 1863,
      "oix": 1864,
      "adresse": 1865,
      "collaboration": 1866,
      "AU": 1867,
      "établir": 1868,
      "Ma": 1869,
      "lorsqu": 1870,
      "avantage": 1871,
      "objectifs": 1872,
      "47": 1873,
      "85": 1874,
      "».": 1875,
      "thé": 1876,
      "activité": 1877,
      "cole": 1878,
      "mani": 1879,
      "secteur": 1880,
      "scientifique": 1881,
      "ET": 1882,
      "décembre": 1883,
      "étranger": 1884,
      "ordin": 1885,
      "initiatives": 1886,
      "AP": 1887,
      "itaire": 1888,
      "neur": 1889,
      "transport": 1890,
      "obser": 1891,
      "ly": 1892,
      "différ": 1893,
      "expli": 1894,
      "assurance": 1895,
      "oci": 1896,
      "naire": 1897,
      "canadiens": 1898,
      "cipl": 1899,
      "achet": 1900,
      "discipl": 1901,
      "45": 1902,
      "réunion": 1903,
      "ensemble": 1904,
      "ADRC": 1905,
      "phy": 1906,
      "trie": 1907,
      "dessus": 1908,
      "peti": 1909,
      "fonctionnement": 1910,
      "Ap": 1911,
      "attribu": 1912,
      "prév": 1913,
      "33": 1914,
      "véhicu": 1915,
      "ron": 1916,
      "coûts": 1917,
      "CAN": 1918,
      "mentaire": 1919,
      "origin": 1920,
      "mie": 1921,
      "ceux": 1922,
      "rég": 1923,
      "sor": 1924,
      "première": 1925,
      "exécu": 1926,
      "he": 1927,
      "avons": 1928,
      "isions": 1929,
      "iller": 1930,
      "personnels": 1931,
      "avril": 1932,
      "candida": 1933,
      "Res": 1934,
      "besoins": 1935,
      "PS": 1936,
      "compé": 1937,
      "the": 1938,
      "He": 1939,
      "fier": 1940,
      "Conseil": 1941,
      "transfer": 1942,
      "andu": 1943,
      "GE": 1944,
      "tel": 1945,
      "pourrait": 1946,
      "ites": 1947,
      "contribuable": 1948,
      "yer": 1949,
      "agri": 1950,
      "perte": 1951,
      "partici": 1952,
      "eures": 1953,
      "millions": 1954,
      "oeu": 1955,
      "importation": 1956,
      "sez": 1957,
      "gation": 1958,
      "ath": 1959,
      "DES": 1960,
      "Santé": 1961,
      "illet": 1962,
      "accord": 1963,
      "ht": 1964,
      "faut": 1965,
      "tériel": 1966,
      "ouv": 1967,
      ")-": 1968,
      "fam": 1969,
      "emb": 1970,
      "vid": 1971,
      "aff": 1972,
      "jeunes": 1973,
      "Bi": 1974,
      "conjoint": 1975,
      "hom": 1976,
      "pairs": 1977,
      "To": 1978,
      "directrices": 1979,
      "dossi": 1980,
      "andum": 1981,
      "morandum": 1982,
      "ène": 1983,
      "Mont": 1984,
      "qualité": 1985,
      "lignes": 1986,
      "tissement": 1987,
      "intérêt": 1988,
      "cell": 1989,
      "arch": 1990,
      "suc": 1991,
      "tamment": 1992,
      "TO": 1993,
      "Div": 1994,
      "odes": 1995,
      "lic": 1996,
      "500": 1997,
      "physi": 1998,
      "prestations": 1999,
      "illis": 2000,
      "Règ": 2001,
      "lletin": 2002,
      "dg": 2003,
      "nal": 2004,
      "autom": 2005,
      "CR": 2006,
      "alth": 2007,
      "GM": 2008,
      "Alber": 2009,
      "Man": 2010,
      "envoy": 2011,
      "présenter": 2012,
      "amélior": 2013,
      "$)": 2014,
      "porter": 2015,
      "erre": 2016,
      "servir": 2017,
      "liés": 2018,
      "bun": 2019,
      "respon": 2020,
      "TÉU": 2021,
      "risque": 2022,
      "ais": 2023,
      "articles": 2024,
      "premier": 2025,
      "be": 2026,
      "--": 2027,
      "remplir": 2028,
      "soient": 2029,
      "cture": 2030,
      "Toute": 2031,
      "répu": 2032,
      "directeur": 2033,
      "seau": 2034,
      "sau": 2035,
      "35": 2036,
      "unique": 2037,
      "long": 2038,
      "TPMD": 2039,
      "organisation": 2040,
      "fav": 2041,
      "lais": 2042,
      "particuliers": 2043,
      "offer": 2044,
      "conformément": 2045,
      "gueur": 2046,
      "norma": 2047,
      "clinique": 2048,
      "payé": 2049,
      "................................": 2050,
      "ritan": 2051,
      "maladie": 2052,
      "nelle": 2053,
      "nationale": 2054,
      "mentale": 2055,
      "engag": 2056,
      "appare": 2057,
      "location": 2058,
      "faires": 2059,
      "appr": 2060,
      "Imp": 2061,
      "MUN": 2062,
      "énon": 2063,
      "Alberta": 2064,
      "douane": 2065,
      "exigences": 2066,
      "tembre": 2067,
      "notamment": 2068,
      "PC": 2069,
      "07": 2070,
      "populations": 2071,
      "paiements": 2072,
      "bilités": 2073,
      "rôle": 2074,
      "pression": 2075,
      "èrement": 2076,
      "VE": 2077,
      "2000": 2078,
      "offici": 2079,
      "cinq": 2080,
      "responsabil": 2081,
      "faci": 2082,
      "PD": 2083,
      "choix": 2084,
      "effica": 2085,
      "KGM": 2086,
      "tarifaire": 2087,
      "veu": 2088,
      "sciences": 2089,
      "étaient": 2090,
      "rant": 2091,
      "autochtones": 2092,
      "ritannique": 2093,
      "CE": 2094,
      "relatives": 2095,
      "méthode": 2096,
      "élaboration": 2097,
      "éléments": 2098,
      "instituts": 2099,
      "correspon": 2100,
      "ici": 2101,
      "arri": 2102,
      "taires": 2103,
      "Pr": 2104,
      "expé": 2105,
      "orie": 2106,
      "fournisse": 2107,
      "annon": 2108,
      "avait": 2109,
      "éri": 2110,
      "transfert": 2111,
      "75": 2112,
      "septembre": 2113,
      "principal": 2114,
      "immun": 2115,
      "cotisations": 2116,
      "raux": 2117,
      "collectiv": 2118,
      "POR": 2119,
      "trice": 2120,
      "environnement": 2121,
      "aider": 2122,
      "clas": 2123,
      "population": 2124,
      "pag": 2125,
      "renfor": 2126,
      "Colomb": 2127,
      "Colombie": 2128,
      "bac": 2129,
      "sage": 2130,
      "liées": 2131,
      "respec": 2132,
      "voyage": 2133,
      "48": 2134,
      "marché": 2135,
      "coura": 2136,
      "ième": 2137,
      "parties": 2138,
      "expéri": 2139,
      "occu": 2140,
      "Cal": 2141,
      "comprend": 2142,
      "quatre": 2143,
      "raî": 2144,
      "ajou": 2145,
      "Inter": 2146,
      "acier": 2147,
      "08": 2148,
      "seignement": 2149,
      "Britannique": 2150,
      "forma": 2151,
      "Montré": 2152,
      "conf": 2153,
      "séqu": 2154,
      "Montréal": 2155,
      "agit": 2156,
      "provenant": 2157,
      "preu": 2158,
      "ban": 2159,
      "trou": 2160,
      "dits": 2161,
      "INC": 2162,
      ".-": 2163,
      "36": 2164,
      "réser": 2165,
      "intention": 2166,
      "LI": 2167,
      "assujet": 2168,
      "électronique": 2169,
      "plani": 2170,
      "ologi": 2171,
      "Fon": 2172,
      "Ad": 2173,
      "46": 2174,
      "muni": 2175,
      "provis": 2176,
      "CIP": 2177,
      "celui": 2178,
      "Min": 2179,
      "référence": 2180,
      "diffé": 2181,
      "tenues": 2182,
      "mai": 2183,
      "devrait": 2184,
      "ordon": 2185,
      "ctor": 2186,
      "partenariats": 2187,
      "stratégiques": 2188,
      "MB": 2189,
      "09": 2190,
      "MENT": 2191,
      "international": 2192,
      "origine": 2193,
      "terme": 2194,
      "Ini": 2195,
      "nements": 2196,
      "supéri": 2197,
      "technologie": 2198,
      "oeuvre": 2199,
      "vas": 2200,
      "appropri": 2201,
      "SM": 2202,
      "dépend": 2203,
      "Total": 2204,
      "Formu": 2205,
      "confi": 2206,
      "chercheur": 2207,
      "QU": 2208,
      "nécessaire": 2209,
      "juillet": 2210,
      "enfant": 2211,
      "antes": 2212,
      "Jo": 2213,
      "cés": 2214,
      "devant": 2215,
      "gent": 2216,
      "mondi": 2217,
      "partenariat": 2218,
      "lée": 2219,
      "infec": 2220,
      "Initia": 2221,
      "utilisés": 2222,
      "modè": 2223,
      "rir": 2224,
      "Mé": 2225,
      "raisonn": 2226,
      "chois": 2227,
      "publications": 2228,
      "édu": 2229,
      "vaux": 2230,
      "président": 2231,
      "ist": 2232,
      "38": 2233,
      "49": 2234,
      "Inscrivez": 2235,
      "mation": 2236,
      "budg": 2237,
      "règle": 2238,
      "permis": 2239,
      "systèmes": 2240,
      "conse": 2241,
      "directement": 2242,
      "relativement": 2243,
      "Instituts": 2244,
      "VIH": 2245,
      "bour": 2246,
      "inno": 2247,
      "Lorsque": 2248,
      "fabrication": 2249,
      "vieillis": 2250,
      "Po": 2251,
      "mandat": 2252,
      "importateur": 2253,
      "T4": 2254,
      "tobre": 2255,
      "excéd": 2256,
      "AB": 2257,
      "instal": 2258,
      "vigueur": 2259,
      "37": 2260,
      "ING": 2261,
      "médica": 2262,
      "carac": 2263,
      "possible": 2264,
      "bo": 2265,
      "déduction": 2266,
      "ase": 2267,
      "pital": 2268,
      "39": 2269,
      "communication": 2270,
      "quels": 2271,
      "catégorie": 2272,
      "commerciales": 2273,
      "Toutefois": 2274,
      "LO": 2275,
      "DI": 2276,
      "pension": 2277,
      "US": 2278,
      "compren": 2279,
      "consultez": 2280,
      "Se": 2281,
      "résidents": 2282,
      "subséqu": 2283,
      "règles": 2284,
      "candidats": 2285,
      "outi": 2286,
      "font": 2287,
      "fournis": 2288,
      "état": 2289,
      "REER": 2290,
      "bénéficiaire": 2291,
      "tax": 2292,
      "type": 2293,
      "duction": 2294,
      "utilisé": 2295,
      "texte": 2296,
      "Revenu": 2297,
      "posé": 2298,
      "Tr": 2299,
      "bunal": 2300,
      "cellules": 2301,
      "facteurs": 2302,
      "déj": 2303,
      "exclu": 2304,
      "extéri": 2305,
      "encoura": 2306,
      "grand": 2307,
      "communiquer": 2308,
      "création": 2309,
      "source": 2310,
      "tenus": 2311,
      "effor": 2312,
      "immeuble": 2313,
      "déjà": 2314,
      "constru": 2315,
      "qué": 2316,
      "grès": 2317,
      "Health": 2318,
      "étant": 2319,
      "voit": 2320,
      "vieillissement": 2321,
      "auprès": 2322,
      "quelles": 2323,
      "-(": 2324,
      "att": 2325,
      "TACI": 2326,
      "intéri": 2327,
      "volu": 2328,
      "conser": 2329,
      "cées": 2330,
      "sen": 2331,
      "Ou": 2332,
      "importations": 2333,
      "pièces": 2334,
      "durant": 2335,
      "88": 2336,
      "réponse": 2337,
      "senti": 2338,
      "précéd": 2339,
      "rempla": 2340,
      "perman": 2341,
      "anci": 2342,
      "Autochtones": 2343,
      "Me": 2344,
      "industrie": 2345,
      "Vo": 2346,
      "oné": 2347,
      "ût": 2348,
      "maire": 2349,
      "intéres": 2350,
      "octobre": 2351,
      "applica": 2352,
      "issent": 2353,
      "CIPAL": 2354,
      "habitu": 2355,
      "vient": 2356,
      "promo": 2357,
      "AM": 2358,
      "détaill": 2359,
      "denti": 2360,
      "vise": 2361,
      "avantages": 2362,
      "travaux": 2363,
      "excell": 2364,
      "66": 2365,
      "déci": 2366,
      "Règlement": 2367,
      "ense": 2368,
      "celle": 2369,
      "hau": 2370,
      "oires": 2371,
      "Gu": 2372,
      "principaux": 2373,
      "structure": 2374,
      "RO": 2375,
      "équipes": 2376,
      "vembre": 2377,
      "employeur": 2378,
      "critères": 2379,
      "cueil": 2380,
      "venants": 2381,
      "matières": 2382,
      "vrier": 2383,
      "dations": 2384,
      "Mi": 2385,
      "oxy": 2386,
      "syn": 2387,
      "lable": 2388,
      "Décla": 2389,
      "mécan": 2390,
      "MUNI": 2391,
      "requ": 2392,
      "réduire": 2393,
      "interpré": 2394,
      "achat": 2395,
      "neu": 2396,
      "transfé": 2397,
      "commandes": 2398,
      "rendement": 2399,
      "entraî": 2400,
      "rapi": 2401,
      "Rés": 2402,
      "prestation": 2403,
      "Cer": 2404,
      "fourni": 2405,
      "apitre": 2406,
      "exer": 2407,
      "quez": 2408,
      "TPAC": 2409,
      "appliquer": 2410,
      "MUNICIPAL": 2411,
      "consulta": 2412,
      "possibilités": 2413,
      "ii": 2414,
      "sco": 2415,
      "éche": 2416,
      "fig": 2417,
      "Minis": 2418,
      "surve": 2419,
      "lit": 2420,
      "ailleurs": 2421,
      "valeurs": 2422,
      "financière": 2423,
      "partir": 2424,
      "ministère": 2425,
      "Montant": 2426,
      "lor": 2427,
      "Tari": 2428,
      "dessous": 2429,
      "analyse": 2430,
      "umé": 2431,
      "identi": 2432,
      "lang": 2433,
      "fournitures": 2434,
      "prise": 2435,
      "ôles": 2436,
      "ask": 2437,
      "lèmes": 2438,
      "bulletin": 2439,
      "sauf": 2440,
      "tenue": 2441,
      "dées": 2442,
      "chac": 2443,
      "prévention": 2444,
      "cotisation": 2445,
      "suff": 2446,
      "comptes": 2447,
      "occa": 2448,
      "Indi": 2449,
      "naires": 2450,
      "IL": 2451,
      "cès": 2452,
      "ima": 2453,
      "32": 2454,
      "illez": 2455,
      "correspond": 2456,
      "Tri": 2457,
      "subséquente": 2458,
      "charge": 2459,
      "appui": 2460,
      "Tarif": 2461,
      "compl": 2462,
      "scientifiques": 2463,
      "engagement": 2464,
      "grande": 2465,
      "client": 2466,
      "connu": 2467,
      "février": 2468,
      "Elle": 2469,
      "ateur": 2470,
      "infra": 2471,
      "lant": 2472,
      "har": 2473,
      "distin": 2474,
      "termes": 2475,
      "doctor": 2476,
      "INT": 2477,
      "novembre": 2478,
      "très": 2479,
      "Associ": 2480,
      "55": 2481,
      "changement": 2482,
      "isme": 2483,
      "version": 2484,
      "proté": 2485,
      "IG": 2486,
      "problèmes": 2487,
      "cond": 2488,
      "disciplin": 2489,
      "riel": 2490,
      "agent": 2491,
      "échan": 2492,
      "exoné": 2493,
      "juste": 2494,
      "sein": 2495,
      "________________": 2496,
      "imposable": 2497,
      "han": 2498,
      "favoris": 2499,
      "Je": 2500,
      "direction": 2501,
      "mieux": 2502,
      "taxes": 2503,
      "clients": 2504,
      "Pre": 2505,
      "crédits": 2506,
      "uri": 2507,
      "Dre": 2508,
      "tte": 2509,
      "résidence": 2510,
      "situation": 2511,
      "Br": 2512,
      "patients": 2513,
      "OP": 2514,
      "coles": 2515,
      "marque": 2516,
      "laborer": 2517,
      "détail": 2518,
      "cid": 2519,
      "celles": 2520,
      "Soci": 2521,
      "nie": 2522,
      "devraient": 2523,
      "chau": 2524,
      "depuis": 2525,
      "pratiques": 2526,
      "ids": 2527,
      "tage": 2528,
      "enz": 2529,
      "Comment": 2530,
      "portant": 2531,
      "voie": 2532,
      "étudiants": 2533,
      "Initiative": 2534,
      "LES": 2535,
      "appliquent": 2536,
      "planification": 2537,
      "Bu": 2538,
      "calculer": 2539,
      "ax": 2540,
      "établissements": 2541,
      "Inc": 2542,
      "veuillez": 2543,
      "cra": 2544,
      "lisez": 2545,
      "41": 2546,
      "adop": 2547,
      "ple": 2548,
      "Commande": 2549,
      "génétique": 2550,
      "core": 2551,
      "carb": 2552,
      "clus": 2553,
      "amor": 2554,
      "conséquent": 2555,
      "wan": 2556,
      "budget": 2557,
      "tier": 2558,
      "territori": 2559,
      "bas": 2560,
      "Chine": 2561,
      "intervenants": 2562,
      "différen": 2563,
      "dépas": 2564,
      "EL": 2565,
      "supplémentaires": 2566,
      "cti": 2567,
      "itob": 2568,
      "légis": 2569,
      "décisions": 2570,
      "acces": 2571,
      "imum": 2572,
      "Vale": 2573,
      "hô": 2574,
      "élevé": 2575,
      "Ligne": 2576,
      "lien": 2577,
      "ado": 2578,
      "Recherche": 2579,
      "poste": 2580,
      "yens": 2581,
      "suivante": 2582,
      "pan": 2583,
      "84": 2584,
      "âce": 2585,
      "87": 2586,
      "aucun": 2587,
      "amp": 2588,
      "comb": 2589,
      "prê": 2590,
      "encore": 2591,
      "exper": 2592,
      "desti": 2593,
      "mises": 2594,
      "exportateurs": 2595,
      "rapports": 2596,
      "Sask": 2597,
      "comprendre": 2598,
      "donner": 2599,
      "médecine": 2600,
      "bou": 2601,
      "fic": 2602,
      "cliniques": 2603,
      "az": 2604,
      "déduire": 2605,
      "ventes": 2606,
      "cap": 2607,
      "faits": 2608,
      "portées": 2609,
      "étaire": 2610,
      "crip": 2611,
      "opération": 2612,
      "rite": 2613,
      "pouvoir": 2614,
      "définition": 2615,
      "gées": 2616,
      "Demande": 2617,
      "PAR": 2618,
      "itoba": 2619,
      "serait": 2620,
      "manière": 2621,
      "pose": 2622,
      "suffis": 2623,
      "vul": 2624,
      "nécessaires": 2625,
      "extérieur": 2626,
      "Sub": 2627,
      "internationale": 2628,
      "cyc": 2629,
      "règlement": 2630,
      "pourraient": 2631,
      "lois": 2632,
      "lés": 2633,
      "mobilis": 2634,
      "disponibles": 2635,
      "Rap": 2636,
      "affi": 2637,
      "copieur": 2638,
      "sensi": 2639,
      "tend": 2640,
      "Renseignements": 2641,
      "Manitoba": 2642,
      "PDF": 2643,
      "interprétation": 2644,
      "nexes": 2645,
      "IV": 2646,
      "34": 2647,
      "modifi": 2648,
      "DR": 2649,
      "regis": 2650,
      "simp": 2651,
      "exis": 2652,
      "phé": 2653,
      "éducation": 2654,
      "nels": 2655,
      "earch": 2656,
      "vés": 2657,
      "Sel": 2658,
      "État": 2659,
      "donc": 2660,
      "essenti": 2661,
      "SR": 2662,
      "impri": 2663,
      "Cré": 2664,
      "inclure": 2665,
      "preuve": 2666,
      "provinces": 2667,
      "sol": 2668,
      "secteurs": 2669,
      "mémorandum": 2670,
      "organisations": 2671,
      "agents": 2672,
      "discus": 2673,
      "cée": 2674,
      "formulaires": 2675,
      "comment": 2676,
      "procé": 2677,
      "ible": 2678,
      "mage": 2679,
      "fronta": 2680,
      "opérations": 2681,
      "habitation": 2682,
      "fiscaux": 2683,
      "sociale": 2684,
      "reço": 2685,
      "guide": 2686,
      "code": 2687,
      "poids": 2688,
      "Or": 2689,
      "tels": 2690,
      "compag": 2691,
      "hé": 2692,
      "agré": 2693,
      "Valeur": 2694,
      "Sy": 2695,
      "EX": 2696,
      "gés": 2697,
      "quant": 2698,
      "illance": 2699,
      "atoire": 2700,
      "entrée": 2701,
      "CA": 2702,
      "intitu": 2703,
      "suit": 2704,
      "visée": 2705,
      "normes": 2706,
      "modifications": 2707,
      "permettre": 2708,
      "consom": 2709,
      "instru": 2710,
      "1999": 2711,
      "observation": 2712,
      "maj": 2713,
      "Car": 2714,
      "orient": 2715,
      "Selon": 2716,
      "provinciaux": 2717,
      "enregistre": 2718,
      "limin": 2719,
      "GR": 2720,
      "aucune": 2721,
      "més": 2722,
      "mun": 2723,
      "satis": 2724,
      "acquis": 2725,
      "800": 2726,
      "prépar": 2727,
      "crimin": 2728,
      "couver": 2729,
      "dons": 2730,
      "Ret": 2731,
      "exportateur": 2732,
      "bro": 2733,
      "condition": 2734,
      "reçus": 2735,
      "consultatif": 2736,
      "trouve": 2737,
      "appuyer": 2738,
      "tur": 2739,
      "COR": 2740,
      "provisoire": 2741,
      "former": 2742,
      "feuillet": 2743,
      "Ministère": 2744,
      "culaire": 2745,
      "Trans": 2746,
      "LM": 2747,
      "institution": 2748,
      "GI": 2749,
      "Ro": 2750,
      "ke": 2751,
      "publication": 2752,
      "membre": 2753,
      "sent": 2754,
      "changements": 2755,
      "recommandations": 2756,
      "centre": 2757,
      "influ": 2758,
      "Cependant": 2759,
      "Nouvelle": 2760,
      "Sta": 2761,
      "inscrivez": 2762,
      "centres": 2763,
      "77": 2764,
      "cédures": 2765,
      "financiers": 2766,
      "entente": 2767,
      "provincial": 2768,
      "Pa": 2769,
      "alités": 2770,
      "importées": 2771,
      "VIL": 2772,
      "dossier": 2773,
      "Téléphone": 2774,
      "adap": 2775,
      "disponible": 2776,
      "participer": 2777,
      "tôt": 2778,
      "épou": 2779,
      "tations": 2780,
      "RÉ": 2781,
      "physique": 2782,
      "matériel": 2783,
      "meille": 2784,
      "consulter": 2785,
      "garanti": 2786,
      "44": 2787,
      "tères": 2788,
      "indivi": 2789,
      "fran": 2790,
      "rie": 2791,
      "Ste": 2792,
      "CS": 2793,
      "professionnels": 2794,
      "exécution": 2795,
      "dif": 2796,
      "évent": 2797,
      "Déclaration": 2798,
      "pratique": 2799,
      "tière": 2800,
      "sida": 2801,
      "CTI": 2802,
      "lob": 2803,
      "ciences": 2804,
      "logement": 2805,
      "Directeur": 2806,
      "TCR": 2807,
      "bio": 2808,
      "Grou": 2809,
      "importance": 2810,
      "Fin": 2811,
      "transpor": 2812,
      "usage": 2813,
      "appareils": 2814,
      "promotion": 2815,
      "justi": 2816,
      "gen": 2817,
      "COM": 2818,
      "çu": 2819,
      "maintenant": 2820,
      "atche": 2821,
      "échange": 2822,
      "Division": 2823,
      "spécifi": 2824,
      "atchewan": 2825,
      "diri": 2826,
      "ral": 2827,
      "Saskatchewan": 2828,
      "autorisation": 2829,
      "garde": 2830,
      "max": 2831,
      "ry": 2832,
      "humaines": 2833,
      "Cor": 2834,
      "alors": 2835,
      "posant": 2836,
      "Annexe": 2837,
      "méthodes": 2838,
      "Research": 2839,
      "1998": 2840,
      "confidenti": 2841,
      "Premi": 2842,
      "Frais": 2843,
      "til": 2844,
      "affaires": 2845,
      "propriété": 2846,
      "essais": 2847,
      "Avis": 2848,
      "époux": 2849,
      "inte": 2850,
      "dra": 2851,
      "recevoir": 2852,
      "vou": 2853,
      "hydro": 2854,
      "limite": 2855,
      "diab": 2856,
      "réseau": 2857,
      "indiqué": 2858,
      "Pu": 2859,
      "bourse": 2860,
      "Tribunal": 2861,
      "ID": 2862,
      "nel": 2863,
      "saire": 2864,
      "vali": 2865,
      "Di": 2866,
      "Régi": 2867,
      "cales": 2868,
      "due": 2869,
      "concerne": 2870,
      "lettre": 2871,
      "ern": 2872,
      "fiscale": 2873,
      "NEX": 2874,
      "TPG": 2875,
      "Haut": 2876,
      "évaluer": 2877,
      "plupart": 2878,
      "compéten": 2879,
      "ples": 2880,
      "sui": 2881,
      "INSM": 2882,
      "43": 2883,
      "inde": 2884,
      "durée": 2885,
      "efforts": 2886,
      "début": 2887,
      "CANAD": 2888,
      "rembours": 2889,
      "logi": 2890,
      "chef": 2891,
      "relatif": 2892,
      "lég": 2893,
      "comple": 2894,
      "fédérale": 2895,
      "rue": 2896,
      "identifi": 2897,
      "genre": 2898,
      "niques": 2899,
      "INSMT": 2900,
      "$.": 2901,
      "McG": 2902,
      "nette": 2903,
      "visé": 2904,
      "sés": 2905,
      "Pi": 2906,
      "athlè": 2907,
      "excellence": 2908,
      "surveillance": 2909,
      "Commentaires": 2910,
      "dernier": 2911,
      "bois": 2912,
      "pertes": 2913,
      "œu": 2914,
      "ésité": 2915,
      "risques": 2916,
      "stratégies": 2917,
      "inv": 2918,
      "mondiale": 2919,
      "effets": 2920,
      "IR": 2921,
      "distribu": 2922,
      "hommes": 2923,
      "comités": 2924,
      "Dis": 2925,
      ".)": 2926,
      "ha": 2927,
      "mach": 2928,
      "stratégie": 2929,
      "gains": 2930,
      "Code": 2931,
      "équ": 2932,
      "facil": 2933,
      "payée": 2934,
      "cit": 2935,
      "généralement": 2936,
      "gag": 2937,
      "réglement": 2938,
      "éro": 2939,
      "indiquer": 2940,
      "ettes": 2941,
      "Conse": 2942,
      "case": 2943,
      "spécialis": 2944,
      "vende": 2945,
      "AT": 2946,
      "privée": 2947,
      "89": 2948,
      "accro": 2949,
      "compta": 2950,
      "répondre": 2951,
      "fiscal": 2952,
      "CON": 2953,
      "Pri": 2954,
      "tiers": 2955,
      "procédures": 2956,
      "65": 2957,
      "enne": 2958,
      "décou": 2959,
      "affec": 2960,
      "tour": 2961,
      "sommes": 2962,
      "féri": 2963,
      "intég": 2964,
      "outils": 2965,
      "OM": 2966,
      "rain": 2967,
      "LMSI": 2968,
      "nance": 2969,
      "immobilis": 2970,
      "Exemp": 2971,
      "existe": 2972,
      "immig": 2973,
      "approche": 2974,
      "tale": 2975,
      "connaître": 2976,
      "créer": 2977,
      "ilo": 2978,
      "rique": 2979,
      "investissement": 2980,
      "Ph": 2981,
      "canadiennes": 2982,
      "candidat": 2983,
      "six": 2984,
      "commen": 2985,
      "circons": 2986,
      "ordre": 2987,
      "xy": 2988,
      "calcu": 2989,
      "ciens": 2990,
      "somme": 2991,
      "TMÉU": 2992,
      "inscription": 2993,
      "Comme": 2994,
      "libre": 2995,
      "TD": 2996,
      "objectif": 2997,
      "handi": 2998,
      "Ob": 2999,
      "représentant": 3000,
      "67": 3001,
      "obésité": 3002,
      "tieuses": 3003,
      "active": 3004,
      "coup": 3005,
      "èce": 3006,
      "régu": 3007,
      "Association": 3008,
      "handicap": 3009,
      "ao": 3010,
      "retenues": 3011,
      "infectieuses": 3012,
      "tard": 3013,
      "tances": 3014,
      "spor": 3015,
      "cardi": 3016,
      "issance": 3017,
      "faisant": 3018,
      "Ne": 3019,
      "Table": 3020,
      "communauté": 3021,
      "monde": 3022,
      "outre": 3023,
      "tient": 3024,
      "toxi": 3025,
      "numéros": 3026,
      "entement": 3027,
      "raisonnable": 3028,
      "ref": 3029,
      "viden": 3030,
      "Som": 3031,
      "actuellement": 3032,
      "véhicule": 3033,
      "famille": 3034,
      "Nord": 3035,
      "acquisi": 3036,
      "hn": 3037,
      "tificat": 3038,
      "décès": 3039,
      "échelle": 3040,
      "responsable": 3041,
      "admissibilité": 3042,
      "euillez": 3043,
      "dernière": 3044,
      "ITE": 3045,
      "Veuillez": 3046,
      "médicaments": 3047,
      "qués": 3048,
      "enseignement": 3049,
      "initi": 3050,
      "contrô": 3051,
      "omé": 3052,
      "ole": 3053,
      "orité": 3054,
      "tan": 3055,
      "lamin": 3056,
      "quanti": 3057,
      "sociaux": 3058,
      "licence": 3059,
      "ros": 3060,
      "trés": 3061,
      "Poli": 3062,
      "tures": 3063,
      "inscrire": 3064,
      "ouvoir": 3065,
      "vement": 3066,
      "méthyl": 3067,
      "poly": 3068,
      "centage": 3069,
      "Da": 3070,
      "évé": 3071,
      "Plan": 3072,
      "environ": 3073,
      "uns": 3074,
      "second": 3075,
      "occup": 3076,
      "donne": 3077,
      "liens": 3078,
      "points": 3079,
      "Commission": 3080,
      "deuxième": 3081,
      "supplémentaire": 3082,
      "XXXX": 3083,
      "ties": 3084,
      "exception": 3085,
      "frontaliers": 3086,
      "diabète": 3087,
      "AND": 3088,
      "communautaire": 3089,
      "demandé": 3090,
      "différents": 3091,
      "constitue": 3092,
      "descrip": 3093,
      "lequel": 3094,
      "suivre": 3095,
      "sti": 3096,
      "prévoit": 3097,
      "illers": 3098,
      "visite": 3099,
      "commer": 3100,
      "obi": 3101,
      "véhicules": 3102,
      "éché": 3103,
      "ets": 3104,
      "déclarer": 3105,
      "simi": 3106,
      "post": 3107,
      "statu": 3108,
      "gouvernements": 3109,
      "1997": 3110,
      "vari": 3111,
      "importante": 3112,
      "ick": 3113,
      "bénéfi": 3114,
      "atelier": 3115,
      "anglais": 3116,
      "associés": 3117,
      "représente": 3118,
      "âge": 3119,
      "rendre": 3120,
      "hr": 3121,
      "fret": 3122,
      "ALA": 3123,
      "bar": 3124,
      "visu": 3125,
      "lage": 3126,
      "nelles": 3127,
      "excédant": 3128,
      "pén": 3129,
      "payés": 3130,
      "zone": 3131,
      "iti": 3132,
      "dommage": 3133,
      "possibilité": 3134,
      "réduction": 3135,
      "nég": 3136,
      "fournisseur": 3137,
      "McGill": 3138,
      "OUR": 3139,
      "oun": 3140,
      "poration": 3141,
      "pier": 3142,
      "Télécopieur": 3143,
      "tableau": 3144,
      "42": 3145,
      "inclus": 3146,
      "feu": 3147,
      "John": 3148,
      "considéré": 3149,
      "bon": 3150,
      "grâce": 3151,
      "seur": 3152,
      "communications": 3153,
      "lai": 3154,
      "consentement": 3155,
      "sens": 3156,
      "Remarque": 3157,
      "Éco": 3158,
      "circonstances": 3159,
      "Do": 3160,
      "lissez": 3161,
      "confir": 3162,
      "dividen": 3163,
      "décrit": 3164,
      "relatifs": 3165,
      "**": 3166,
      "tabac": 3167,
      "Fondation": 3168,
      "claire": 3169,
      "auto": 3170,
      "mée": 3171,
      "trouver": 3172,
      "collectivités": 3173,
      "rons": 3174,
      "venue": 3175,
      "rele": 3176,
      "pect": 3177,
      "prises": 3178,
      "incid": 3179,
      "pôt": 3180,
      "toires": 3181,
      "expérience": 3182,
      "incluant": 3183,
      "phon": 3184,
      "reconnu": 3185,
      "tock": 3186,
      "clés": 3187,
      "représentants": 3188,
      "uridi": 3189,
      "écrit": 3190,
      "connexes": 3191,
      "types": 3192,
      "lou": 3193,
      "formes": 3194,
      "ting": 3195,
      "fra": 3196,
      "juridi": 3197,
      "effectuer": 3198,
      "examiner": 3199,
      "individu": 3200,
      "août": 3201,
      "solu": 3202,
      "Courriel": 3203,
      "hui": 3204,
      "ditions": 3205,
      "modèle": 3206,
      "inféri": 3207,
      "amélioration": 3208,
      "CP": 3209,
      "Van": 3210,
      "exploitation": 3211,
      "diverses": 3212,
      "principale": 3213,
      "commerce": 3214,
      "tenti": 3215,
      "Écosse": 3216,
      "faites": 3217,
      "relative": 3218,
      "Tra": 3219,
      "fami": 3220,
      "bénévo": 3221,
      "spéciales": 3222,
      "face": 3223,
      "annuel": 3224,
      "usion": 3225,
      "sées": 3226,
      "œuvre": 3227,
      "commerciale": 3228,
      "écr": 3229,
      "Nombre": 3230,
      "Description": 3231,
      "commis": 3232,
      "pages": 3233,
      "dû": 3234,
      "IALA": 3235,
      "contribution": 3236,
      "publics": 3237,
      "alco": 3238,
      "autés": 3239,
      "requis": 3240,
      "nombreux": 3241,
      "seul": 3242,
      "figur": 3243,
      "glob": 3244,
      "élaborer": 3245,
      "versement": 3246,
      "ismes": 3247,
      "indique": 3248,
      "heure": 3249,
      "1A": 3250,
      "cord": 3251,
      "avaient": 3252,
      "technologi": 3253,
      "chacun": 3254,
      "imposables": 3255,
      "Aide": 3256,
      "férences": 3257,
      "psy": 3258,
      "tempor": 3259,
      "numé": 3260,
      "PP": 3261,
      "propriétaire": 3262,
      "potenti": 3263,
      "aura": 3264,
      "importants": 3265,
      "élément": 3266,
      "touch": 3267,
      "réus": 3268,
      "offrir": 3269,
      "Lorsqu": 3270,
      "parce": 3271,
      "agricole": 3272,
      "réexamen": 3273,
      "REN": 3274,
      "importateurs": 3275,
      "ination": 3276,
      "dy": 3277,
      "acité": 3278,
      "contrepartie": 3279,
      "bâ": 3280,
      "communautaires": 3281,
      "mal": 3282,
      "capacités": 3283,
      "davantage": 3284,
      "moyens": 3285,
      "réunions": 3286,
      "NMB": 3287,
      "alisation": 3288,
      "originaires": 3289,
      "comprennent": 3290,
      "ME": 3291,
      "livres": 3292,
      "direct": 3293,
      "verser": 3294,
      "découver": 3295,
      "telle": 3296,
      "toujours": 3297,
      "Déc": 3298,
      "applicable": 3299,
      "coman": 3300,
      "tat": 3301,
      "etc": 3302,
      "circu": 3303,
      "76": 3304,
      "T2": 3305,
      "Nouveau": 3306,
      "estion": 3307,
      "mm": 3308,
      "ède": 3309,
      "Exporta": 3310,
      "payable": 3311,
      "SO": 3312,
      "effectuée": 3313,
      "Produ": 3314,
      "aliser": 3315,
      "justifica": 3316,
      "Bien": 3317,
      "sis": 3318,
      "sie": 3319,
      "bureaux": 3320,
      "connaissance": 3321,
      "toxicoman": 3322,
      "sujets": 3323,
      "renforcer": 3324,
      "profit": 3325,
      "enregistrement": 3326,
      "exac": 3327,
      "Formulaires": 3328,
      "ologiques": 3329,
      "maison": 3330,
      "DÉ": 3331,
      "arth": 3332,
      "diffusion": 3333,
      "Ca": 3334,
      "retraite": 3335,
      "communautés": 3336,
      "WN": 3337,
      "rica": 3338,
      "étape": 3339,
      "provinciale": 3340,
      "prévu": 3341,
      "eau": 3342,
      "rur": 3343,
      "contexte": 3344,
      "Groupe": 3345,
      "utilisées": 3346,
      "social": 3347,
      "THE": 3348,
      "Lo": 3349,
      "Lig": 3350,
      "importantes": 3351,
      "générales": 3352,
      "décide": 3353,
      "tistiques": 3354,
      "famili": 3355,
      "conclusions": 3356,
      "MAN": 3357,
      "SH": 3358,
      "CCI": 3359,
      "tp": 3360,
      "CANADA": 3361,
      "chlor": 3362,
      "conseils": 3363,
      "annuelle": 3364,
      "cents": 3365,
      "Section": 3366,
      "CES": 3367,
      "habituellement": 3368,
      "thè": 3369,
      "quoi": 3370,
      "immédi": 3371,
      "PRO": 3372,
      "économique": 3373,
      "consac": 3374,
      "occasion": 3375,
      "repas": 3376,
      "roit": 3377,
      "poser": 3378,
      "path": 3379,
      "intervention": 3380,
      "inscrits": 3381,
      "conférence": 3382,
      "Retour": 3383,
      "Vi": 3384,
      "addition": 3385,
      "intérieur": 3386,
      "levée": 3387,
      "wick": 3388,
      "répond": 3389,
      "86": 3390,
      "présentation": 3391,
      "techniques": 3392,
      "familles": 3393,
      "ficacité": 3394,
      "suivi": 3395,
      "St": 3396,
      "intégra": 3397,
      "traitements": 3398,
      "td": 3399,
      "fau": 3400,
      "compter": 3401,
      "plutôt": 3402,
      "use": 3403,
      "uniquement": 3404,
      "rale": 3405,
      "MA": 3406,
      "irsc": 3407,
      "Impor": 3408,
      "descriptif": 3409,
      "ina": 3410,
      "partement": 3411,
      "faciliter": 3412,
      "principes": 3413,
      "cihr": 3414,
      "gary": 3415,
      "responsabilité": 3416,
      "souvent": 3417,
      "Devis": 3418,
      "déterminé": 3419,
      "art": 3420,
      "acquisition": 3421,
      "généraux": 3422,
      "épi": 3423,
      "registres": 3424,
      "fes": 3425,
      "blement": 3426,
      "réserve": 3427,
      "utilisée": 3428,
      "Société": 3429,
      "dres": 3430,
      "législa": 3431,
      "financier": 3432,
      "fil": 3433,
      "itant": 3434,
      "cho": 3435,
      "régions": 3436,
      "livraison": 3437,
      "eth": 3438,
      "permanent": 3439,
      "pourcentage": 3440,
      "souches": 3441,
      "abilité": 3442,
      "//": 3443,
      "certain": 3444,
      "phén": 3445,
      "Ltd": 3446,
      "rom": 3447,
      "Char": 3448,
      "automobi": 3449,
      "mê": 3450,
      "954": 3451,
      "composant": 3452,
      "mécanismes": 3453,
      "vations": 3454,
      "Rapport": 3455,
      "ennent": 3456,
      "convention": 3457,
      "faible": 3458,
      "telles": 3459,
      "http": 3460,
      "91": 3461,
      "Ri": 3462,
      "unswick": 3463,
      "versements": 3464,
      "équipement": 3465,
      "bres": 3466,
      "Pos": 3467,
      "hou": 3468,
      "séle": 3469,
      "At": 3470,
      "Certa": 3471,
      "://": 3472,
      "obtenu": 3473,
      "financer": 3474,
      "ennes": 3475,
      "importe": 3476,
      "Brunswick": 3477,
      "échantil": 3478,
      "Ni": 3479,
      "papier": 3480,
      "universités": 3481,
      "relations": 3482,
      "Lignes": 3483,
      "56": 3484,
      "TS": 3485,
      "enregistré": 3486,
      "taxables": 3487,
      "durable": 3488,
      "Calgary": 3489,
      "harmon": 3490,
      "––": 3491,
      "expression": 3492,
      "téléphone": 3493,
      "Taux": 3494,
      "ouvre": 3495,
      "doctorat": 3496,
      "Dur": 3497,
      "Internet": 3498,
      "yle": 3499,
      "Partie": 3500,
      "arc": 3501,
      "dépendance": 3502,
      "Exportateur": 3503,
      "efficacité": 3504,
      "Don": 3505,
      "aéri": 3506,
      "BR": 3507,
      "Dou": 3508,
      "htm": 3509,
      "efficace": 3510,
      "Subventions": 3511,
      "agnos": 3512,
      "rance": 3513,
      "donnée": 3514,
      "1996": 3515,
      "contribuables": 3516,
      "continue": 3517,
      "Prin": 3518,
      "tac": 3519,
      "normales": 3520,
      "neuf": 3521,
      "PO": 3522,
      "réper": 3523,
      "carri": 3524,
      "condu": 3525,
      "Inde": 3526,
      "pira": 3527,
      "stock": 3528,
      "accroître": 3529,
      "Rob": 3530,
      "fonda": 3531,
      "anim": 3532,
      "posés": 3533,
      "distinc": 3534,
      "mêmes": 3535,
      "sug": 3536,
      "beau": 3537,
      "97": 3538,
      "succès": 3539,
      "manda": 3540,
      "signi": 3541,
      "ert": 3542,
      "principalement": 3543,
      "maximum": 3544,
      "compétences": 3545,
      "tirer": 3546,
      "recue": 3547,
      "pact": 3548,
      "rajus": 3549,
      "Fran": 3550,
      "accueil": 3551,
      "98": 3552,
      "sema": 3553,
      "athlètes": 3554,
      "commercial": 3555,
      "Institute": 3556,
      "Amé": 3557,
      "ia": 3558,
      "prévue": 3559,
      "électroniques": 3560,
      "The": 3561,
      "vacc": 3562,
      "divul": 3563,
      "mobi": 3564,
      "Sh": 3565,
      "promouvoir": 3566,
      "délai": 3567,
      "responsables": 3568,
      "intes": 3569,
      "progrès": 3570,
      "soli": 3571,
      "favoriser": 3572,
      "particulièrement": 3573,
      "las": 3574,
      "vendu": 3575,
      "isation": 3576,
      "aliments": 3577,
      "Vancouver": 3578,
      "oo": 3579,
      "producteurs": 3580,
      "municip": 3581,
      "sais": 3582,
      "permettant": 3583,
      "Exemple": 3584,
      "argent": 3585,
      "consultation": 3586,
      "FE": 3587,
      "Tous": 3588,
      "déducti": 3589,
      "dité": 3590,
      "pects": 3591,
      "antéri": 3592,
      "statut": 3593,
      "ore": 3594,
      "lez": 3595,
      "antidumping": 3596,
      ")(": 3597,
      "investis": 3598,
      "pilo": 3599,
      "discu": 3600,
      "itement": 3601,
      "dépendant": 3602,
      "là": 3603,
      "muné": 3604,
      "rac": 3605,
      "associé": 3606,
      "conséqu": 3607,
      "renouve": 3608,
      "certificat": 3609,
      "éventu": 3610,
      "52": 3611,
      "bâti": 3612,
      "incidence": 3613,
      "Cha": 3614,
      "internationales": 3615,
      "ènes": 3616,
      "Ils": 3617,
      "tochtone": 3618,
      "ories": 3619,
      "sélection": 3620,
      "transmission": 3621,
      "isez": 3622,
      "chés": 3623,
      "similaires": 3624,
      "veaux": 3625,
      "hip": 3626,
      "colonne": 3627,
      "privé": 3628,
      "entend": 3629,
      "stagi": 3630,
      "beaucoup": 3631,
      "TÉ": 3632,
      "diagnos": 3633,
      "72": 3634,
      "marchande": 3635,
      "vendeur": 3636,
      "institut": 3637,
      "ion": 3638,
      "Impôt": 3639,
      "accessi": 3640,
      "effectuées": 3641,
      "FOR": 3642,
      "ôts": 3643,
      "ension": 3644,
      "estation": 3645,
      "Organis": 3646,
      "tor": 3647,
      "gements": 3648,
      "entrepôt": 3649,
      "NI": 3650,
      "uk": 3651,
      "fonctions": 3652,
      "Sommaire": 3653,
      "présenté": 3654,
      "voi": 3655,
      "issant": 3656,
      "territoire": 3657,
      "travaille": 3658,
      "pénalité": 3659,
      "esp": 3660,
      "collabor": 3661,
      "complète": 3662,
      "Af": 3663,
      "gain": 3664,
      "chapitre": 3665,
      "ITY": 3666,
      "dure": 3667,
      "SU": 3668,
      "Régime": 3669,
      "fils": 3670,
      "interventions": 3671,
      "OUS": 3672,
      "lari": 3673,
      "traiter": 3674,
      "minu": 3675,
      "Sur": 3676,
      "TOWN": 3677,
      "autochtone": 3678,
      "viennent": 3679,
      "lacement": 3680,
      "lié": 3681,
      "plans": 3682,
      "nations": 3683,
      "commentaires": 3684,
      "RPC": 3685,
      "versé": 3686,
      "contenant": 3687,
      "aspects": 3688,
      "détermination": 3689,
      "erie": 3690,
      "tôles": 3691,
      "êche": 3692,
      "déb": 3693,
      "culaires": 3694,
      "différentes": 3695,
      "collectivité": 3696,
      "lables": 3697,
      "hon": 3698,
      "totalité": 3699,
      "porté": 3700,
      "ane": 3701,
      "ablement": 3702,
      "visés": 3703,
      "obligation": 3704,
      "classement": 3705,
      "immeubles": 3706,
      "informa": 3707,
      "lesquelles": 3708,
      "piration": 3709,
      "dossiers": 3710,
      "mus": 3711,
      "sures": 3712,
      "hors": 3713,
      "Répon": 3714,
      "sorte": 3715,
      "ONS": 3716,
      "détails": 3717,
      "Crédit": 3718,
      "démi": 3719,
      "participant": 3720,
      "appels": 3721,
      "consiste": 3722,
      "Bri": 3723,
      "em": 3724,
      "NA": 3725,
      "bénéficiaires": 3726,
      "59": 3727,
      "Uni": 3728,
      "tine": 3729,
      "travaill": 3730,
      "DA": 3731,
      "intitulée": 3732,
      "lées": 3733,
      "Agent": 3734,
      "ader": 3735,
      "économiques": 3736,
      "titulaire": 3737,
      "sensibilis": 3738,
      "République": 3739,
      "feuillets": 3740,
      "QUE": 3741,
      "rémuné": 3742,
      "temporaire": 3743,
      "messa": 3744,
      "innovation": 3745,
      "Artic": 3746,
      "82": 3747,
      "internationaux": 3748,
      "installations": 3749,
      "cela": 3750,
      "dividendes": 3751,
      "hor": 3752,
      "heures": 3753,
      "élimin": 3754,
      "session": 3755,
      "corpo": 3756,
      "ponses": 3757,
      "retour": 3758,
      "html": 3759,
      "augmentation": 3760,
      "Publi": 3761,
      "ensuite": 3762,
      "Tit": 3763,
      "chiff": 3764,
      "indépendant": 3765,
      "Pers": 3766,
      "local": 3767,
      "transporteur": 3768,
      "obligations": 3769,
      "douani": 3770,
      "phényl": 3771,
      "immunitaires": 3772,
      "Parten": 3773,
      "SAINT": 3774,
      "immédiate": 3775,
      "carrière": 3776,
      "travailler": 3777,
      "istance": 3778,
      "Autre": 3779,
      "situations": 3780,
      "51": 3781,
      "omis": 3782,
      "benz": 3783,
      "respira": 3784,
      "itée": 3785,
      "niveaux": 3786,
      "liée": 3787,
      "compen": 3788,
      "adoles": 3789,
      "ATI": 3790,
      "orités": 3791,
      "commissaire": 3792,
      "haut": 3793,
      "offerts": 3794,
      "53": 3795,
      "tran": 3796,
      "parents": 3797,
      "nationaux": 3798,
      "troubles": 3799,
      "provisi": 3800,
      "curren": 3801,
      "reçoit": 3802,
      "lesquels": 3803,
      "IE": 3804,
      "disciplinaire": 3805,
      "portion": 3806,
      "DPA": 3807,
      "cs": 3808,
      "thèmes": 3809,
      "chron": 3810,
      "responsabilités": 3811,
      "permettra": 3812,
      "Bourses": 3813,
      "jourd": 3814,
      "impact": 3815,
      "financières": 3816,
      "IMII": 3817,
      "enregistrés": 3818,
      "gée": 3819,
      "effectué": 3820,
      "ail": 3821,
      "Cela": 3822,
      "ministères": 3823,
      "73": 3824,
      "financés": 3825,
      "Divul": 3826,
      "description": 3827,
      "salari": 3828,
      "SP": 3829,
      "Hô": 3830,
      "ancien": 3831,
      "300": 3832,
      "TON": 3833,
      "ît": 3834,
      "union": 3835,
      "approu": 3836,
      "ément": 3837,
      "sexe": 3838,
      "comporte": 3839,
      "utilisez": 3840,
      "llement": 3841,
      "résultat": 3842,
      "américa": 3843,
      "Guide": 3844,
      "série": 3845,
      "attente": 3846,
      "paragraphes": 3847,
      "parent": 3848,
      "Divulgation": 3849,
      "abord": 3850,
      "gues": 3851,
      "respect": 3852,
      "portée": 3853,
      "bru": 3854,
      "expiration": 3855,
      "ignant": 3856,
      "fié": 3857,
      "Li": 3858,
      "dage": 3859,
      "Dép": 3860,
      "ms": 3861,
      "96": 3862,
      "mainlevée": 3863,
      "frontière": 3864,
      "amples": 3865,
      "consta": 3866,
      "IRE": 3867,
      "dul": 3868,
      "Avant": 3869,
      "Lab": 3870,
      "vu": 3871,
      "discrimin": 3872,
      "CORPOR": 3873,
      "Ter": 3874,
      "atten": 3875,
      "micro": 3876,
      "gros": 3877,
      "moine": 3878,
      "infrastructure": 3879,
      "Uti": 3880,
      "pertinents": 3881,
      "clairement": 3882,
      "Sé": 3883,
      "71": 3884,
      "proch": 3885,
      "cito": 3886,
      "super": 3887,
      "probl": 3888,
      "réputée": 3889,
      "gy": 3890,
      "Revenus": 3891,
      "rapide": 3892,
      "bénéfices": 3893,
      "NO": 3894,
      "phar": 3895,
      "sté": 3896,
      "cib": 3897,
      "ISPS": 3898,
      "ordonnance": 3899,
      "ateliers": 3900,
      "nécess": 3901,
      "corpore": 3902,
      "lent": 3903,
      "Aux": 3904,
      "permettent": 3905,
      "visées": 3906,
      "deme": 3907,
      "médias": 3908,
      "actuelle": 3909,
      "lus": 3910,
      "STE": 3911,
      "adjoin": 3912,
      "Win": 3913,
      "Réponse": 3914,
      "SER": 3915,
      "réparti": 3916,
      "Toutes": 3917,
      "AE": 3918,
      "Premières": 3919,
      "ige": 3920,
      "exportées": 3921,
      "ork": 3922,
      "CORPORATION": 3923,
      "efficaces": 3924,
      "...": 3925,
      "gne": 3926,
      "nalités": 3927,
      "Mise": 3928,
      "Que": 3929,
      "prévues": 3930,
      "expédition": 3931,
      "commerciaux": 3932,
      "déclaré": 3933,
      "58": 3934,
      "inc": 3935,
      "struct": 3936,
      "Ko": 3937,
      "équité": 3938,
      "ps": 3939,
      "nomination": 3940,
      "sépar": 3941,
      "arthrite": 3942,
      "étrangers": 3943,
      "acheteur": 3944,
      "Conseillers": 3945,
      "Sport": 3946,
      "remise": 3947,
      "osciences": 3948,
      "ALE": 3949,
      "trimoine": 3950,
      "exemples": 3951,
      "questionnaire": 3952,
      "régional": 3953,
      "utilisateurs": 3954,
      "parmi": 3955,
      "Neu": 3956,
      "fix": 3957,
      "médicaux": 3958,
      "ste": 3959,
      "sif": 3960,
      "intermédi": 3961,
      "essai": 3962,
      "lons": 3963,
      "problème": 3964,
      "Chapitre": 3965,
      "-[": 3966,
      "sal": 3967,
      "répar": 3968,
      "propres": 3969,
      "lutte": 3970,
      "âgées": 3971,
      "Note": 3972,
      "1994": 3973,
      "nombreuses": 3974,
      "travailleurs": 3975,
      "Consul": 3976,
      "réputé": 3977,
      "ko": 3978,
      "modèles": 3979,
      "harmonis": 3980,
      "fie": 3981,
      "formule": 3982,
      "Mémorandum": 3983,
      "K1A": 3984,
      "Per": 3985,
      "logici": 3986,
      "rendu": 3987,
      "Entre": 3988,
      "dernières": 3989,
      "FER": 3990,
      "Matériel": 3991,
      "bation": 3992,
      "Cher": 3993,
      "CX": 3994,
      "MO": 3995,
      "élabor": 3996,
      "rables": 3997,
      "tissus": 3998,
      "endroit": 3999,
      "gènes": 4000,
      "transaction": 4001,
      "Terre": 4002,
      "petit": 4003,
      "Titre": 4004,
      "mide": 4005,
      "blissement": 4006,
      "NEXE": 4007,
      "Nor": 4008,
      "ouverture": 4009,
      "signal": 4010,
      "dépos": 4011,
      "approuv": 4012,
      "producteur": 4013,
      "ith": 4014,
      "accordé": 4015,
      "handicapées": 4016,
      "atteindre": 4017,
      "téris": 4018,
      "présentées": 4019,
      "lucra": 4020,
      "alo": 4021,
      "79": 4022,
      "Non": 4023,
      "vées": 4024,
      "décideurs": 4025,
      "SUR": 4026,
      "équival": 4027,
      "désigné": 4028,
      "cussions": 4029,
      "complet": 4030,
      "ards": 4031,
      "MS": 4032,
      "pir": 4033,
      "reur": 4034,
      "ANNEXE": 4035,
      "Micha": 4036,
      "évaluées": 4037,
      "discussion": 4038,
      "codes": 4039,
      "63": 4040,
      "recours": 4041,
      "ISF": 4042,
      "visualiser": 4043,
      "tistique": 4044,
      "publiques": 4045,
      "réponses": 4046,
      "intr": 4047,
      "ild": 4048,
      "trition": 4049,
      "seaux": 4050,
      "portement": 4051,
      "68": 4052,
      "décé": 4053,
      "sociales": 4054,
      "automa": 4055,
      "Ouest": 4056,
      "dipl": 4057,
      "égal": 4058,
      "Programmes": 4059,
      "nit": 4060,
      "interne": 4061,
      "considérée": 4062,
      "fédéraux": 4063,
      "Dépenses": 4064,
      "FIC": 4065,
      "cupé": 4066,
      "préh": 4067,
      "habit": 4068,
      "pensions": 4069,
      "aujourd": 4070,
      "clé": 4071,
      "chats": 4072,
      "reçues": 4073,
      "construction": 4074,
      "priorité": 4075,
      "Michael": 4076,
      "appareil": 4077,
      "Durée": 4078,
      "dépense": 4079,
      "Aut": 4080,
      "CD": 4081,
      "proactive": 4082,
      "mbour": 4083,
      "br": 4084,
      "biologie": 4085,
      "Hos": 4086,
      "MON": 4087,
      "$,": 4088,
      "mn": 4089,
      "pêche": 4090,
      "inform": 4091,
      "solde": 4092,
      "accompag": 4093,
      "tration": 4094,
      "adul": 4095,
      "contributions": 4096,
      "exige": 4097,
      "Hôpital": 4098,
      "Sa": 4099,
      "ologique": 4100,
      "supérieur": 4101,
      "alph": 4102,
      "EDI": 4103,
      "option": 4104,
      "54": 4105,
      "évolu": 4106,
      "compara": 4107,
      "cession": 4108,
      "modu": 4109,
      "Réseau": 4110,
      "MUNICIPALITE": 4111,
      "%.": 4112,
      "civi": 4113,
      "installation": 4114,
      "fiscales": 4115,
      "bal": 4116,
      "anes": 4117,
      "alli": 4118,
      "mique": 4119,
      "vaste": 4120,
      "quantité": 4121,
      "Neuve": 4122,
      "maxi": 4123,
      "Prés": 4124,
      "discrimination": 4125,
      "Après": 4126,
      "souff": 4127,
      "ordinateurs": 4128,
      "Syst": 4129,
      "BC": 4130,
      "py": 4131,
      "gré": 4132,
      "concurren": 4133,
      "continuer": 4134,
      "appren": 4135,
      "nationales": 4136,
      "champ": 4137,
      "prioritaires": 4138,
      "HTM": 4139,
      "61": 4140,
      "HTML": 4141,
      "approbation": 4142,
      "parer": 4143,
      "pied": 4144,
      "entretien": 4145,
      "soutenir": 4146,
      "négoci": 4147,
      "vol": 4148,
      "év": 4149,
      "pouvant": 4150,
      "stagiaires": 4151,
      "400": 4152,
      "chaires": 4153,
      "leader": 4154,
      "exemplaires": 4155,
      "fabric": 4156,
      "Té": 4157,
      "viol": 4158,
      "thi": 4159,
      "gens": 4160,
      "radi": 4161,
      "catégories": 4162,
      "alimentaire": 4163,
      "OPER": 4164,
      "destin": 4165,
      "Gé": 4166,
      "territoriaux": 4167,
      "aul": 4168,
      "molé": 4169,
      "placement": 4170,
      "université": 4171,
      "tise": 4172,
      "identification": 4173,
      "DD": 4174,
      "mini": 4175,
      "quelques": 4176,
      "74": 4177,
      "autorisé": 4178,
      "étapes": 4179,
      "élè": 4180,
      "fo": 4181,
      "procha": 4182,
      "règlements": 4183,
      "Jus": 4184,
      "quée": 4185,
      "vait": 4186,
      "recru": 4187,
      "toxicomanies": 4188,
      "ester": 4189,
      "ATIVE": 4190,
      "portent": 4191,
      "industri": 4192,
      "1995": 4193,
      "animaux": 4194,
      "lique": 4195,
      "comportement": 4196,
      "Service": 4197,
      "précédente": 4198,
      "HOUS": 4199,
      "male": 4200,
      "san": 4201,
      "West": 4202,
      "unités": 4203,
      "Nouvelles": 4204,
      "plication": 4205,
      "Politique": 4206,
      "lin": 4207,
      "fond": 4208,
      "aurait": 4209,
      "formité": 4210,
      "caractéris": 4211,
      "HOUSING": 4212,
      "ling": 4213,
      "faite": 4214,
      "placements": 4215,
      "importés": 4216,
      "recettes": 4217,
      "lucratif": 4218,
      "odi": 4219,
      "dite": 4220,
      "dor": 4221,
      "raisons": 4222,
      "tiré": 4223,
      "renseignement": 4224,
      "ARD": 4225,
      "possession": 4226,
      "embal": 4227,
      "moyenne": 4228,
      "préparation": 4229,
      "garantie": 4230,
      "voyages": 4231,
      "orientation": 4232,
      "Nation": 4233,
      "gres": 4234,
      "G0": 4235,
      "ISCR": 4236,
      "Gestion": 4237,
      "go": 4238,
      "corporation": 4239,
      "avenir": 4240,
      "facture": 4241,
      "Article": 4242,
      "totale": 4243,
      "atta": 4244,
      "Résul": 4245,
      "restre": 4246,
      "répercussions": 4247,
      "agricoles": 4248,
      "quées": 4249,
      "accordée": 4250,
      "plein": 4251,
      "complé": 4252,
      "fibres": 4253,
      "OPERATIVE": 4254,
      "VILLE": 4255,
      "avi": 4256,
      "S0": 4257,
      "expri": 4258,
      "LTD": 4259,
      "discussions": 4260,
      "conten": 4261,
      "innova": 4262,
      "GST": 4263,
      "Mme": 4264,
      "ISTR": 4265,
      "technologies": 4266,
      "prêt": 4267,
      "dine": 4268,
      "pièce": 4269,
      "expertise": 4270,
      "sence": 4271,
      "riez": 4272,
      "seule": 4273,
      "lie": 4274,
      "régionaux": 4275,
      "préhension": 4276,
      "étudier": 4277,
      "disciplinaires": 4278,
      "neurosciences": 4279,
      "offert": 4280,
      "out": 4281,
      "subventionnement": 4282,
      "compensa": 4283,
      "Cherche": 4284,
      "CTION": 4285,
      "dépasse": 4286,
      "allocation": 4287,
      "volon": 4288,
      "réduit": 4289,
      "ﬁn": 4290,
      "réception": 4291,
      "Sous": 4292,
      "logie": 4293,
      "décr": 4294,
      "ordination": 4295,
      "Remp": 4296,
      "Établissement": 4297,
      "multiples": 4298,
      "472": 4299,
      "propre": 4300,
      "déterminée": 4301,
      "déliv": 4302,
      "adolescents": 4303,
      "choisir": 4304,
      "combin": 4305,
      "bénévoles": 4306,
      "92": 4307,
      "téléphon": 4308,
      "envoyer": 4309,
      "oration": 4310,
      "ficience": 4311,
      "technique": 4312,
      "DG": 4313,
      "Eng": 4314,
      "fection": 4315,
      "utilise": 4316,
      "immobilisations": 4317,
      "cle": 4318,
      "judi": 4319,
      "Objec": 4320,
      "proto": 4321,
      "récupé": 4322,
      "motifs": 4323,
      "créé": 4324,
      "Cet": 4325,
      "remplissez": 4326,
      "62": 4327,
      "collecte": 4328,
      "préoccup": 4329,
      "missions": 4330,
      "chargé": 4331,
      "éti": 4332,
      "jeun": 4333,
      "milieux": 4334,
      "épidémi": 4335,
      "81": 4336,
      "ITATION": 4337,
      "III": 4338,
      "Docu": 4339,
      "Voi": 4340,
      "HAB": 4341,
      "alcool": 4342,
      "èle": 4343,
      "moteur": 4344,
      "constituent": 4345,
      "trop": 4346,
      "consommation": 4347,
      "%)": 4348,
      "diagnostic": 4349,
      "destinés": 4350,
      "Arch": 4351,
      "petites": 4352,
      "soumettre": 4353,
      "Gr": 4354,
      "itées": 4355,
      "mine": 4356,
      "humains": 4357,
      "note": 4358,
      "sée": 4359,
      "immigration": 4360,
      "Yuk": 4361,
      "communiquez": 4362,
      "éthyl": 4363,
      "atifs": 4364,
      "terrain": 4365,
      "T1": 4366,
      "titude": 4367,
      "rémunération": 4368,
      "HE": 4369,
      "SC": 4370,
      "oto": 4371,
      "Por": 4372,
      "défis": 4373,
      "mode": 4374,
      "toutefois": 4375,
      "universitaire": 4376,
      "excédent": 4377,
      "COU": 4378,
      "DO": 4379,
      "RES": 4380,
      "honor": 4381,
      "ship": 4382,
      "INMD": 4383,
      "Même": 4384,
      "lac": 4385,
      "Formulaire": 4386,
      "64": 4387,
      "démar": 4388,
      "salaire": 4389,
      "Yukon": 4390,
      "clair": 4391,
      "APP": 4392,
      "engagés": 4393,
      "pénalités": 4394,
      "rants": 4395,
      "Tableau": 4396,
      "tente": 4397,
      "nutrition": 4398,
      "large": 4399,
      "vons": 4400,
      "jeux": 4401,
      "parta": 4402,
      "locaux": 4403,
      "Accord": 4404,
      "Mas": 4405,
      "secondaire": 4406,
      "lettres": 4407,
      "augmenter": 4408,
      "meilleure": 4409,
      "diplô": 4410,
      "congrès": 4411,
      "Prix": 4412,
      "Chaque": 4413,
      "Four": 4414,
      "IP": 4415,
      "nav": 4416,
      "relation": 4417,
      "Réunion": 4418,
      "57": 4419,
      "HABITATION": 4420,
      "intermédiaire": 4421,
      "immédiatement": 4422,
      "cles": 4423,
      "proportion": 4424,
      "titulaires": 4425,
      "Du": 4426,
      "line": 4427,
      "LAGE": 4428,
      "BO": 4429,
      "Convention": 4430,
      "Ju": 4431,
      "exter": 4432,
      "versés": 4433,
      "renforcement": 4434,
      "aison": 4435,
      "conserver": 4436,
      "trouverez": 4437,
      "propositions": 4438,
      "approches": 4439,
      "apprentis": 4440,
      "achats": 4441,
      "violence": 4442,
      "Voici": 4443,
      "amortissement": 4444,
      "préci": 4445,
      "SEA": 4446,
      "tiennent": 4447,
      "volume": 4448,
      "compréhension": 4449,
      "entrepren": 4450,
      "Unité": 4451,
      "David": 4452,
      "remboursements": 4453,
      "Straté": 4454,
      "concep": 4455,
      "Département": 4456,
      "pertinentes": 4457,
      "Résumé": 4458,
      "veur": 4459,
      "arrivée": 4460,
      "FA": 4461,
      "soulig": 4462,
      "Hospital": 4463,
      "rev": 4464,
      "postes": 4465,
      "considérés": 4466,
      "gam": 4467,
      "utilisant": 4468,
      "Depuis": 4469,
      "respecter": 4470,
      "PAS": 4471,
      "exportations": 4472,
      "Afin": 4473,
      "BE": 4474,
      "intégration": 4475,
      "National": 4476,
      "étaires": 4477,
      "Communi": 4478,
      "semblables": 4479,
      "découlant": 4480,
      "provisionne": 4481,
      "unité": 4482,
      "laboratoire": 4483,
      "spécial": 4484,
      "Archiv": 4485,
      "appuy": 4486,
      "langues": 4487,
      "détaillés": 4488,
      "loy": 4489,
      "cevoir": 4490,
      "intégr": 4491,
      "Rembour": 4492,
      "83": 4493,
      "explique": 4494,
      "trimes": 4495,
      "Pe": 4496,
      "tir": 4497,
      "uré": 4498,
      "venu": 4499,
      "ISA": 4500,
      "bonne": 4501,
      "encourager": 4502,
      "SION": 4503,
      "Ta": 4504,
      "fichi": 4505,
      "consultations": 4506,
      "plas": 4507,
      "périodes": 4508,
      "VILLAGE": 4509,
      "ze": 4510,
      "semblable": 4511,
      "principales": 4512,
      "grandes": 4513,
      "applicables": 4514,
      "démont": 4515,
      "înés": 4516,
      "rencontre": 4517,
      "marge": 4518,
      "Liste": 4519,
      "Énon": 4520,
      "nus": 4521,
      "auquel": 4522,
      "progres": 4523,
      "ones": 4524,
      "visent": 4525,
      "infir": 4526,
      "existant": 4527,
      "reconna": 4528,
      "triques": 4529,
      "culturels": 4530,
      "fiés": 4531,
      "facteur": 4532,
      "jeuner": 4533,
      "représentent": 4534,
      "institutions": 4535,
      "çant": 4536,
      "plainte": 4537,
      "èrent": 4538,
      "ressource": 4539,
      "financé": 4540,
      "calculé": 4541,
      "fraction": 4542,
      "hés": 4543,
      "eter": 4544,
      "Accueil": 4545,
      "terre": 4546,
      "aval": 4547,
      "Bern": 4548,
      "pies": 4549,
      "SOCI": 4550,
      "Im": 4551,
      "préférence": 4552,
      "hypo": 4553,
      "normale": 4554,
      "contribuer": 4555,
      "proposition": 4556,
      "particulières": 4557,
      "Sud": 4558,
      "Plus": 4559,
      "seraient": 4560,
      "959": 4561,
      "rage": 4562,
      "69": 4563,
      "réseaux": 4564,
      "actif": 4565,
      "adaptation": 4566,
      "hos": 4567,
      "sait": 4568,
      "révo": 4569,
      "fondée": 4570,
      "fré": 4571,
      "êtements": 4572,
      "dix": 4573,
      "intrants": 4574,
      "cliniciens": 4575,
      "indemn": 4576,
      "économie": 4577,
      "----": 4578,
      "experts": 4579,
      "cardio": 4580,
      "machines": 4581,
      "coordination": 4582,
      "disciplines": 4583,
      "exposé": 4584,
      "RI": 4585,
      "land": 4586,
      "méta": 4587,
      "Indus": 4588,
      "diminu": 4589,
      "gerie": 4590,
      "énoncé": 4591,
      "ald": 4592,
      "KE": 4593,
      "génom": 4594,
      "amment": 4595,
      "civile": 4596,
      "présentés": 4597,
      "prêts": 4598,
      "proposé": 4599,
      "Mac": 4600,
      "ibles": 4601,
      "finale": 4602,
      "noter": 4603,
      "respiratoire": 4604,
      "deau": 4605,
      "ficul": 4606,
      "étudiant": 4607,
      "présentée": 4608,
      "franç": 4609,
      "exploitant": 4610,
      "MÉ": 4611,
      "gaz": 4612,
      "Auc": 4613,
      "indiquant": 4614,
      "sensibilisation": 4615,
      "versées": 4616,
      "fournisseurs": 4617,
      "poss": 4618,
      "mentionné": 4619,
      "expéditions": 4620,
      "vra": 4621,
      "conformité": 4622,
      "titres": 4623,
      "ctori": 4624,
      "investissements": 4625,
      "connus": 4626,
      "tivité": 4627,
      "Fonds": 4628,
      "J0": 4629,
      "reste": 4630,
      "infirmi": 4631,
      "Gen": 4632,
      "réguli": 4633,
      "entraîne": 4634,
      "flu": 4635,
      "onom": 4636,
      "matéri": 4637,
      "Cotis": 4638,
      "ISPP": 4639,
      "possibles": 4640,
      "CN": 4641,
      "indiqués": 4642,
      "Lau": 4643,
      "croissance": 4644,
      "anne": 4645,
      "autrement": 4646,
      "cemment": 4647,
      "publié": 4648,
      "reçoivent": 4649,
      "Ed": 4650,
      "Certains": 4651,
      "mental": 4652,
      "proposée": 4653,
      "premiers": 4654,
      "pertinence": 4655,
      "perç": 4656,
      "événements": 4657,
      "recueilli": 4658,
      "chir": 4659,
      "contin": 4660,
      "trique": 4661,
      "rapportant": 4662,
      "légu": 4663,
      "mère": 4664,
      "appropriée": 4665,
      "prochaine": 4666,
      "conç": 4667,
      "compli": 4668,
      "Profes": 4669,
      "agrément": 4670,
      "apprentissage": 4671,
      "78": 4672,
      "CER": 4673,
      "cateurs": 4674,
      "IMP": 4675,
      "céré": 4676,
      "fications": 4677,
      "Système": 4678,
      "entremise": 4679,
      "gui": 4680,
      "bergement": 4681,
      "écoles": 4682,
      "énumé": 4683,
      "néga": 4684,
      "exclusion": 4685,
      "espèces": 4686,
      "cycle": 4687,
      "Douanes": 4688,
      "attention": 4689,
      "réaliser": 4690,
      "difficul": 4691,
      "ANT": 4692,
      "modifier": 4693,
      "modalités": 4694,
      "restri": 4695,
      "déf": 4696,
      "format": 4697,
      "aînés": 4698,
      "cide": 4699,
      "Steel": 4700,
      "Ver": 4701,
      "procédure": 4702,
      "sex": 4703,
      "Hu": 4704,
      "manu": 4705,
      "annonce": 4706,
      "remplacement": 4707,
      "by": 4708,
      "ograph": 4709,
      "caractère": 4710,
      "reporter": 4711,
      "touchant": 4712,
      "urg": 4713,
      "conception": 4714,
      "dirige": 4715,
      "Est": 4716,
      "Publications": 4717,
      "MIN": 4718,
      "Direc": 4719,
      "POUR": 4720,
      "copies": 4721,
      "biomé": 4722,
      "transformation": 4723,
      "loca": 4724,
      "TAL": 4725,
      "arti": 4726,
      "provinciales": 4727,
      "conséquences": 4728,
      "Bar": 4729,
      "ctu": 4730,
      "Tout": 4731,
      "Rich": 4732,
      "Laval": 4733,
      "matique": 4734,
      "contient": 4735,
      "estima": 4736,
      "SY": 4737,
      "sang": 4738,
      "diffici": 4739,
      "AV": 4740,
      "détax": 4741,
      "autonom": 4742,
      "250": 4743,
      "élar": 4744,
      "istage": 4745,
      "accent": 4746,
      "terminant": 4747,
      "PU": 4748,
      "tête": 4749,
      "invent": 4750,
      "désignés": 4751,
      "participante": 4752,
      "mener": 4753,
      "cins": 4754,
      "lumb": 4755,
      "agir": 4756,
      "Votre": 4757,
      "larité": 4758,
      "late": 4759,
      "établie": 4760,
      "110": 4761,
      "ville": 4762,
      "issement": 4763,
      "Medi": 4764,
      "Résultats": 4765,
      "définitive": 4766,
      "procu": 4767,
      "apparten": 4768,
      "ép": 4769,
      "rador": 4770,
      "révision": 4771,
      "issez": 4772,
      "mandataire": 4773,
      "meubles": 4774,
      "Labrador": 4775,
      "territoires": 4776,
      "maintenir": 4777,
      "FR": 4778,
      "Mes": 4779,
      "ANS": 4780,
      "directeurs": 4781,
      "acomptes": 4782,
      "chacune": 4783,
      "oro": 4784,
      "SRAS": 4785,
      "Voir": 4786,
      "quand": 4787,
      "archiv": 4788,
      "Son": 4789,
      "particulière": 4790,
      "bail": 4791,
      "figure": 4792,
      "récemment": 4793,
      "police": 4794,
      "Net": 4795,
      "libé": 4796,
      "Cont": 4797,
      "Prince": 4798,
      "séance": 4799,
      "meublement": 4800,
      "discuter": 4801,
      "directe": 4802,
      "protéger": 4803,
      "échantillon": 4804,
      "Sou": 4805,
      "Cotisations": 4806,
      "cre": 4807,
      "Jour": 4808,
      "spéciaux": 4809,
      "juridiques": 4810,
      "cat": 4811,
      "AY": 4812,
      "gouvernementaux": 4813,
      "sels": 4814,
      "mag": 4815,
      "récent": 4816,
      "fru": 4817,
      "courante": 4818,
      "envis": 4819,
      "minimum": 4820,
      "organ": 4821,
      "Comp": 4822,
      "officielles": 4823,
      "Columb": 4824,
      "photo": 4825,
      "150": 4826,
      "sons": 4827,
      "ètres": 4828,
      "documentation": 4829,
      "troduction": 4830,
      "provisionnels": 4831,
      "1993": 4832,
      "amortis": 4833,
      "report": 4834,
      "perfection": 4835,
      "joindre": 4836,
      "médecins": 4837,
      "Site": 4838,
      "leadership": 4839,
      "chaud": 4840,
      "événement": 4841,
      "obligatoire": 4842,
      "Cla": 4843,
      "message": 4844,
      "CL": 4845,
      "IMPÔ": 4846,
      "test": 4847,
      "tish": 4848,
      "REE": 4849,
      "maximale": 4850,
      "journ": 4851,
      "TIONS": 4852,
      "établies": 4853,
      "nets": 4854,
      "rapidement": 4855,
      "Bulletin": 4856,
      "los": 4857,
      "mées": 4858,
      "éron": 4859,
      "bâtiment": 4860,
      "ouvert": 4861,
      "adé": 4862,
      "mensu": 4863,
      "ameublement": 4864,
      "dant": 4865,
      "rapeu": 4866,
      "Notre": 4867,
      "éroport": 4868,
      "Columbia": 4869,
      "maî": 4870,
      "ALÉ": 4871,
      "imer": 4872,
      "adoption": 4873,
      "British": 4874,
      "déterminés": 4875,
      "Sciences": 4876,
      "insi": 4877,
      "rédi": 4878,
      "Sec": 4879,
      "sign": 4880,
      "transactions": 4881,
      "Personne": 4882,
      "94": 4883,
      "espa": 4884,
      "réun": 4885,
      "limites": 4886,
      "thérapeu": 4887,
      "Calcul": 4888,
      "langue": 4889,
      "stein": 4890,
      "auche": 4891,
      "contenu": 4892,
      "ferme": 4893,
      "OL": 4894,
      "diversité": 4895,
      "révé": 4896,
      "matiques": 4897,
      "puisse": 4898,
      "orisation": 4899,
      "armes": 4900,
      "tables": 4901,
      "km": 4902,
      "régimes": 4903,
      "informer": 4904,
      "iver": 4905,
      "hospit": 4906,
      "Met": 4907,
      "len": 4908,
      "désire": 4909,
      "amortiss": 4910,
      "mentation": 4911,
      "Bo": 4912,
      "vêtements": 4913,
      "surtout": 4914,
      "prati": 4915,
      "T50": 4916,
      "dépistage": 4917,
      "voyageurs": 4918,
      "solutions": 4919,
      "cepti": 4920,
      "distribution": 4921,
      "Bour": 4922,
      "énoncées": 4923,
      "SERVI": 4924,
      "sivement": 4925,
      "auxquels": 4926,
      "déductions": 4927,
      "assujettis": 4928,
      "Desti": 4929,
      "lace": 4930,
      "provisoires": 4931,
      "devra": 4932,
      "comptabilité": 4933,
      "précisés": 4934,
      "refus": 4935,
      "B3": 4936,
      "tâ": 4937,
      "vit": 4938,
      "développer": 4939,
      "plaignant": 4940,
      "acquit": 4941,
      "départ": 4942,
      "ARI": 4943,
      "effectués": 4944,
      "Énoncé": 4945,
      "Évalu": 4946,
      "gamme": 4947,
      "quo": 4948,
      "troisième": 4949,
      "réalisation": 4950,
      "Ainsi": 4951,
      "Case": 4952,
      "civ": 4953,
      "appuie": 4954,
      "scolarité": 4955,
      "passe": 4956,
      "derniers": 4957,
      "démie": 4958,
      "dépôt": 4959,
      "biomédi": 4960,
      "demandeur": 4961,
      "ut": 4962,
      "1231": 4963,
      "figurant": 4964,
      "amens": 4965,
      "options": 4966,
      "T3": 4967,
      "auront": 4968,
      "approuvé": 4969,
      "compensateurs": 4970,
      "privil": 4971,
      "affir": 4972,
      "modifié": 4973,
      "Appe": 4974,
      "approprié": 4975,
      "Jean": 4976,
      "législation": 4977,
      "mou": 4978,
      "neté": 4979,
      "trouvent": 4980,
      "participé": 4981,
      "PORT": 4982,
      "pharma": 4983,
      "premières": 4984,
      "érir": 4985,
      "IDSEA": 4986,
      "lève": 4987,
      "ong": 4988,
      "ententes": 4989,
      "chin": 4990,
      "fini": 4991,
      "Pré": 4992,
      "blan": 4993,
      "tradition": 4994,
      "visions": 4995,
      "sexu": 4996,
      "ètre": 4997,
      "façons": 4998,
      "chloro": 4999,
      "ja": 5000,
      "quali": 5001,
      "Dal": 5002,
      "ic": 5003,
      "retenir": 5004,
      "UL": 5005,
      "abor": 5006,
      "……": 5007,
      "dette": 5008,
      "systé": 5009,
      "professionnel": 5010,
      "Application": 5011,
      "TOTAL": 5012,
      "hydroxy": 5013,
      "transit": 5014,
      "Stratégie": 5015,
      "école": 5016,
      "situé": 5017,
      "ttes": 5018,
      "conta": 5019,
      "Roy": 5020,
      "rest": 5021,
      "exemption": 5022,
      "taxable": 5023,
      "Es": 5024,
      "douleur": 5025,
      "Mobi": 5026,
      "démon": 5027,
      "ieu": 5028,
      "presque": 5029,
      "détaillée": 5030,
      "Remboursement": 5031,
      "apportées": 5032,
      "favor": 5033,
      "Bernstein": 5034,
      "liqui": 5035,
      "divulgation": 5036,
      "final": 5037,
      "1991": 5038,
      "suscepti": 5039,
      "automobiles": 5040,
      "tront": 5041,
      "prévenir": 5042,
      "instructions": 5043,
      "circula": 5044,
      "Master": 5045,
      "Ga": 5046,
      "Étu": 5047,
      "normalement": 5048,
      "inférieur": 5049,
      "600": 5050,
      "TRE": 5051,
      "oma": 5052,
      "ell": 5053,
      "universitaires": 5054,
      "olu": 5055,
      "perçu": 5056,
      "financée": 5057,
      "contrats": 5058,
      "puisque": 5059,
      "New": 5060,
      "nécessité": 5061,
      "INE": 5062,
      "médicale": 5063,
      "grands": 5064,
      "différences": 5065,
      "ray": 5066,
      "assis": 5067,
      "Quoi": 5068,
      "compéti": 5069,
      "Importa": 5070,
      "quin": 5071,
      "CV": 5072,
      "VER": 5073,
      "sert": 5074,
      "caution": 5075,
      "cardiovas": 5076,
      "Is": 5077,
      "CRS": 5078,
      "Étant": 5079,
      "ège": 5080,
      "résidente": 5081,
      "prévus": 5082,
      "chè": 5083,
      "directrice": 5084,
      "Destination": 5085,
      "réf": 5086,
      "génie": 5087,
      "postdoctor": 5088,
      "passa": 5089,
      "Coût": 5090,
      "coordon": 5091,
      "yenneté": 5092,
      "enfance": 5093,
      "sept": 5094,
      "broch": 5095,
      "his": 5096,
      "cité": 5097,
      "consig": 5098,
      "français": 5099,
      "résumé": 5100,
      "inclut": 5101,
      "éronef": 5102,
      "URE": 5103,
      "rable": 5104,
      "examens": 5105,
      "ultéri": 5106,
      "précise": 5107,
      "engagements": 5108,
      "din": 5109,
      "encourage": 5110,
      "thèse": 5111,
      "concurrence": 5112,
      "NON": 5113,
      "coeur": 5114,
      "obsta": 5115,
      "recouvre": 5116,
      "MR": 5117,
      "étage": 5118,
      "REV": 5119,
      "virus": 5120,
      "Déduction": 5121,
      "preuves": 5122,
      "comptables": 5123,
      "Robert": 5124,
      "roits": 5125,
      "avan": 5126,
      "INS": 5127,
      "patrimoine": 5128,
      "vaient": 5129,
      "pitaux": 5130,
      "perspec": 5131,
      "semaines": 5132,
      "états": 5133,
      "opini": 5134,
      "acqué": 5135,
      "Adminis": 5136,
      "cumu": 5137,
      "professeur": 5138,
      "lisme": 5139,
      "Mobilier": 5140,
      "expres": 5141,
      "attend": 5142,
      "périodi": 5143,
      "Child": 5144,
      "causé": 5145,
      "déficience": 5146,
      "vice": 5147,
      "préa": 5148,
      "Tél": 5149,
      "far": 5150,
      "candidature": 5151,
      "exercer": 5152,
      "________________________________": 5153,
      "échéant": 5154,
      "réussite": 5155,
      "ass": 5156,
      "brev": 5157,
      "hôpitaux": 5158,
      "échéance": 5159,
      "Cent": 5160,
      "taille": 5161,
      "utile": 5162,
      "Dénomination": 5163,
      "0L": 5164,
      "différence": 5165,
      "annoncé": 5166,
      "CT": 5167,
      "MP": 5168,
      "pourra": 5169,
      "écrite": 5170,
      "adultes": 5171,
      "lam": 5172,
      "Conférence": 5173,
      "génétiques": 5174,
      "suivent": 5175,
      "CPS": 5176,
      "culturelles": 5177,
      "immobilisation": 5178,
      "ood": 5179,
      "carte": 5180,
      "assujetties": 5181,
      "suffisamment": 5182,
      "seurs": 5183,
      "vois": 5184,
      "arran": 5185,
      "inventaire": 5186,
      "haute": 5187,
      "rendue": 5188,
      "bra": 5189,
      "tification": 5190,
      "extra": 5191,
      "devient": 5192,
      "commercialisation": 5193,
      "El": 5194,
      "réno": 5195,
      "inspe": 5196,
      "alimentaires": 5197,
      "McMaster": 5198,
      "instruments": 5199,
      "Ti": 5200,
      "meilleurs": 5201,
      "absence": 5202,
      "bande": 5203,
      "association": 5204,
      "partout": 5205,
      "DEN": 5206,
      "lancé": 5207,
      "alinéas": 5208,
      "jets": 5209,
      "MENTS": 5210,
      "Acide": 5211,
      "chiffres": 5212,
      "volontaire": 5213,
      "Paul": 5214,
      "judici": 5215,
      "pourquoi": 5216,
      "internes": 5217,
      "original": 5218,
      "como": 5219,
      "employeurs": 5220,
      "actuel": 5221,
      "scolaire": 5222,
      "DOU": 5223,
      "renouvellement": 5224,
      "iso": 5225,
      "chemin": 5226,
      "législatives": 5227,
      "Ja": 5228,
      "enver": 5229,
      "attribué": 5230,
      "engagées": 5231,
      "administratives": 5232,
      "DDR": 5233,
      "majorité": 5234,
      "prochaines": 5235,
      "1990": 5236,
      "administre": 5237,
      "identifier": 5238,
      "Dalhou": 5239,
      "manque": 5240,
      "imal": 5241,
      "................................................................": 5242,
      "NEXUS": 5243,
      "Dalhousie": 5244,
      "Fac": 5245,
      "Jeux": 5246,
      "Te": 5247,
      "vérifier": 5248,
      "Processus": 5249,
      "Bourse": 5250,
      "120": 5251,
      "%,": 5252,
      "arts": 5253,
      "exonération": 5254,
      "Partenari": 5255,
      "éten": 5256,
      "entièrement": 5257,
      "travaillent": 5258,
      "Cons": 5259,
      "locomo": 5260,
      "centrale": 5261,
      "humain": 5262,
      "ordinateur": 5263,
      "Autorisation": 5264,
      "évolution": 5265,
      "FI": 5266,
      "courriel": 5267,
      "tactez": 5268,
      "fondé": 5269,
      "justificative": 5270,
      "envers": 5271,
      "thème": 5272,
      "Année": 5273,
      "rem": 5274,
      "lait": 5275,
      "ign": 5276,
      "cadres": 5277,
      "crits": 5278,
      "carbone": 5279,
      "servant": 5280,
      "quelque": 5281,
      "correspondant": 5282,
      "justificatives": 5283,
      "T5013": 5284,
      "réfu": 5285,
      "exportés": 5286,
      "acide": 5287,
      "lish": 5288,
      "Modi": 5289,
      "fusion": 5290,
      "pilote": 5291,
      "récla": 5292,
      "AA": 5293,
      "fiée": 5294,
      "Deman": 5295,
      "Parti": 5296,
      "posent": 5297,
      "visitez": 5298,
      "Emp": 5299,
      "Information": 5300,
      "améliorations": 5301,
      "nez": 5302,
      "prélimin": 5303,
      "BER": 5304,
      "93": 5305,
      "redres": 5306,
      "spec": 5307,
      "comprenant": 5308,
      "fabricant": 5309,
      "dia": 5310,
      "buts": 5311,
      "èses": 5312,
      "FERR": 5313,
      "potentiel": 5314,
      "gin": 5315,
      "vendre": 5316,
      "autorité": 5317,
      "obtenus": 5318,
      "mentionnés": 5319,
      "odo": 5320,
      "gestionnaires": 5321,
      "demeure": 5322,
      "apporter": 5323,
      "ignez": 5324,
      "peg": 5325,
      "indiquent": 5326,
      "petite": 5327,
      "rési": 5328,
      "transmettre": 5329,
      "psych": 5330,
      "nage": 5331,
      "chinois": 5332,
      "Paie": 5333,
      "bag": 5334,
      "International": 5335,
      "images": 5336,
      "habitations": 5337,
      "nipeg": 5338,
      "humaine": 5339,
      "accesso": 5340,
      "caractères": 5341,
      "composante": 5342,
      "Amérique": 5343,
      "Winnipeg": 5344,
      "miques": 5345,
      "figurent": 5346,
      "partage": 5347,
      "acquérir": 5348,
      "Location": 5349,
      "vivant": 5350,
      "gers": 5351,
      "Dévelop": 5352,
      "dez": 5353,
      "Président": 5354,
      "Organisation": 5355,
      "TY": 5356,
      "avo": 5357,
      "fice": 5358,
      "opport": 5359,
      "chroniques": 5360,
      "lits": 5361,
      "devenir": 5362,
      "participent": 5363,
      "acquéreur": 5364,
      "Nations": 5365,
      "file": 5366,
      "gérer": 5367,
      "consis": 5368,
      "sémin": 5369,
      "CSB": 5370,
      "circulatoire": 5371,
      "proposées": 5372,
      "English": 5373,
      "Western": 5374,
      "tribunal": 5375,
      "fun": 5376,
      "mac": 5377,
      "Équi": 5378,
      "soumis": 5379,
      "ED": 5380,
      "TER": 5381,
      "DISTR": 5382,
      "enjeux": 5383,
      "offrent": 5384,
      "consid": 5385,
      "approuvées": 5386,
      "RPA": 5387,
      "ani": 5388,
      "sections": 5389,
      "organisé": 5390,
      "416": 5391,
      "int": 5392,
      "actifs": 5393,
      "espace": 5394,
      "produc": 5395,
      "FÉ": 5396,
      "conque": 5397,
      "étro": 5398,
      "isent": 5399,
      "intitulé": 5400,
      "phase": 5401,
      "signifie": 5402,
      "parvenir": 5403,
      "maires": 5404,
      "correc": 5405,
      "Chlor": 5406,
      "justice": 5407,
      "nova": 5408,
      "module": 5409,
      "Deux": 5410,
      "Méth": 5411,
      "1992": 5412,
      "retard": 5413,
      "compagnie": 5414,
      "vrais": 5415,
      "locations": 5416,
      "mén": 5417,
      "financées": 5418,
      "air": 5419,
      "reçue": 5420,
      "mena": 5421,
      "GU": 5422,
      "reconnaissance": 5423,
      "principe": 5424,
      "professionnelle": 5425,
      "passé": 5426,
      "puissent": 5427,
      "présence": 5428,
      "Chercheurs": 5429,
      "gri": 5430,
      "mariti": 5431,
      "impu": 5432,
      "transition": 5433,
      "rétro": 5434,
      "automobile": 5435,
      "élèves": 5436,
      "Lieu": 5437,
      "sier": 5438,
      "poursuite": 5439,
      "déductible": 5440,
      "cular": 5441,
      "factur": 5442,
      "dém": 5443,
      "Adres": 5444,
      "caractéristiques": 5445,
      "maîtr": 5446,
      "cô": 5447,
      "liber": 5448,
      "observations": 5449,
      "structures": 5450,
      "aid": 5451,
      "raci": 5452,
      "conclusion": 5453,
      "syndi": 5454,
      "pau": 5455,
      "livre": 5456,
      "imprimée": 5457,
      "considérées": 5458,
      "barres": 5459,
      "compar": 5460,
      "acte": 5461,
      "formul": 5462,
      "Rapports": 5463,
      "Statistiques": 5464,
      "Alan": 5465,
      "ection": 5466,
      "palli": 5467,
      "amende": 5468,
      "T4A": 5469,
      "vendues": 5470,
      "remar": 5471,
      "éra": 5472,
      "Contactez": 5473,
      "lande": 5474,
      "appar": 5475,
      "Île": 5476,
      "définir": 5477,
      "essentiel": 5478,
      "juridique": 5479,
      "Géné": 5480,
      "pd": 5481,
      "chaire": 5482,
      "cerveau": 5483,
      "assujetti": 5484,
      "rentier": 5485,
      "auteur": 5486,
      "marchés": 5487,
      "subs": 5488,
      "domici": 5489,
      "chaus": 5490,
      "délais": 5491,
      "éthiques": 5492,
      "statistiques": 5493,
      "mécanisme": 5494,
      "difficile": 5495,
      "CPSCSB": 5496,
      "we": 5497,
      "dépositaire": 5498,
      "locomoteur": 5499,
      "réfugi": 5500,
      "SCH": 5501,
      "convient": 5502,
      "––––": 5503,
      "tidi": 5504,
      "accélé": 5505,
      "bases": 5506,
      "ley": 5507,
      "piritu": 5508,
      "conférences": 5509,
      "sive": 5510,
      "sible": 5511,
      "estations": 5512,
      "naturelles": 5513,
      "PH": 5514,
      "Pra": 5515,
      "passer": 5516,
      "axée": 5517,
      "ICT": 5518,
      "endu": 5519,
      "160": 5520,
      "aller": 5521,
      "déterminées": 5522,
      "gh": 5523,
      "conforme": 5524,
      "tissu": 5525,
      "entité": 5526,
      "déplacement": 5527,
      "NR": 5528,
      "OD": 5529,
      "vulné": 5530,
      "LAN": 5531,
      "kg": 5532,
      "logiciels": 5533,
      "adéqu": 5534,
      "officiel": 5535,
      "Financement": 5536,
      "terminé": 5537,
      "retenue": 5538,
      "Canadian": 5539,
      "culturelle": 5540,
      "trict": 5541,
      "devons": 5542,
      "AUX": 5543,
      "Remplissez": 5544,
      "Peter": 5545,
      "actuelles": 5546,
      "textes": 5547,
      "atteint": 5548,
      "RR": 5549,
      "SS": 5550,
      "Chris": 5551,
      "patient": 5552,
      "rajustement": 5553,
      "métabo": 5554,
      "PAD": 5555,
      "présentent": 5556,
      "augmenté": 5557,
      "écar": 5558,
      "considérer": 5559,
      "spécifiques": 5560,
      "vaccins": 5561,
      "préoccupations": 5562,
      "MIS": 5563,
      "Exig": 5564,
      "expédi": 5565,
      "pourront": 5566,
      "victi": 5567,
      "dates": 5568,
      "ative": 5569,
      "nan": 5570,
      "maintien": 5571,
      "consomma": 5572,
      "spécifique": 5573,
      "familiale": 5574,
      "audi": 5575,
      "ajouter": 5576,
      "aérien": 5577,
      "ceuti": 5578,
      "FICE": 5579,
      "émis": 5580,
      "immigrants": 5581,
      "actuels": 5582,
      "justements": 5583,
      "épidémiologie": 5584,
      "clo": 5585,
      "OFFICE": 5586,
      "futures": 5587,
      "globale": 5588,
      "Lou": 5589,
      "gène": 5590,
      "jo": 5591,
      "yn": 5592,
      "ther": 5593,
      "ISFH": 5594,
      "possé": 5595,
      "étrangères": 5596,
      "transporteurs": 5597,
      "produites": 5598,
      "affaire": 5599,
      "reconnaît": 5600,
      "hib": 5601,
      "territorial": 5602,
      "941": 5603,
      "tarifaires": 5604,
      "facul": 5605,
      "automne": 5606,
      "INTER": 5607,
      "ratta": 5608,
      "ays": 5609,
      "ÉS": 5610,
      "renon": 5611,
      "demandés": 5612,
      "endra": 5613,
      "identité": 5614,
      "régionale": 5615,
      "perfectionnement": 5616,
      "personnelle": 5617,
      "citoyens": 5618,
      "informations": 5619,
      "DISTRICT": 5620,
      "Har": 5621,
      "Th": 5622,
      "prévoy": 5623,
      "semaine": 5624,
      "OB": 5625,
      "signé": 5626,
      "palliatifs": 5627,
      "positifs": 5628,
      "tourisme": 5629,
      "dimen": 5630,
      "tuelle": 5631,
      "Act": 5632,
      "pleine": 5633,
      "Adresse": 5634,
      "veiller": 5635,
      "lisation": 5636,
      "courtier": 5637,
      "Corporation": 5638,
      "commencé": 5639,
      "ison": 5640,
      "T20": 5641,
      "donnent": 5642,
      "tar": 5643,
      "longue": 5644,
      "outil": 5645,
      "Charte": 5646,
      "idées": 5647,
      "time": 5648,
      "répartition": 5649,
      "QC": 5650,
      "produite": 5651,
      "utiles": 5652,
      "douard": 5653,
      "Directrice": 5654,
      "issu": 5655,
      "paravant": 5656,
      "ager": 5657,
      "123": 5658,
      "administrateur": 5659,
      "TEUR": 5660,
      "plaignante": 5661,
      "demandez": 5662,
      "possède": 5663,
      "spiritu": 5664,
      "rapie": 5665,
      "Devant": 5666,
      "populaire": 5667,
      "graphiques": 5668,
      "zine": 5669,
      "Forum": 5670,
      "registre": 5671,
      "prop": 5672,
      "accé": 5673,
      "quotidi": 5674,
      "apport": 5675,
      "mémo": 5676,
      "petits": 5677,
      "Mal": 5678,
      "traités": 5679,
      "ium": 5680,
      "Sup": 5681,
      "accorder": 5682,
      "Détermin": 5683,
      "laminées": 5684,
      "impôts": 5685,
      "Fi": 5686,
      "bord": 5687,
      "devront": 5688,
      "Possi": 5689,
      "tons": 5690,
      "ions": 5691,
      "tuy": 5692,
      "courant": 5693,
      "vues": 5694,
      "éner": 5695,
      "rendus": 5696,
      "DOUAN": 5697,
      "éviter": 5698,
      "associées": 5699,
      "supérieure": 5700,
      "index": 5701,
      "Ate": 5702,
      "déri": 5703,
      "WA": 5704,
      "poursuivre": 5705,
      "texti": 5706,
      "supérieurs": 5707,
      "transféré": 5708,
      "support": 5709,
      "répondants": 5710,
      "mobilier": 5711,
      "Ty": 5712,
      "aéronef": 5713,
      "adhés": 5714,
      "accus": 5715,
      "neuro": 5716,
      "Mex": 5717,
      "occasions": 5718,
      "fondament": 5719,
      "pdf": 5720,
      "220": 5721,
      "quit": 5722,
      "GION": 5723,
      "LU": 5724,
      "NU": 5725,
      "aper": 5726,
      "maîtrise": 5727,
      "acheté": 5728,
      "Richard": 5729,
      "SERVICES": 5730,
      "destinées": 5731,
      "corporel": 5732,
      "biologiques": 5733,
      "remplis": 5734,
      "veut": 5735,
      "MUNICIPALITY": 5736,
      "partenaire": 5737,
      "atteintes": 5738,
      "simple": 5739,
      "jeu": 5740,
      "abri": 5741,
      "manif": 5742,
      "SYSTE": 5743,
      "récentes": 5744,
      "personnelles": 5745,
      "causes": 5746,
      "considération": 5747,
      "ology": 5748,
      "sondage": 5749,
      "hôpital": 5750,
      "tension": 5751,
      "réalisés": 5752,
      "obstacles": 5753,
      "Lon": 5754,
      "ony": 5755,
      "Développement": 5756,
      "permettront": 5757,
      "pouvons": 5758,
      "thérapie": 5759,
      "décrites": 5760,
      "Sain": 5761,
      "passagers": 5762,
      "Mach": 5763,
      "déductibles": 5764,
      "travailleur": 5765,
      "Édouard": 5766,
      "Territ": 5767,
      "revue": 5768,
      "PASS": 5769,
      "démontrer": 5770,
      "viser": 5771,
      "trent": 5772,
      "expl": 5773,
      "Objectifs": 5774,
      "subi": 5775,
      "antérieure": 5776,
      "réparation": 5777,
      "appropriés": 5778,
      "haus": 5779,
      "proche": 5780,
      "réel": 5781,
      "présidente": 5782,
      "recommandation": 5783,
      "embry": 5784,
      "den": 5785,
      "wn": 5786,
      "simpli": 5787,
      "municipalité": 5788,
      "moléculaire": 5789,
      "retrait": 5790,
      "voient": 5791,
      "directives": 5792,
      "annuels": 5793,
      "Sci": 5794,
      "conçu": 5795,
      "dise": 5796,
      "journaux": 5797,
      "teneur": 5798,
      "pul": 5799,
      "subst": 5800,
      "hospitali": 5801,
      "Évaluation": 5802,
      "EV": 5803,
      "dies": 5804,
      "person": 5805,
      "mari": 5806,
      "logements": 5807,
      "souh": 5808,
      "éventail": 5809,
      "boissons": 5810,
      "corpor": 5811,
      "erreur": 5812,
      "entraîner": 5813,
      "complexes": 5814,
      "recouvrement": 5815,
      "Parlement": 5816,
      "global": 5817,
      "Motion": 5818,
      "MC": 5819,
      "].": 5820,
      "naissance": 5821,
      "vraisemb": 5822,
      "rapporte": 5823,
      "assure": 5824,
      "préparer": 5825,
      "CU": 5826,
      "ws": 5827,
      "amino": 5828,
      "couv": 5829,
      "domicile": 5830,
      "incl": 5831,
      "Gestionnaire": 5832,
      "Neur": 5833,
      "PI": 5834,
      "fax": 5835,
      "assemb": 5836,
      "ouverts": 5837,
      "égale": 5838,
      "ssification": 5839,
      "norme": 5840,
      "physiques": 5841,
      "Oui": 5842,
      "1H": 5843,
      "activement": 5844,
      "vidé": 5845,
      "rend": 5846,
      "interactions": 5847,
      "désignée": 5848,
      "souhait": 5849,
      "préalable": 5850,
      "ary": 5851,
      "diver": 5852,
      "effectue": 5853,
      "invités": 5854,
      "Archivé": 5855,
      "broo": 5856,
      "MOR": 5857,
      "tom": 5858,
      "symp": 5859,
      "directs": 5860,
      "Conformément": 5861,
      "conduite": 5862,
      "pens": 5863,
      "Utilisez": 5864,
      "]-": 5865,
      "remboursable": 5866,
      "échantillons": 5867,
      "autorisés": 5868,
      "officielle": 5869,
      "Ke": 5870,
      "nouvel": 5871,
      "Gouver": 5872,
      "Cancer": 5873,
      "coll": 5874,
      "Exécu": 5875,
      "accepter": 5876,
      "try": 5877,
      "entrepreneur": 5878,
      "division": 5879,
      "107": 5880,
      "réglementaire": 5881,
      "SON": 5882,
      "élo": 5883,
      "huit": 5884,
      "Document": 5885,
      "Instru": 5886,
      "autorités": 5887,
      "igration": 5888,
      "ouvrir": 5889,
      "procéder": 5890,
      "provenance": 5891,
      "médecin": 5892,
      "conflits": 5893,
      "adopté": 5894,
      "MAR": 5895,
      "reconnus": 5896,
      "ited": 5897,
      "spéciale": 5898,
      "ami": 5899,
      "éco": 5900,
      "pourriez": 5901,
      "accepté": 5902,
      "attribution": 5903,
      "atoires": 5904,
      "atteinte": 5905,
      "brut": 5906,
      "appartenant": 5907,
      "fs": 5908,
      "regrou": 5909,
      "inerie": 5910,
      "court": 5911,
      "stipu": 5912,
      "IMPÔT": 5913,
      "Importateur": 5914,
      "empê": 5915,
      "Qui": 5916,
      "retenu": 5917,
      "agriculture": 5918,
      "AIR": 5919,
      "oph": 5920,
      "émet": 5921,
      "finances": 5922,
      "seuil": 5923,
      "stockage": 5924,
      "Ban": 5925,
      "pourvu": 5926,
      "comportant": 5927,
      "verse": 5928,
      "autorisée": 5929,
      "entraîneurs": 5930,
      "Bro": 5931,
      "rôles": 5932,
      "éclair": 5933,
      "congé": 5934,
      "Index": 5935,
      "amil": 5936,
      "Fé": 5937,
      "administrateurs": 5938,
      "exploite": 5939,
      "complets": 5940,
      "dès": 5941,
      "mentionnées": 5942,
      "élaboré": 5943,
      "hydra": 5944,
      "recommandé": 5945,
      "Grâce": 5946,
      "mot": 5947,
      "diffus": 5948,
      "voies": 5949,
      "primes": 5950,
      "versée": 5951,
      "gouvernementales": 5952,
      "oxo": 5953,
      "ALÉNA": 5954,
      "ppe": 5955,
      "communs": 5956,
      "réadaptation": 5957,
      "peau": 5958,
      "dûment": 5959,
      "partiel": 5960,
      "Statistique": 5961,
      "fardeau": 5962,
      "CAL": 5963,
      "tariat": 5964,
      "sites": 5965,
      "cien": 5966,
      "exposés": 5967,
      "tence": 5968,
      "ACI": 5969,
      "tières": 5970,
      "104": 5971,
      "illus": 5972,
      "reprise": 5973,
      "recrutement": 5974,
      "euse": 5975,
      "intégrer": 5976,
      "décrits": 5977,
      "SYSTEMS": 5978,
      "SK": 5979,
      "train": 5980,
      "Canadiennes": 5981,
      "constructeur": 5982,
      "servent": 5983,
      "drogues": 5984,
      "recommande": 5985,
      "sû": 5986,
      "fut": 5987,
      "initiale": 5988,
      "LAC": 5989,
      "atteints": 5990,
      "requise": 5991,
      "sportif": 5992,
      "Victori": 5993,
      "séparément": 5994,
      "épa": 5995,
      "infection": 5996,
      "ed": 5997,
      "arrê": 5998,
      "RCS": 5999,
      "ceptions": 6000,
      "Niveau": 6001,
      "inst": 6002,
      "découverte": 6003,
      "réalisé": 6004,
      "coton": 6005,
      "blessures": 6006,
      "étrangère": 6007,
      "enquêtes": 6008,
      "iii": 6009,
      "Pièce": 6010,
      "mil": 6011,
      "cidents": 6012,
      "azole": 6013,
      "génération": 6014,
      "rurales": 6015,
      "chou": 6016,
      "soi": 6017,
      "déterminants": 6018,
      "auparavant": 6019,
      "Subvention": 6020,
      "TN": 6021,
      "riques": 6022,
      "stable": 6023,
      "Victoria": 6024,
      "GH": 6025,
      "importé": 6026,
      "PRES": 6027,
      "Finances": 6028,
      "jamais": 6029,
      "Administration": 6030,
      "eld": 6031,
      "agréé": 6032,
      "inspection": 6033,
      "çons": 6034,
      "épar": 6035,
      "suis": 6036,
      "machinerie": 6037,
      "Décisions": 6038,
      "patho": 6039,
      "igh": 6040,
      "gagné": 6041,
      "EST": 6042,
      "souha": 6043,
      "feuilles": 6044,
      "auxquelles": 6045,
      "istants": 6046,
      "commencer": 6047,
      "Demandes": 6048,
      "FÉREN": 6049,
      "précédentes": 6050,
      "Mexique": 6051,
      "ak": 6052,
      "Envir": 6053,
      "infraction": 6054,
      "récupération": 6055,
      "101": 6056,
      "1800": 6057,
      "professionnelles": 6058,
      "Miche": 6059,
      "coopé": 6060,
      "bunaux": 6061,
      "T5": 6062,
      "TOR": 6063,
      "Parmi": 6064,
      "devrez": 6065,
      "opti": 6066,
      "chia": 6067,
      "estime": 6068,
      "work": 6069,
      "reconnaître": 6070,
      "avance": 6071,
      "fournie": 6072,
      "gratu": 6073,
      "constituer": 6074,
      "protocole": 6075,
      "informe": 6076,
      "indicateurs": 6077,
      "intégrité": 6078,
      "Possibilités": 6079,
      "chev": 6080,
      "sucre": 6081,
      "initial": 6082,
      "décédée": 6083,
      "émer": 6084,
      "milliards": 6085,
      "envoyé": 6086,
      "complè": 6087,
      "confidentiels": 6088,
      "équit": 6089,
      "Exécution": 6090,
      "tribunaux": 6091,
      "intéressés": 6092,
      "informatique": 6093,
      "sports": 6094,
      "secondaires": 6095,
      "-[(": 6096,
      "urgence": 6097,
      "GA": 6098,
      "urer": 6099,
      "pable": 6100,
      "accidents": 6101,
      "fili": 6102,
      "tribution": 6103,
      "istor": 6104,
      "James": 6105,
      "NOR": 6106,
      "dan": 6107,
      "formules": 6108,
      "remplies": 6109,
      "réalisations": 6110,
      "lacunes": 6111,
      "my": 6112,
      "laté": 6113,
      "prun": 6114,
      "fondation": 6115,
      "million": 6116,
      "harmonisée": 6117,
      "Lim": 6118,
      "drait": 6119,
      "nagement": 6120,
      "indiquée": 6121,
      "distincte": 6122,
      "indre": 6123,
      "décret": 6124,
      "fondées": 6125,
      "exerce": 6126,
      "pilotes": 6127,
      "adjoint": 6128,
      "chent": 6129,
      "peuples": 6130,
      "donnant": 6131,
      "alimentation": 6132,
      "2009": 6133,
      "prescrit": 6134,
      "Marchan": 6135,
      "FORM": 6136,
      "Introduction": 6137,
      "Produits": 6138,
      "salaires": 6139,
      "plaintes": 6140,
      "cellulaire": 6141,
      "officiels": 6142,
      "percevoir": 6143,
      "meilleures": 6144,
      "découvertes": 6145,
      "emprun": 6146,
      "chirur": 6147,
      "difficultés": 6148,
      "accéder": 6149,
      "TD1": 6150,
      "ial": 6151,
      "lexi": 6152,
      "acheter": 6153,
      "validité": 6154,
      "réglementation": 6155,
      "forfait": 6156,
      "acceptable": 6157,
      "clientèle": 6158,
      "propyl": 6159,
      "payeur": 6160,
      "science": 6161,
      "accessoires": 6162,
      "double": 6163,
      "voulez": 6164,
      "mouve": 6165,
      "conjointement": 6166,
      "FAC": 6167,
      "représentation": 6168,
      "négatif": 6169,
      "Imm": 6170,
      "Nos": 6171,
      "caisse": 6172,
      "vérifica": 6173,
      "Exigences": 6174,
      "ki": 6175,
      "tt": 6176,
      "entreprendre": 6177,
      "blio": 6178,
      "rapportent": 6179,
      "fiducies": 6180,
      "spécialistes": 6181,
      "Activ": 6182,
      "transférés": 6183,
      "PARTI": 6184,
      "métabolisme": 6185,
      "volet": 6186,
      "accrue": 6187,
      "exigible": 6188,
      "jouer": 6189,
      "Présence": 6190,
      "istes": 6191,
      "gies": 6192,
      "King": 6193,
      "cibles": 6194,
      "cident": 6195,
      "Décision": 6196,
      "mères": 6197,
      "reg": 6198,
      "chets": 6199,
      "échanges": 6200,
      "inférieure": 6201,
      "Jac": 6202,
      "yage": 6203,
      "siers": 6204,
      "noms": 6205,
      "examiné": 6206,
      "exposition": 6207,
      "résolu": 6208,
      "Gra": 6209,
      "séances": 6210,
      "messages": 6211,
      "Repas": 6212,
      "corps": 6213,
      "lantique": 6214,
      "CHE": 6215,
      "URAL": 6216,
      "COMMUN": 6217,
      "lige": 6218,
      "rappe": 6219,
      "annuler": 6220,
      "bénéficier": 6221,
      "payées": 6222,
      "courantes": 6223,
      "VAL": 6224,
      "amb": 6225,
      "bate": 6226,
      "considérons": 6227,
      "sc": 6228,
      "énoncés": 6229,
      "hébergement": 6230,
      "CAR": 6231,
      "indépend": 6232,
      "presse": 6233,
      "solution": 6234,
      "LÉ": 6235,
      "TARI": 6236,
      "insuffis": 6237,
      "oly": 6238,
      "approvisi": 6239,
      "sifs": 6240,
      "pharmaceuti": 6241,
      "régis": 6242,
      "égalité": 6243,
      "administratif": 6244,
      "existence": 6245,
      "sin": 6246,
      "cil": 6247,
      "vendus": 6248,
      "exclusivement": 6249,
      "protéines": 6250,
      "commence": 6251,
      "accords": 6252,
      "cam": 6253,
      "élevés": 6254,
      "méthodo": 6255,
      "préciser": 6256,
      "stimul": 6257,
      "Territoires": 6258,
      "Hali": 6259,
      "Nun": 6260,
      "cules": 6261,
      "rome": 6262,
      "Ge": 6263,
      "blo": 6264,
      "zones": 6265,
      "administratifs": 6266,
      "profession": 6267,
      "Indiquez": 6268,
      "ducation": 6269,
      "impli": 6270,
      "brochure": 6271,
      "chaussures": 6272,
      "ama": 6273,
      "iser": 6274,
      "rig": 6275,
      "pées": 6276,
      "exonérée": 6277,
      "DOUANES": 6278,
      "rajusté": 6279,
      "conva": 6280,
      "thèses": 6281,
      "considère": 6282,
      "tante": 6283,
      "Tro": 6284,
      "kil": 6285,
      "Membres": 6286,
      "confidentialité": 6287,
      "ety": 6288,
      "moiti": 6289,
      "Inté": 6290,
      "condam": 6291,
      "inten": 6292,
      "mesurer": 6293,
      "utilisent": 6294,
      "pondé": 6295,
      "Secré": 6296,
      "textiles": 6297,
      "ciers": 6298,
      "sportive": 6299,
      "curs": 6300,
      "mato": 6301,
      "Chan": 6302,
      "Choix": 6303,
      "hyper": 6304,
      "carboxy": 6305,
      "Marchandises": 6306,
      "corri": 6307,
      "infections": 6308,
      "vraisemblable": 6309,
      "Halifax": 6310,
      "blir": 6311,
      "incluent": 6312,
      "Appare": 6313,
      "moitié": 6314,
      "appréci": 6315,
      "Chaire": 6316,
      "restrictions": 6317,
      "milliers": 6318,
      "sommaire": 6319,
      "influence": 6320,
      "fédérales": 6321,
      "Tai": 6322,
      "RÉFÉREN": 6323,
      "remboursables": 6324,
      "accessibles": 6325,
      "Machines": 6326,
      "MES": 6327,
      "américain": 6328,
      "Aus": 6329,
      "Transfer": 6330,
      "Consultez": 6331,
      "sel": 6332,
      "dispar": 6333,
      "pétro": 6334,
      "positif": 6335,
      "exigence": 6336,
      "père": 6337,
      "précisions": 6338,
      "cardia": 6339,
      "gestions": 6340,
      "Agri": 6341,
      "réd": 6342,
      "socio": 6343,
      "expériences": 6344,
      "adoptée": 6345,
      "</": 6346,
      "France": 6347,
      "LS": 6348,
      "âgés": 6349,
      "liques": 6350,
      "106": 6351,
      "gouvernementale": 6352,
      "méthoxy": 6353,
      "Mark": 6354,
      "vidéo": 6355,
      "oir": 6356,
      "ito": 6357,
      "mérite": 6358,
      "emplacement": 6359,
      "Déjeuner": 6360,
      "résor": 6361,
      "réussi": 6362,
      "tâches": 6363,
      "Sal": 6364,
      "cm": 6365,
      "redev": 6366,
      "Queen": 6367,
      "susceptibles": 6368,
      "HO": 6369,
      "Sig": 6370,
      "miser": 6371,
      "ajouté": 6372,
      "victimes": 6373,
      "NÉ": 6374,
      "Rx": 6375,
      "ministres": 6376,
      "INES": 6377,
      "cependant": 6378,
      "régionales": 6379,
      "neuves": 6380,
      "navire": 6381,
      "9A": 6382,
      "conseillers": 6383,
      "tirés": 6384,
      "orti": 6385,
      "tota": 6386,
      "Certaines": 6387,
      "chèque": 6388,
      "osi": 6389,
      "avut": 6390,
      "octro": 6391,
      "avenue": 6392,
      "roy": 6393,
      "obtention": 6394,
      "détermine": 6395,
      "résidenti": 6396,
      "destination": 6397,
      "multipli": 6398,
      "bliothè": 6399,
      "Plu": 6400,
      "vérifications": 6401,
      "engagé": 6402,
      "NS": 6403,
      "RAP": 6404,
      "secré": 6405,
      "die": 6406,
      "CCC": 6407,
      "aperçu": 6408,
      "127": 6409,
      "fera": 6410,
      "maximal": 6411,
      "compétence": 6412,
      "meurs": 6413,
      "T40": 6414,
      "mette": 6415,
      "thme": 6416,
      "mémorandums": 6417,
      "confidentielle": 6418,
      "gagner": 6419,
      "adjointe": 6420,
      "conver": 6421,
      "journée": 6422,
      "Activités": 6423,
      "dérou": 6424,
      "opposition": 6425,
      "curité": 6426,
      "morale": 6427,
      "DS": 6428,
      "TU": 6429,
      "ressor": 6430,
      "115": 6431,
      "CXC": 6432,
      "dédouan": 6433,
      "révisé": 6434,
      "nat": 6435,
      "seure": 6436,
      "entrer": 6437,
      "transmis": 6438,
      "externes": 6439,
      "rection": 6440,
      "contribué": 6441,
      "offertes": 6442,
      "zhe": 6443,
      "dispose": 6444,
      "endrier": 6445,
      "limité": 6446,
      "Affaires": 6447,
      "contingent": 6448,
      "propose": 6449,
      "ivre": 6450,
      "PRODU": 6451,
      "artis": 6452,
      "cess": 6453,
      "notes": 6454,
      "présumé": 6455,
      "annulation": 6456,
      "zheimer": 6457,
      "tice": 6458,
      "allè": 6459,
      "expliquer": 6460,
      "Ressources": 6461,
      "vulnérables": 6462,
      "Ab": 6463,
      "Dos": 6464,
      "RURAL": 6465,
      "gni": 6466,
      "outchou": 6467,
      "diplôme": 6468,
      "fondamentale": 6469,
      "Ville": 6470,
      "125": 6471,
      "raf": 6472,
      "multidisciplinaire": 6473,
      "automatique": 6474,
      "spiritueux": 6475,
      "MI": 6476,
      "payables": 6477,
      "105": 6478,
      "détaillées": 6479,
      "faveur": 6480,
      "cateur": 6481,
      "appropriées": 6482,
      "mondial": 6483,
      "éliminer": 6484,
      "zole": 6485,
      "signature": 6486,
      "raisonnablement": 6487,
      "Afrique": 6488,
      "recueillir": 6489,
      "AGE": 6490,
      "IEN": 6491,
      "tentes": 6492,
      "ousse": 6493,
      "Alzheimer": 6494,
      "détaillé": 6495,
      "VAN": 6496,
      "Quels": 6497,
      "Données": 6498,
      "Améli": 6499,
      "fichiers": 6500,
      "orientations": 6501,
      "Nunavut": 6502,
      "ras": 6503,
      "Annon": 6504,
      "Children": 6505,
      "éloig": 6506,
      "CPE": 6507,
      "Question": 6508,
      "imposer": 6509,
      "légal": 6510,
      "génomique": 6511,
      "mant": 6512,
      "Analy": 6513,
      "cipa": 6514,
      "changer": 6515,
      "commandit": 6516,
      "exploiter": 6517,
      "défense": 6518,
      "lancement": 6519,
      "ho": 6520,
      "télécopieur": 6521,
      "LL": 6522,
      "mau": 6523,
      "»)": 6524,
      "écou": 6525,
      "critère": 6526,
      "investi": 6527,
      "conséquence": 6528,
      "monton": 6529,
      "Fournit": 6530,
      "remerci": 6531,
      "maritime": 6532,
      "118": 6533,
      "désir": 6534,
      "banques": 6535,
      "listes": 6536,
      "ases": 6537,
      "aériens": 6538,
      "uci": 6539,
      "défi": 6540,
      "caoutchou": 6541,
      "appliquée": 6542,
      "ARCH": 6543,
      "constitué": 6544,
      "IX": 6545,
      "blit": 6546,
      "indiquez": 6547,
      "pagne": 6548,
      "émerg": 6549,
      "Pays": 6550,
      "quiert": 6551,
      "élevée": 6552,
      "CANPASS": 6553,
      "Edmonton": 6554,
      "réfugiés": 6555,
      "épargne": 6556,
      "idé": 6557,
      "collèg": 6558,
      "CK": 6559,
      "minima": 6560,
      "constitution": 6561,
      "499": 6562,
      "mith": 6563,
      "athlète": 6564,
      "Frank": 6565,
      "Trésor": 6566,
      "assujettie": 6567,
      "Fra": 6568,
      "allant": 6569,
      "Défini": 6570,
      "confiance": 6571,
      "tandis": 6572,
      "suggestions": 6573,
      "demandeurs": 6574,
      "culturel": 6575,
      "decine": 6576,
      "duquel": 6577,
      "fixe": 6578,
      "régissant": 6579,
      "Dom": 6580,
      "FCI": 6581,
      "gouvernance": 6582,
      "médicales": 6583,
      "voiture": 6584,
      "Sher": 6585,
      "Elles": 6586,
      "rejet": 6587,
      "équivalent": 6588,
      "vres": 6589,
      "testa": 6590,
      "T12": 6591,
      "nies": 6592,
      "fournissent": 6593,
      "Partenaires": 6594,
      "prolon": 6595,
      "mière": 6596,
      "pei": 6597,
      "faudrait": 6598,
      "pointe": 6599,
      "Steph": 6600,
      "NIH": 6601,
      "520": 6602,
      "consen": 6603,
      "accessible": 6604,
      "collaborations": 6605,
      "lets": 6606,
      "biologique": 6607,
      "001": 6608,
      "604": 6609,
      "intellec": 6610,
      "Puis": 6611,
      "meilleur": 6612,
      "Ave": 6613,
      "chet": 6614,
      "concent": 6615,
      "FF": 6616,
      "ather": 6617,
      "contact": 6618,
      "NG": 6619,
      "Édi": 6620,
      "accordés": 6621,
      "bor": 6622,
      "anticip": 6623,
      "raisonnables": 6624,
      "Medical": 6625,
      "issons": 6626,
      "lettes": 6627,
      "comportements": 6628,
      "fc": 6629,
      "stra": 6630,
      "biais": 6631,
      "envoyez": 6632,
      "essentiels": 6633,
      "biomédicale": 6634,
      "BRO": 6635,
      "Ra": 6636,
      "human": 6637,
      "nour": 6638,
      "certi": 6639,
      "soule": 6640,
      "dge": 6641,
      "allocations": 6642,
      "évaluations": 6643,
      "certaine": 6644,
      "garet": 6645,
      "bénévole": 6646,
      "tisation": 6647,
      "reuses": 6648,
      "troi": 6649,
      "mater": 6650,
      "métal": 6651,
      "cogni": 6652,
      "créance": 6653,
      "alisme": 6654,
      "commission": 6655,
      "commissions": 6656,
      "tétra": 6657,
      "tubes": 6658,
      "mettant": 6659,
      "emplois": 6660,
      "bactéri": 6661,
      "JO": 6662,
      "ny": 6663,
      "révélé": 6664,
      "Be": 6665,
      "T0": 6666,
      "bit": 6667,
      "cartes": 6668,
      "forces": 6669,
      "mettent": 6670,
      "mené": 6671,
      "honorable": 6672,
      "PER": 6673,
      "omen": 6674,
      "conservation": 6675,
      "douanière": 6676,
      "sain": 6677,
      "route": 6678,
      "hôte": 6679,
      "égi": 6680,
      "procurer": 6681,
      "Partenariats": 6682,
      "correction": 6683,
      "succurs": 6684,
      "oxyd": 6685,
      "exacts": 6686,
      "Anne": 6687,
      "associée": 6688,
      "vaccin": 6689,
      "civil": 6690,
      "souhaite": 6691,
      "AG": 6692,
      "Page": 6693,
      "Seu": 6694,
      "composé": 6695,
      "résistance": 6696,
      "destiné": 6697,
      "substitu": 6698,
      "bran": 6699,
      "évid": 6700,
      "mentor": 6701,
      "venus": 6702,
      "Contexte": 6703,
      "velopment": 6704,
      "choisi": 6705,
      "existantes": 6706,
      "conformes": 6707,
      "905": 6708,
      "circulaire": 6709,
      "480": 6710,
      "PN": 6711,
      "applications": 6712,
      "adopter": 6713,
      "colle": 6714,
      "sodi": 6715,
      "établit": 6716,
      "fréqu": 6717,
      "London": 6718,
      "Colle": 6719,
      "But": 6720,
      "Na": 6721,
      "ili": 6722,
      "présentant": 6723,
      "déclarés": 6724,
      "tics": 6725,
      "administrer": 6726,
      "cède": 6727,
      "produisez": 6728,
      "montre": 6729,
      "chaî": 6730,
      "simplement": 6731,
      "démo": 6732,
      "Smith": 6733,
      "lib": 6734,
      "fonctionnaires": 6735,
      "approfon": 6736,
      "Hé": 6737,
      "ûts": 6738,
      "suici": 6739,
      "préval": 6740,
      "transférer": 6741,
      "alcoo": 6742,
      "emballage": 6743,
      "exploration": 6744,
      "accompli": 6745,
      "joint": 6746,
      "inclusion": 6747,
      "ultérieure": 6748,
      "RÉFÉRENCES": 6749,
      "interdisciplinaire": 6750,
      "précises": 6751,
      "remplace": 6752,
      "Tu": 6753,
      "déduit": 6754,
      "croy": 6755,
      "Aucune": 6756,
      "rc": 6757,
      "modes": 6758,
      "profil": 6759,
      "classées": 6760,
      "contrôlés": 6761,
      "mauva": 6762,
      "marges": 6763,
      "attentes": 6764,
      "valide": 6765,
      "OT": 6766,
      "Vis": 6767,
      "ïs": 6768,
      "venant": 6769,
      "Quelles": 6770,
      "administrative": 6771,
      "Biens": 6772,
      "Compte": 6773,
      "ordonnées": 6774,
      "annoncer": 6775,
      "vend": 6776,
      "lège": 6777,
      "supérieures": 6778,
      "permanente": 6779,
      "caoutchouc": 6780,
      "750": 6781,
      "Aéroport": 6782,
      "pluri": 6783,
      "191": 6784,
      "incluse": 6785,
      "accepte": 6786,
      "health": 6787,
      "succession": 6788,
      "solide": 6789,
      "HU": 6790,
      "rand": 6791,
      "ana": 6792,
      "incom": 6793,
      "ONG": 6794,
      "Corée": 6795,
      "Unies": 6796,
      "manus": 6797,
      "environnementaux": 6798,
      "renferme": 6799,
      "Moyen": 6800,
      "SEIG": 6801,
      "propriétaires": 6802,
      "Prestation": 6803,
      "requises": 6804,
      "logiciel": 6805,
      "satisfaire": 6806,
      "adhésion": 6807,
      "Coun": 6808,
      "with": 6809,
      "all": 6810,
      "Para": 6811,
      "commande": 6812,
      "sollic": 6813,
      "régulièrement": 6814,
      "DON": 6815,
      "OIS": 6816,
      "ève": 6817,
      "suppri": 6818,
      "ATIONS": 6819,
      "personn": 6820,
      "osium": 6821,
      "agences": 6822,
      "répondu": 6823,
      "............": 6824,
      "courrier": 6825,
      "èvement": 6826,
      "remis": 6827,
      "portatif": 6828,
      "chauff": 6829,
      "opinion": 6830,
      "rose": 6831,
      "géograph": 6832,
      "accordées": 6833,
      "alogue": 6834,
      "pyri": 6835,
      "itent": 6836,
      "mélan": 6837,
      "accorde": 6838,
      "radio": 6839,
      "LAND": 6840,
      "plant": 6841,
      "cultur": 6842,
      "vac": 6843,
      "touche": 6844,
      "alisés": 6845,
      "scolaires": 6846,
      "Facul": 6847,
      "LIC": 6848,
      "histor": 6849,
      "protég": 6850,
      "allou": 6851,
      "Brom": 6852,
      "dépasser": 6853,
      "Appel": 6854,
      "régie": 6855,
      "postale": 6856,
      "autant": 6857,
      "communiqués": 6858,
      "désigne": 6859,
      "norm": 6860,
      "chimiques": 6861,
      "licences": 6862,
      "précédent": 6863,
      "Véri": 6864,
      "entrevues": 6865,
      "postal": 6866,
      "modifiée": 6867,
      "pés": 6868,
      "collaborer": 6869,
      "attendre": 6870,
      "révocation": 6871,
      "Droits": 6872,
      "isant": 6873,
      "fiduciaire": 6874,
      "imprimés": 6875,
      "Rec": 6876,
      "reproduction": 6877,
      "auraient": 6878,
      "situés": 6879,
      "514": 6880,
      "ile": 6881,
      "existants": 6882,
      "avancement": 6883,
      "erreurs": 6884,
      "D11": 6885,
      "cohor": 6886,
      "impression": 6887,
      "annuelles": 6888,
      "conclure": 6889,
      "chefs": 6890,
      "incluses": 6891,
      "700": 6892,
      "déclarées": 6893,
      "équilibre": 6894,
      "thérapeutiques": 6895,
      "Atelier": 6896,
      "NAS": 6897,
      "désignation": 6898,
      "intéressées": 6899,
      "praticiens": 6900,
      "Willi": 6901,
      "drome": 6902,
      "lumière": 6903,
      "ASSOCI": 6904,
      "désirez": 6905,
      "préliminaire": 6906,
      "fur": 6907,
      "pom": 6908,
      "posées": 6909,
      "INTE": 6910,
      "Martin": 6911,
      "1988": 6912,
      "))": 6913,
      "nataire": 6914,
      "boî": 6915,
      "pandémie": 6916,
      "simples": 6917,
      "stocks": 6918,
      "histoire": 6919,
      "Lisez": 6920,
      "coopération": 6921,
      "issements": 6922,
      "Alli": 6923,
      "EXPRES": 6924,
      "Gouvernement": 6925,
      "verbal": 6926,
      "Initiatives": 6927,
      "communiqué": 6928,
      "troph": 6929,
      "recev": 6930,
      "synthé": 6931,
      "distinctes": 6932,
      "délégu": 6933,
      "efficacement": 6934,
      "collègues": 6935,
      "813": 6936,
      "Foun": 6937,
      "ano": 6938,
      "conseiller": 6939,
      "533": 6940,
      "rente": 6941,
      "Coûts": 6942,
      "antibio": 6943,
      "disponibilité": 6944,
      "pouvoirs": 6945,
      "approvisionnement": 6946,
      "Jan": 6947,
      "annexes": 6948,
      "intéressant": 6949,
      "mémoire": 6950,
      "stu": 6951,
      "posage": 6952,
      "trant": 6953,
      "profiter": 6954,
      "quelconque": 6955,
      "psychia": 6956,
      "PUB": 6957,
      "Saint": 6958,
      "dyna": 6959,
      "Let": 6960,
      "autocotisation": 6961,
      "Paragraph": 6962,
      "Bé": 6963,
      "communes": 6964,
      "externe": 6965,
      "Bay": 6966,
      "abé": 6967,
      "relever": 6968,
      "Quel": 6969,
      "Franç": 6970,
      "FACT": 6971,
      "MT": 6972,
      "autor": 6973,
      "111": 6974,
      "149": 6975,
      "LEY": 6976,
      "proposés": 6977,
      "Règles": 6978,
      "vraisemblablement": 6979,
      "lauré": 6980,
      "mas": 6981,
      "donateur": 6982,
      "130": 6983,
      "incluez": 6984,
      "énumérés": 6985,
      "EP": 6986,
      "Sus": 6987,
      "gure": 6988,
      "résil": 6989,
      "Immigration": 6990,
      "R2": 6991,
      "ks": 6992,
      "interdisciplinaires": 6993,
      "potentiels": 6994,
      "0W": 6995,
      "Brésil": 6996,
      "Crit": 6997,
      "amortissables": 6998,
      "Particip": 6999,
      "Amer": 7000,
      "défaut": 7001,
      "traité": 7002,
      "primaires": 7003,
      "octroi": 7004,
      "exercices": 7005,
      "coopéra": 7006,
      "Air": 7007,
      "TES": 7008,
      "ITS": 7009,
      "puisqu": 7010,
      "probablement": 7011,
      "futurs": 7012,
      "Éth": 7013,
      "tait": 7014,
      "composition": 7015,
      "réc": 7016,
      "Examen": 7017,
      "PORTA": 7018,
      "RRQ": 7019,
      "èdent": 7020,
      "FCE": 7021,
      "fournies": 7022,
      "suggé": 7023,
      "séminaires": 7024,
      "degré": 7025,
      "renvoi": 7026,
      "procédé": 7027,
      "franch": 7028,
      "graphique": 7029,
      "SEIGNE": 7030,
      "appliquera": 7031,
      "cyclo": 7032,
      "Professeur": 7033,
      "William": 7034,
      "flo": 7035,
      "tradu": 7036,
      "visiteurs": 7037,
      "lacements": 7038,
      "inoxyd": 7039,
      "orge": 7040,
      "XXXXXX": 7041,
      "fichier": 7042,
      "autonomie": 7043,
      "Foundation": 7044,
      "nommé": 7045,
      "associations": 7046,
      "analyses": 7047,
      "régler": 7048,
      "immunitaire": 7049,
      "Présent": 7050,
      "détru": 7051,
      "Émis": 7052,
      "garantir": 7053,
      "Sécurité": 7054,
      "CGI": 7055,
      "quette": 7056,
      "chim": 7057,
      "parfois": 7058,
      "résum": 7059,
      "central": 7060,
      "meuble": 7061,
      "Gains": 7062,
      "Type": 7063,
      "fro": 7064,
      "ciation": 7065,
      "acéta": 7066,
      "Commis": 7067,
      "affér": 7068,
      "décrire": 7069,
      "récep": 7070,
      "versions": 7071,
      "titudes": 7072,
      "Notes": 7073,
      "participe": 7074,
      "entier": 7075,
      "Patri": 7076,
      "toxicomanie": 7077,
      "décédé": 7078,
      "tuyaux": 7079,
      "fort": 7080,
      "déclare": 7081,
      "europé": 7082,
      "1227": 7083,
      "missibilité": 7084,
      "Ceci": 7085,
      "Genre": 7086,
      "IB": 7087,
      "Rus": 7088,
      "delà": 7089,
      "informé": 7090,
      "Sujets": 7091,
      "inscrite": 7092,
      "corporels": 7093,
      "cardiovasculaires": 7094,
      "assistance": 7095,
      "1987": 7096,
      "juge": 7097,
      "signer": 7098,
      "douanement": 7099,
      "constaté": 7100,
      "plais": 7101,
      "répondent": 7102,
      "blanc": 7103,
      "Den": 7104,
      "inflam": 7105,
      "imposée": 7106,
      "permanents": 7107,
      "Carol": 7108,
      "demeur": 7109,
      "aig": 7110,
      "fonde": 7111,
      "Montants": 7112,
      "glu": 7113,
      "guer": 7114,
      "diffère": 7115,
      "trimestre": 7116,
      "roris": 7117,
      "émission": 7118,
      "cumul": 7119,
      "exemplaire": 7120,
      "exigibles": 7121,
      "hautement": 7122,
      "Atlantique": 7123,
      "BS": 7124,
      "Cad": 7125,
      "atives": 7126,
      "gion": 7127,
      "ISFRS": 7128,
      "indemnité": 7129,
      "ache": 7130,
      "connaissent": 7131,
      "conjointe": 7132,
      "REGION": 7133,
      "contraire": 7134,
      "débu": 7135,
      "180": 7136,
      "imagerie": 7137,
      "tendance": 7138,
      "éventuels": 7139,
      "localité": 7140,
      "Paiements": 7141,
      "contac": 7142,
      "forum": 7143,
      "moder": 7144,
      "assez": 7145,
      "Version": 7146,
      "Opé": 7147,
      "PFCE": 7148,
      "R3": 7149,
      "mations": 7150,
      "appelé": 7151,
      "appuient": 7152,
      "hydrate": 7153,
      "900": 7154,
      "envoi": 7155,
      "tumeurs": 7156,
      "concert": 7157,
      "examinées": 7158,
      "décidé": 7159,
      "alphabé": 7160,
      "démontré": 7161,
      "amilton": 7162,
      "tisme": 7163,
      "sembles": 7164,
      "arrive": 7165,
      "Aperçu": 7166,
      "Hamilton": 7167,
      "chanis": 7168,
      "Prom": 7169,
      "Ameri": 7170,
      "BUR": 7171,
      "relig": 7172,
      "Enqu": 7173,
      "examine": 7174,
      "spécifiés": 7175,
      "RENSEIGNE": 7176,
      "North": 7177,
      "350": 7178,
      "terres": 7179,
      "asfc": 7180,
      "Pierre": 7181,
      "Aucun": 7182,
      "additionnels": 7183,
      "cier": 7184,
      "acé": 7185,
      "ARY": 7186,
      "amine": 7187,
      "envoyée": 7188,
      "D13": 7189,
      "Mari": 7190,
      "faibles": 7191,
      "sément": 7192,
      "relevant": 7193,
      "systématique": 7194,
      "administrations": 7195,
      "Admissibilité": 7196,
      "ELL": 7197,
      "satisfait": 7198,
      "pétrole": 7199,
      "religie": 7200,
      "Sco": 7201,
      "donnés": 7202,
      "nommés": 7203,
      "Cl": 7204,
      "liz": 7205,
      "labore": 7206,
      "ATER": 7207,
      "privilégi": 7208,
      "avocat": 7209,
      "publicité": 7210,
      "octroy": 7211,
      "VIS": 7212,
      "uis": 7213,
      "importer": 7214,
      "conçus": 7215,
      "expressément": 7216,
      "Poin": 7217,
      "gestionnaire": 7218,
      "classés": 7219,
      "Cerveau": 7220,
      "carbon": 7221,
      "côté": 7222,
      "NATION": 7223,
      "diam": 7224,
      "gique": 7225,
      "inet": 7226,
      "termine": 7227,
      "Conditions": 7228,
      "reflè": 7229,
      "ving": 7230,
      "tire": 7231,
      "vérit": 7232,
      "phéno": 7233,
      "approuvés": 7234,
      "perspectives": 7235,
      "grippe": 7236,
      "Faculté": 7237,
      "Mor": 7238,
      "dona": 7239,
      "homme": 7240,
      "genres": 7241,
      "EDIFACT": 7242,
      "Taipei": 7243,
      "manifes": 7244,
      "Avec": 7245,
      "cases": 7246,
      "ronde": 7247,
      "opportun": 7248,
      "Fre": 7249,
      "Ho": 7250,
      "remettre": 7251,
      "QUES": 7252,
      "randomis": 7253,
      "Sing": 7254,
      "aume": 7255,
      "surface": 7256,
      "onnements": 7257,
      "utilisateur": 7258,
      "Patrimoine": 7259,
      "MER": 7260,
      "idée": 7261,
      "trée": 7262,
      "réglementaires": 7263,
      "garder": 7264,
      "attribuable": 7265,
      "consommateurs": 7266,
      "Messa": 7267,
      "département": 7268,
      "prote": 7269,
      "force": 7270,
      "tisé": 7271,
      "GROU": 7272,
      "Ltée": 7273,
      "tificats": 7274,
      "élimination": 7275,
      "envergure": 7276,
      "pauvre": 7277,
      "ara": 7278,
      "rembourser": 7279,
      "Établir": 7280,
      "T500": 7281,
      "calculée": 7282,
      "distinct": 7283,
      "espr": 7284,
      "reli": 7285,
      "contribuent": 7286,
      "PAA": 7287,
      "Certificat": 7288,
      "bout": 7289,
      "découvert": 7290,
      "messagerie": 7291,
      "infirmières": 7292,
      "R0": 7293,
      "participantes": 7294,
      "gulation": 7295,
      "affectation": 7296,
      "Critères": 7297,
      "1989": 7298,
      "clari": 7299,
      "CSRCS": 7300,
      "MORAN": 7301,
      "indépendants": 7302,
      "Cadre": 7303,
      "accue": 7304,
      "XXXXXXXXXX": 7305,
      "énergie": 7306,
      "Intérê": 7307,
      "traitées": 7308,
      "ford": 7309,
      "crimes": 7310,
      "menée": 7311,
      "170": 7312,
      "inoxydable": 7313,
      "Bur": 7314,
      "Of": 7315,
      "hér": 7316,
      "issus": 7317,
      "entreposage": 7318,
      "Références": 7319,
      "Appareils": 7320,
      "cesse": 7321,
      "Andre": 7322,
      "heureux": 7323,
      "appara": 7324,
      "commune": 7325,
      "aidera": 7326,
      "contenants": 7327,
      "Méthode": 7328,
      "GL": 7329,
      "HOM": 7330,
      "ides": 7331,
      "rablement": 7332,
      "posez": 7333,
      "maïs": 7334,
      "Indiens": 7335,
      "affiché": 7336,
      "***": 7337,
      "récente": 7338,
      "Dons": 7339,
      "décrite": 7340,
      "résultant": 7341,
      "psycho": 7342,
      "Secrétariat": 7343,
      "ome": 7344,
      "préco": 7345,
      "ENTRE": 7346,
      "pertinente": 7347,
      "confirmer": 7348,
      "redressement": 7349,
      "chaîne": 7350,
      "chimie": 7351,
      "VM": 7352,
      "rechange": 7353,
      "liaison": 7354,
      "nateur": 7355,
      "estimation": 7356,
      "Pres": 7357,
      "détient": 7358,
      "déjeuner": 7359,
      "occupe": 7360,
      "manuscrits": 7361,
      "MORANDU": 7362,
      "Identi": 7363,
      "dédouanement": 7364,
      "fices": 7365,
      "212": 7366,
      "LTA": 7367,
      "terroris": 7368,
      "factures": 7369,
      "exiger": 7370,
      "céréb": 7371,
      "dédouanées": 7372,
      "zo": 7373,
      "transpar": 7374,
      "limitée": 7375,
      "TRANS": 7376,
      "recevez": 7377,
      "réparations": 7378,
      "concept": 7379,
      "VO": 7380,
      "truction": 7381,
      "croissant": 7382,
      "artifici": 7383,
      "ward": 7384,
      "extr": 7385,
      "classification": 7386,
      "expérimental": 7387,
      "vrai": 7388,
      "113": 7389,
      "chu": 7390,
      "RC40": 7391,
      "définitions": 7392,
      "ILL": 7393,
      "protéine": 7394,
      "consacré": 7395,
      "convenu": 7396,
      "témo": 7397,
      "apon": 7398,
      "attirer": 7399,
      "interaction": 7400,
      "imposés": 7401,
      "Indiquer": 7402,
      "Ques": 7403,
      "Limited": 7404,
      "menées": 7405,
      "définis": 7406,
      "Cy": 7407,
      "devi": 7408,
      "ast": 7409,
      "Royaume": 7410,
      "-$": 7411,
      "EU": 7412,
      "tabag": 7413,
      "tress": 7414,
      "TEL": 7415,
      "explication": 7416,
      "Conten": 7417,
      "allé": 7418,
      "nettes": 7419,
      "D17": 7420,
      "ADAP": 7421,
      "continues": 7422,
      "Appu": 7423,
      "Première": 7424,
      "FORMATION": 7425,
      "Questions": 7426,
      "Her": 7427,
      "parrain": 7428,
      "Budg": 7429,
      "ham": 7430,
      "détection": 7431,
      "RSON": 7432,
      "ministéri": 7433,
      "essentiellement": 7434,
      "plastique": 7435,
      "voyez": 7436,
      "médicament": 7437,
      "syndrome": 7438,
      "ignants": 7439,
      "0W9": 7440,
      "conventions": 7441,
      "ontari": 7442,
      "récol": 7443,
      "esprit": 7444,
      "tabagisme": 7445,
      "Fait": 7446,
      "consécu": 7447,
      "stand": 7448,
      "avion": 7449,
      "Industri": 7450,
      "ortium": 7451,
      "devait": 7452,
      "oudre": 7453,
      "dihydro": 7454,
      "perception": 7455,
      "Provin": 7456,
      "suicide": 7457,
      "interdit": 7458,
      "publiés": 7459,
      "causer": 7460,
      "continuent": 7461,
      "continuera": 7462,
      "facilement": 7463,
      "MÉMORANDU": 7464,
      "magné": 7465,
      "menace": 7466,
      "tiendra": 7467,
      "banque": 7468,
      "Peti": 7469,
      "Tech": 7470,
      "Annonce": 7471,
      "hex": 7472,
      "uel": 7473,
      "concentre": 7474,
      "considérablement": 7475,
      "Ses": 7476,
      "Sul": 7477,
      "gre": 7478,
      "espé": 7479,
      "ALES": 7480,
      "dérivés": 7481,
      "pauvreté": 7482,
      "confé": 7483,
      "travaillé": 7484,
      "réserves": 7485,
      "remplacer": 7486,
      "CRSNG": 7487,
      "convain": 7488,
      "bons": 7489,
      "ka": 7490,
      "ld": 7491,
      "préser": 7492,
      "résidant": 7493,
      "Doug": 7494,
      "procès": 7495,
      "références": 7496,
      "uniques": 7497,
      "frau": 7498,
      "engager": 7499,
      "approuver": 7500,
      "COUN": 7501,
      "DP": 7502,
      "conformer": 7503,
      "ENU": 7504,
      "lèvent": 7505,
      "judiciaire": 7506,
      "Faire": 7507,
      "reliés": 7508,
      "cats": 7509,
      "2010": 7510,
      "Marie": 7511,
      "banca": 7512,
      "municipalités": 7513,
      "citoyenneté": 7514,
      "Austra": 7515,
      "oui": 7516,
      "disposé": 7517,
      "Coordon": 7518,
      "multidisciplinaires": 7519,
      "Fourn": 7520,
      "arrangement": 7521,
      "kins": 7522,
      "èse": 7523,
      "arme": 7524,
      "déchets": 7525,
      "examinateurs": 7526,
      "éduca": 7527,
      "sportives": 7528,
      "antérieures": 7529,
      "structur": 7530,
      "Ber": 7531,
      "décri": 7532,
      "iteur": 7533,
      "Inclu": 7534,
      "LAKE": 7535,
      "partager": 7536,
      "BOARD": 7537,
      "Michel": 7538,
      "NC": 7539,
      "Zone": 7540,
      "cts": 7541,
      "bandes": 7542,
      "HA": 7543,
      "way": 7544,
      "siège": 7545,
      "classé": 7546,
      "signale": 7547,
      "aborder": 7548,
      "antibiotiques": 7549,
      "reux": 7550,
      "cible": 7551,
      "minorités": 7552,
      "Traitement": 7553,
      "rurale": 7554,
      "souligner": 7555,
      "Cir": 7556,
      "cuivre": 7557,
      "désigner": 7558,
      "Society": 7559,
      "différends": 7560,
      "royale": 7561,
      "Sour": 7562,
      "A0": 7563,
      "trième": 7564,
      "soumises": 7565,
      "presta": 7566,
      "NET": 7567,
      "dividende": 7568,
      "Étude": 7569,
      "filiale": 7570,
      "RA": 7571,
      "ÉE": 7572,
      "détenus": 7573,
      "usines": 7574,
      "grain": 7575,
      "spécialement": 7576,
      "lancer": 7577,
      "TAU": 7578,
      "axé": 7579,
      "Objectif": 7580,
      "Plusieurs": 7581,
      "$/": 7582,
      "Pas": 7583,
      "déte": 7584,
      "composés": 7585,
      "rions": 7586,
      "monétaire": 7587,
      "contribue": 7588,
      "chargement": 7589,
      "Syn": 7590,
      "Région": 7591,
      "approuvée": 7592,
      "Taxe": 7593,
      "450": 7594,
      "conféren": 7595,
      "honoraires": 7596,
      "TARIF": 7597,
      "pous": 7598,
      "tenez": 7599,
      "oses": 7600,
      "loyer": 7601,
      "Inu": 7602,
      "présentations": 7603,
      "appliquées": 7604,
      "COOPERATIVE": 7605,
      "relevé": 7606,
      "prochain": 7607,
      "équitable": 7608,
      "Transfert": 7609,
      "RMR": 7610,
      "occuper": 7611,
      "entraînement": 7612,
      "pent": 7613,
      "incapacité": 7614,
      "medi": 7615,
      "certificats": 7616,
      "arriver": 7617,
      "PQ": 7618,
      "zéro": 7619,
      "relève": 7620,
      "CIC": 7621,
      "férenti": 7622,
      "individuels": 7623,
      "Cito": 7624,
      "Kar": 7625,
      "inqui": 7626,
      "usine": 7627,
      "Compan": 7628,
      "lieux": 7629,
      "STR": 7630,
      "York": 7631,
      "ENTR": 7632,
      "TAB": 7633,
      "actionnaire": 7634,
      "actionnaires": 7635,
      "acceptation": 7636,
      "cumula": 7637,
      "demandée": 7638,
      "Enfin": 7639,
      "Moins": 7640,
      "dentaire": 7641,
      "gère": 7642,
      "pôts": 7643,
      "naturel": 7644,
      "Étape": 7645,
      "consultatifs": 7646,
      "OMS": 7647,
      "préférenti": 7648,
      "ulent": 7649,
      "rin": 7650,
      "sac": 7651,
      "apprendre": 7652,
      "old": 7653,
      "Op": 7654,
      "SDR": 7655,
      "aéro": 7656,
      "achète": 7657,
      "transferts": 7658,
      "tendances": 7659,
      "individus": 7660,
      "calculs": 7661,
      "joignez": 7662,
      "mots": 7663,
      "graphie": 7664,
      "pharmac": 7665,
      "périodique": 7666,
      "Pendant": 7667,
      "ys": 7668,
      "cultures": 7669,
      "Matière": 7670,
      "--------": 7671,
      "tests": 7672,
      "Ben": 7673,
      "Feuille": 7674,
      "gations": 7675,
      "race": 7676,
      "apparti": 7677,
      "bicyc": 7678,
      "englo": 7679,
      "respectivement": 7680,
      "logique": 7681,
      "intellectuelle": 7682,
      "Cé": 7683,
      "légi": 7684,
      "contrôles": 7685,
      "originale": 7686,
      "brevet": 7687,
      "++": 7688,
      "Ru": 7689,
      "wbac": 7690,
      "low": 7691,
      "perfor": 7692,
      "Transport": 7693,
      "familial": 7694,
      "diminution": 7695,
      "culo": 7696,
      "démarche": 7697,
      "archives": 7698,
      "Identification": 7699,
      "tuel": 7700,
      "mate": 7701,
      "mobilité": 7702,
      "classe": 7703,
      "Paragraphe": 7704,
      "Ba": 7705,
      "ker": 7706,
      "passés": 7707,
      "synthèse": 7708,
      "Network": 7709,
      "périodiques": 7710,
      "dange": 7711,
      "rine": 7712,
      "privés": 7713,
      "grosses": 7714,
      "connexe": 7715,
      "accumul": 7716,
      "endo": 7717,
      "dule": 7718,
      "CII": 7719,
      "LET": 7720,
      "brooke": 7721,
      "Citoyenneté": 7722,
      "salle": 7723,
      "Moyenne": 7724,
      "sh": 7725,
      "laminés": 7726,
      "Val": 7727,
      "102": 7728,
      "offrant": 7729,
      "quantités": 7730,
      "Justice": 7731,
      "matériaux": 7732,
      "amide": 7733,
      "changé": 7734,
      "Excell": 7735,
      "éthyle": 7736,
      "nord": 7737,
      "linguis": 7738,
      "RIV": 7739,
      "prions": 7740,
      "114": 7741,
      "remplie": 7742,
      "limiter": 7743,
      "exonérés": 7744,
      "Instruments": 7745,
      "empêcher": 7746,
      "GÉ": 7747,
      "anima": 7748,
      "mpiques": 7749,
      "exceptions": 7750,
      "peine": 7751,
      "organisés": 7752,
      "tarif": 7753,
      "guerre": 7754,
      "désignées": 7755,
      "fruits": 7756,
      "Alliance": 7757,
      "Pla": 7758,
      "pros": 7759,
      "vivent": 7760,
      "séjour": 7761,
      "491": 7762,
      "identiques": 7763,
      "exonérées": 7764,
      "ix": 7765,
      "lecular": 7766,
      "acquiert": 7767,
      "Quand": 7768,
      "ICH": 7769,
      "rubri": 7770,
      "nécessairement": 7771,
      "choisis": 7772,
      "prévoient": 7773,
      "talité": 7774,
      "Protection": 7775,
      "prescription": 7776,
      "offerte": 7777,
      "ajoutée": 7778,
      "remboursé": 7779,
      "én": 7780,
      "248": 7781,
      "précisément": 7782,
      "transférée": 7783,
      "institutionnels": 7784,
      "combinaison": 7785,
      "amortissable": 7786,
      "rentes": 7787,
      "ston": 7788,
      "jeunesse": 7789,
      "alpha": 7790,
      "stress": 7791,
      "îner": 7792,
      "prohib": 7793,
      "fiées": 7794,
      "prévoir": 7795,
      "produisent": 7796,
      "Dédu": 7797,
      "apitres": 7798,
      "croire": 7799,
      "effort": 7800,
      "transactionnelle": 7801,
      "Paci": 7802,
      "canada": 7803,
      "1985": 7804,
      "imposées": 7805,
      "thématiques": 7806,
      "LOI": 7807,
      "loisirs": 7808,
      "District": 7809,
      "RENSEIGNEMENTS": 7810,
      "Message": 7811,
      "LT": 7812,
      "terie": 7813,
      "plafond": 7814,
      "Mesures": 7815,
      "CLAR": 7816,
      "rév": 7817,
      "Utilisation": 7818,
      "Laurier": 7819,
      "T11": 7820,
      "détent": 7821,
      "saisi": 7822,
      "256": 7823,
      "musi": 7824,
      "Maj": 7825,
      "énonce": 7826,
      "pér": 7827,
      "fondés": 7828,
      "illants": 7829,
      "menu": 7830,
      "Rencontre": 7831,
      "complexe": 7832,
      "disparités": 7833,
      "Wh": 7834,
      "tter": 7835,
      "trousse": 7836,
      "Codes": 7837,
      "machine": 7838,
      "commençant": 7839,
      "brevets": 7840,
      "mouvement": 7841,
      "Thom": 7842,
      "ory": 7843,
      "régénéra": 7844,
      "exporté": 7845,
      "copropriété": 7846,
      "INFORMATION": 7847,
      "sortie": 7848,
      "intégrée": 7849,
      "salariale": 7850,
      "étiez": 7851,
      "Sherbrooke": 7852,
      "quet": 7853,
      "cruci": 7854,
      "étudie": 7855,
      "trodu": 7856,
      "chiffre": 7857,
      "Budget": 7858,
      "soustra": 7859,
      "souris": 7860,
      "PROF": 7861,
      "acceptables": 7862,
      "hausse": 7863,
      "chronique": 7864,
      "diteur": 7865,
      "écart": 7866,
      "Ger": 7867,
      "146": 7868,
      "circulation": 7869,
      "FS": 7870,
      "onstration": 7871,
      "séri": 7872,
      "combler": 7873,
      "comparaison": 7874,
      "IRC": 7875,
      "navi": 7876,
      "WIN": 7877,
      "longueur": 7878,
      "TCCE": 7879,
      "PCSR": 7880,
      "harmonisé": 7881,
      "réflexi": 7882,
      "FIN": 7883,
      "marchandise": 7884,
      "RC4": 7885,
      "CPM": 7886,
      "moindre": 7887,
      "achetés": 7888,
      "douaniers": 7889,
      "\",": 7890,
      "phos": 7891,
      "190": 7892,
      "204": 7893,
      "prennent": 7894,
      "ajout": 7895,
      "saisie": 7896,
      "raciale": 7897,
      "qual": 7898,
      "rien": 7899,
      "effectivement": 7900,
      "privées": 7901,
      "patite": 7902,
      "Main": 7903,
      "sure": 7904,
      "directions": 7905,
      "ordinaire": 7906,
      "branche": 7907,
      "Opérations": 7908,
      "ADAPTEUR": 7909,
      "LIS": 7910,
      "od": 7911,
      "cotées": 7912,
      "agement": 7913,
      "intégré": 7914,
      "solides": 7915,
      "progresser": 7916,
      "function": 7917,
      "Fa": 7918,
      "Hy": 7919,
      "bos": 7920,
      "cb": 7921,
      "ury": 7922,
      "créances": 7923,
      "doute": 7924,
      "drawbac": 7925,
      "èges": 7926,
      "définie": 7927,
      "correspondance": 7928,
      "polyester": 7929,
      "aéroport": 7930,
      "gir": 7931,
      "prouver": 7932,
      "exhaus": 7933,
      "domma": 7934,
      "Décret": 7935,
      "accélérer": 7936,
      "MARCH": 7937,
      "Rou": 7938,
      "Sol": 7939,
      "1143": 7940,
      "médical": 7941,
      "promoteur": 7942,
      "Organismes": 7943,
      "Women": 7944,
      "club": 7945,
      "constituée": 7946,
      "joue": 7947,
      "Reg": 7948,
      "remplit": 7949,
      "normal": 7950,
      "fabricants": 7951,
      "Éducation": 7952,
      "chant": 7953,
      "chées": 7954,
      "dialogue": 7955,
      "métaux": 7956,
      "ONE": 7957,
      "exercé": 7958,
      "significa": 7959,
      "libertés": 7960,
      "Clini": 7961,
      "Company": 7962,
      "CPMREV": 7963,
      "Phi": 7964,
      "veulent": 7965,
      "impose": 7966,
      "Ministre": 7967,
      "Oc": 7968,
      "Pacte": 7969,
      "charger": 7970,
      "épaisse": 7971,
      "BAY": 7972,
      "103": 7973,
      "124": 7974,
      "Colonne": 7975,
      "Indice": 7976,
      "anticipée": 7977,
      "JVM": 7978,
      "tance": 7979,
      "aurez": 7980,
      "diction": 7981,
      "faction": 7982,
      "pouvait": 7983,
      "située": 7984,
      "boursiers": 7985,
      "infractions": 7986,
      "Lin": 7987,
      "invalidité": 7988,
      "alisé": 7989,
      "visibles": 7990,
      "attribués": 7991,
      "criminel": 7992,
      "rénovations": 7993,
      "pables": 7994,
      "Inves": 7995,
      "réside": 7996,
      "représenter": 7997,
      "Donald": 7998,
      "Employ": 7999,
      "Commissaire": 8000,
      "ciné": 8001,
      "Élé": 8002,
      "demment": 8003,
      "itex": 8004,
      "décitex": 8005,
      "axées": 8006,
      "légales": 8007,
      "ïne": 8008,
      "renfer": 8009,
      "cycles": 8010,
      "WATER": 8011,
      "univer": 8012,
      "supr": 8013,
      "mettra": 8014,
      "view": 8015,
      "ETY": 8016,
      "></": 8017,
      "Péri": 8018,
      "yez": 8019,
      "courtiers": 8020,
      "sexes": 8021,
      "ulti": 8022,
      "entités": 8023,
      "électriques": 8024,
      "Conseils": 8025,
      "résolution": 8026,
      "UNE": 8027,
      "appliqué": 8028,
      "conservés": 8029,
      "protocoles": 8030,
      "ement": 8031,
      "Sick": 8032,
      "Conclu": 8033,
      "Group": 8034,
      "confirmation": 8035,
      "étendue": 8036,
      "PCSRA": 8037,
      "980": 8038,
      "PT": 8039,
      "prime": 8040,
      "dirigeants": 8041,
      "Cel": 8042,
      "lun": 8043,
      "annule": 8044,
      "Care": 8045,
      "0L5": 8046,
      "arrangements": 8047,
      "consensus": 8048,
      "franchise": 8049,
      "RAC": 8050,
      "alition": 8051,
      "TED": 8052,
      "imprimer": 8053,
      "Syste": 8054,
      "guider": 8055,
      "corriger": 8056,
      "Ox": 8057,
      "PM": 8058,
      "URS": 8059,
      "Wa": 8060,
      "osta": 8061,
      "Chef": 8062,
      "surveiller": 8063,
      "Crédits": 8064,
      "stipule": 8065,
      "scène": 8066,
      "ates": 8067,
      "interro": 8068,
      "compens": 8069,
      "140": 8070,
      "iz": 8071,
      "conversion": 8072,
      "colon": 8073,
      "visites": 8074,
      "courte": 8075,
      "envoyés": 8076,
      "réputés": 8077,
      "servation": 8078,
      "calculés": 8079,
      "Industrie": 8080,
      "College": 8081,
      "Douglas": 8082,
      "CÉ": 8083,
      "ier": 8084,
      "ANCE": 8085,
      "pertinent": 8086,
      "…………": 8087,
      "Bou": 8088,
      "VEN": 8089,
      "vants": 8090,
      "tirées": 8091,
      "asthme": 8092,
      "ligence": 8093,
      "enza": 8094,
      "trimestri": 8095,
      "cami": 8096,
      "fabriqués": 8097,
      "Formation": 8098,
      "LIM": 8099,
      "masse": 8100,
      "itez": 8101,
      "originaire": 8102,
      "majeures": 8103,
      "justifier": 8104,
      "néglige": 8105,
      "subventionnées": 8106,
      "957": 8107,
      "Téléc": 8108,
      "tableaux": 8109,
      "Bromure": 8110,
      "Eff": 8111,
      "NB": 8112,
      "devenu": 8113,
      "rey": 8114,
      "contres": 8115,
      "randomisés": 8116,
      "escomp": 8117,
      "devenue": 8118,
      "plate": 8119,
      "hépatite": 8120,
      "dirigé": 8121,
      "symposium": 8122,
      "détenteur": 8123,
      "240": 8124,
      "WO": 8125,
      "printemps": 8126,
      "perspective": 8127,
      "ted": 8128,
      "side": 8129,
      "motif": 8130,
      "précé": 8131,
      "résoudre": 8132,
      "ouverte": 8133,
      "ocy": 8134,
      "innovateurs": 8135,
      "fondamentales": 8136,
      "hypertension": 8137,
      "HOMES": 8138,
      "ND": 8139,
      "uration": 8140,
      "accru": 8141,
      "Recomman": 8142,
      "téléphoniques": 8143,
      "Australie": 8144,
      "GRC": 8145,
      "Sans": 8146,
      "pron": 8147,
      "cigaret": 8148,
      "ash": 8149,
      "minimale": 8150,
      "IA": 8151,
      "P0": 8152,
      "uro": 8153,
      "réforme": 8154,
      "raîch": 8155,
      "décider": 8156,
      "spécialisés": 8157,
      "exactitude": 8158,
      "substances": 8159,
      "recevront": 8160,
      "Susan": 8161,
      "V0": 8162,
      "inobservation": 8163,
      "parler": 8164,
      "exploitée": 8165,
      "naturels": 8166,
      "fournissez": 8167,
      "municipa": 8168,
      "HAM": 8169,
      "Stu": 8170,
      "eral": 8171,
      "jugées": 8172,
      "distincts": 8173,
      "Phili": 8174,
      "Tur": 8175,
      "lire": 8176,
      "dotation": 8177,
      "territoriales": 8178,
      "couverture": 8179,
      "invité": 8180,
      "souffrant": 8181,
      "Hébergement": 8182,
      "synthétiques": 8183,
      "American": 8184,
      "IPE": 8185,
      "Quelle": 8186,
      "numérique": 8187,
      "Stephen": 8188,
      "consoli": 8189,
      "vel": 8190,
      "201": 8191,
      "supplément": 8192,
      "mentionnée": 8193,
      "ancier": 8194,
      "largeur": 8195,
      "sexuelle": 8196,
      "Ado": 8197,
      "demi": 8198,
      "secon": 8199,
      "primaire": 8200,
      "recen": 8201,
      "exploité": 8202,
      "validation": 8203,
      "démé": 8204,
      "locale": 8205,
      "108": 8206,
      "maisons": 8207,
      "bénéfice": 8208,
      "trées": 8209,
      "conclue": 8210,
      "Prestations": 8211,
      "Guides": 8212,
      "influen": 8213,
      "demandent": 8214,
      "organiser": 8215,
      "effectif": 8216,
      "comparativement": 8217,
      "adéquate": 8218,
      "redevances": 8219,
      "Puisque": 8220,
      "230": 8221,
      "tors": 8222,
      "igner": 8223,
      "Excellence": 8224,
      "850": 8225,
      "Wal": 8226,
      "ition": 8227,
      "nité": 8228,
      "nons": 8229,
      "tamp": 8230,
      "considérable": 8231,
      "intéressent": 8232,
      "Définition": 8233,
      "autorise": 8234,
      "toyage": 8235,
      "116": 8236,
      "ISE": 8237,
      "Suite": 8238,
      "infirmiers": 8239,
      "émetteur": 8240,
      "réflexion": 8241,
      "CB": 8242,
      "lecteur": 8243,
      "exclus": 8244,
      "dispositifs": 8245,
      "consenti": 8246,
      "euses": 8247,
      "ÉES": 8248,
      "magne": 8249,
      "grave": 8250,
      "correspondent": 8251,
      "Politiques": 8252,
      "sanctions": 8253,
      "évidence": 8254,
      "mentorat": 8255,
      "GROUP": 8256,
      "Bon": 8257,
      "agence": 8258,
      "conjoints": 8259,
      "estimé": 8260,
      "travaillant": 8261,
      "Bru": 8262,
      "ACH": 8263,
      "frontières": 8264,
      "ordinaires": 8265,
      "accessibilité": 8266,
      "Commun": 8267,
      "respecte": 8268,
      "franco": 8269,
      "Archives": 8270,
      "cis": 8271,
      "entrent": 8272,
      "introdu": 8273,
      "role": 8274,
      "finales": 8275,
      "independant": 8276,
      "Mettre": 8277,
      "Science": 8278,
      "raîchissements": 8279,
      "EMP": 8280,
      "KI": 8281,
      "placebos": 8282,
      "exécutif": 8283,
      "rédaction": 8284,
      "lité": 8285,
      "mè": 8286,
      "esté": 8287,
      "1986": 8288,
      "itudin": 8289,
      "anciens": 8290,
      "complex": 8291,
      "culturalisme": 8292,
      "chanisms": 8293,
      "envelop": 8294,
      "ONTO": 8295,
      "navires": 8296,
      "ira": 8297,
      "zon": 8298,
      "semblent": 8299,
      "CRSH": 8300,
      "AIRES": 8301,
      "Bra": 8302,
      "UM": 8303,
      "bibliothè": 8304,
      "SAINTE": 8305,
      "facile": 8306,
      "CEP": 8307,
      "réelle": 8308,
      "crétion": 8309,
      "135": 8310,
      "jugé": 8311,
      "baisse": 8312,
      "exigent": 8313,
      "reconnue": 8314,
      "TNZ": 8315,
      "pharmaceutiques": 8316,
      "Faites": 8317,
      "Droit": 8318,
      "WS": 8319,
      "repé": 8320,
      "favorise": 8321,
      "chement": 8322,
      "Tarifs": 8323,
      "Trava": 8324,
      "entendre": 8325,
      "Alle": 8326,
      "crire": 8327,
      "conclut": 8328,
      "attaquer": 8329,
      "plantation": 8330,
      "460": 8331,
      "bain": 8332,
      "formés": 8333,
      "marques": 8334,
      "composantes": 8335,
      "recueillis": 8336,
      "racisme": 8337,
      "débat": 8338,
      "dimensions": 8339,
      "'-": 8340,
      "JET": 8341,
      "Mois": 8342,
      "concevoir": 8343,
      "déposé": 8344,
      "tert": 8345,
      "longtemps": 8346,
      "kilom": 8347,
      "AF": 8348,
      "anie": 8349,
      "Comm": 8350,
      "antici": 8351,
      "mortalité": 8352,
      "aident": 8353,
      "François": 8354,
      "Né": 8355,
      "ning": 8356,
      "sit": 8357,
      "onté": 8358,
      "organisateur": 8359,
      "ENA": 8360,
      "penser": 8361,
      "compétition": 8362,
      "demeurent": 8363,
      "bet": 8364,
      "gon": 8365,
      "relèvent": 8366,
      "cia": 8367,
      "matri": 8368,
      "cade": 8369,
      "Reten": 8370,
      "coordonner": 8371,
      "tants": 8372,
      "colo": 8373,
      "pass": 8374,
      "Reine": 8375,
      "engagée": 8376,
      "raffin": 8377,
      "sodium": 8378,
      "retirer": 8379,
      "incorpor": 8380,
      "chances": 8381,
      "Vice": 8382,
      "civils": 8383,
      "consci": 8384,
      "Sociétés": 8385,
      "existent": 8386,
      "formuler": 8387,
      "épaisseur": 8388,
      "jac": 8389,
      "laine": 8390,
      "tox": 8391,
      "concernent": 8392,
      "indiquées": 8393,
      "responsabilisation": 8394,
      "OS": 8395,
      "fique": 8396,
      "mond": 8397,
      "signée": 8398,
      "contrôlée": 8399,
      "Majesté": 8400,
      "suprême": 8401,
      "her": 8402,
      "¢/": 8403,
      "trau": 8404,
      "accompl": 8405,
      "aspect": 8406,
      "effici": 8407,
      "future": 8408,
      "Union": 8409,
      "champs": 8410,
      "fluoro": 8411,
      "destruction": 8412,
      "marqu": 8413,
      "aideront": 8414,
      "acquitter": 8415,
      "XIII": 8416,
      "divisions": 8417,
      "Parties": 8418,
      "TAWA": 8419,
      "exploit": 8420,
      "Assu": 8421,
      "supervision": 8422,
      "pulmon": 8423,
      "TORONTO": 8424,
      "030": 8425,
      "Divers": 8426,
      "lages": 8427,
      "melles": 8428,
      "actes": 8429,
      "résis": 8430,
      "bienvenue": 8431,
      "doub": 8432,
      "définit": 8433,
      "jouent": 8434,
      "aviser": 8435,
      "annonces": 8436,
      "revê": 8437,
      "démonstration": 8438,
      "issues": 8439,
      "Lu": 8440,
      "conflit": 8441,
      "instau": 8442,
      "540": 8443,
      "rang": 8444,
      "dettes": 8445,
      "row": 8446,
      "critique": 8447,
      "519": 8448,
      "ensé": 8449,
      "952": 8450,
      "reconnues": 8451,
      "SHIP": 8452,
      "téléphonique": 8453,
      "souligné": 8454,
      "Ros": 8455,
      "Sin": 8456,
      "atif": 8457,
      "auteurs": 8458,
      "rajustements": 8459,
      "méthy": 8460,
      "Ten": 8461,
      "ose": 8462,
      "payez": 8463,
      "mono": 8464,
      "factu": 8465,
      "attribuer": 8466,
      "compétente": 8467,
      "régulière": 8468,
      "Elgin": 8469,
      "rubrique": 8470,
      "cbsa": 8471,
      "anmoins": 8472,
      "isol": 8473,
      "pressions": 8474,
      "modifiés": 8475,
      "respiratoires": 8476,
      "Porte": 8477,
      "plaisir": 8478,
      "web": 8479,
      "choses": 8480,
      "traits": 8481,
      "phones": 8482,
      "difficulté": 8483,
      "Dise": 8484,
      "tomb": 8485,
      "lir": 8486,
      "graves": 8487,
      "liberté": 8488,
      "Office": 8489,
      "assi": 8490,
      "probantes": 8491,
      "messager": 8492,
      "sûr": 8493,
      "fre": 8494,
      "entendu": 8495,
      "Inscription": 8496,
      "encouragement": 8497,
      "nanomé": 8498,
      "020": 8499,
      "SEN": 8500,
      "posée": 8501,
      "COMMUNITY": 8502,
      "946": 8503,
      "itÃ": 8504,
      "chée": 8505,
      "ney": 8506,
      "réalité": 8507,
      "Proto": 8508,
      "141": 8509,
      "longitudin": 8510,
      "panne": 8511,
      "technologique": 8512,
      "sectori": 8513,
      "accumu": 8514,
      "Contr": 8515,
      "PARTIE": 8516,
      "grossesse": 8517,
      "410": 8518,
      "chercher": 8519,
      "alisations": 8520,
      "impossible": 8521,
      "femme": 8522,
      "Mesure": 8523,
      "NORTH": 8524,
      "sp": 8525,
      "enri": 8526,
      "raine": 8527,
      "propi": 8528,
      "métriques": 8529,
      "forte": 8530,
      "verre": 8531,
      "lette": 8532,
      "objets": 8533,
      "intégrés": 8534,
      "sangu": 8535,
      "B2": 8536,
      "VII": 8537,
      "habituelle": 8538,
      "essentielle": 8539,
      "signaler": 8540,
      "précoce": 8541,
      "portez": 8542,
      "126": 8543,
      "fabriqué": 8544,
      "TRES": 8545,
      "définies": 8546,
      "acquises": 8547,
      "bara": 8548,
      "chlorhydrate": 8549,
      "additionnel": 8550,
      "complètes": 8551,
      "campagne": 8552,
      "independantautres": 8553,
      "428": 8554,
      "Statu": 8555,
      "ITED": 8556,
      "ménages": 8557,
      "aigu": 8558,
      "Stre": 8559,
      "Qua": 8560,
      "exigés": 8561,
      "ll": 8562,
      "mat": 8563,
      "mix": 8564,
      "CIL": 8565,
      "autoriser": 8566,
      "satisfaction": 8567,
      "saison": 8568,
      "raccord": 8569,
      "réunir": 8570,
      "renonciation": 8571,
      "embryons": 8572,
      "stimuler": 8573,
      "M5": 8574,
      "vrac": 8575,
      "Agente": 8576,
      "subventionnaires": 8577,
      "chargés": 8578,
      "opérationnelles": 8579,
      "GRAND": 8580,
      "seuls": 8581,
      "remarquer": 8582,
      "Russie": 8583,
      "performan": 8584,
      "Cam": 8585,
      "SOU": 8586,
      "TVP": 8587,
      "contrôlées": 8588,
      "touchent": 8589,
      "excédentaire": 8590,
      "arbit": 8591,
      "gouverneur": 8592,
      "CCR": 8593,
      "répondant": 8594,
      "législative": 8595,
      "récupérer": 8596,
      "démarrage": 8597,
      "Fédé": 8598,
      "amateur": 8599,
      "bénéficient": 8600,
      "lésions": 8601,
      "correctement": 8602,
      "drawback": 8603,
      "CENTR": 8604,
      "field": 8605,
      "positive": 8606,
      "concertée": 8607,
      "comprises": 8608,
      "CORD": 8609,
      "salu": 8610,
      "cardiaque": 8611,
      "780": 8612,
      "Miss": 8613,
      "endroits": 8614,
      "courants": 8615,
      "acquisitions": 8616,
      "rural": 8617,
      "Japon": 8618,
      "KA": 8619,
      "pâ": 8620,
      "cote": 8621,
      "abeth": 8622,
      "souligne": 8623,
      "Liens": 8624,
      "Barbara": 8625,
      "transitoire": 8626,
      "OTTAWA": 8627,
      "repose": 8628,
      "ignent": 8629,
      "motiv": 8630,
      "renvoy": 8631,
      "organisationnelle": 8632,
      "REEE": 8633,
      "gal": 8634,
      "lex": 8635,
      "atte": 8636,
      "occasionne": 8637,
      "Associé": 8638,
      "boutique": 8639,
      "appuyant": 8640,
      "contenus": 8641,
      "vage": 8642,
      "comptable": 8643,
      "RED": 8644,
      "truct": 8645,
      "ACC": 8646,
      "assumer": 8647,
      "habil": 8648,
      "appelée": 8649,
      "analyser": 8650,
      "compagnies": 8651,
      "lossaire": 8652,
      "vraiment": 8653,
      "bus": 8654,
      "aus": 8655,
      "illets": 8656,
      "129": 8657,
      "bert": 8658,
      "pense": 8659,
      "exécuter": 8660,
      "PAROIS": 8661,
      "Poste": 8662,
      "TOWNSHIP": 8663,
      "cardiovasculaire": 8664,
      "testation": 8665,
      "ann": 8666,
      "omique": 8667,
      "récomp": 8668,
      "foresti": 8669,
      "écrire": 8670,
      "conteneurs": 8671,
      "génome": 8672,
      "manifestations": 8673,
      "vérificateur": 8674,
      "phosph": 8675,
      "Hab": 8676,
      "PL": 8677,
      "Phar": 8678,
      "ato": 8679,
      "méthyle": 8680,
      "estimations": 8681,
      "attestation": 8682,
      "exonéré": 8683,
      "influenza": 8684,
      "Jusqu": 8685,
      "manuels": 8686,
      "imputés": 8687,
      "fila": 8688,
      "147": 8689,
      "expan": 8690,
      "réalisée": 8691,
      "Art": 8692,
      "portefeuille": 8693,
      "forfaitaire": 8694,
      "Petit": 8695,
      "cter": 8696,
      "fir": 8697,
      "iteurs": 8698,
      "crédité": 8699,
      "sensibiliser": 8700,
      "complémentaires": 8701,
      "GER": 8702,
      "HAR": 8703,
      "pédia": 8704,
      "contractu": 8705,
      "envoyées": 8706,
      "major": 8707,
      "DÉCLAR": 8708,
      "diplômés": 8709,
      "revues": 8710,
      "envisager": 8711,
      "pleinement": 8712,
      "secrétaire": 8713,
      "Lettre": 8714,
      "RIVER": 8715,
      "dehors": 8716,
      "débou": 8717,
      "instrument": 8718,
      "(%)": 8719,
      "210": 8720,
      "420": 8721,
      "Sau": 8722,
      "locales": 8723,
      "endre": 8724,
      "réputées": 8725,
      "EC": 8726,
      "Sun": 8727,
      "Unique": 8728,
      "rains": 8729,
      "dispens": 8730,
      "industries": 8731,
      "Changement": 8732,
      "Lun": 8733,
      "NES": 8734,
      "déclarez": 8735,
      "subventionnés": 8736,
      "délivrer": 8737,
      "organes": 8738,
      "PAROISSE": 8739,
      "GRE": 8740,
      "PDE": 8741,
      "comptant": 8742,
      "ajoute": 8743,
      "polymères": 8744,
      "Documents": 8745,
      "opinions": 8746,
      "EVF": 8747,
      "usement": 8748,
      "als": 8749,
      "explications": 8750,
      "essentielles": 8751,
      "faudra": 8752,
      "Chercheur": 8753,
      "330": 8754,
      "retenus": 8755,
      "adrc": 8756,
      "rence": 8757,
      "apportés": 8758,
      "Technolo": 8759,
      "Lég": 8760,
      "dues": 8761,
      "parlement": 8762,
      "certitude": 8763,
      "dsor": 8764,
      "232": 8765,
      "bulletins": 8766,
      "perçue": 8767,
      "mensuel": 8768,
      "froid": 8769,
      "Sim": 8770,
      "gs": 8771,
      "bière": 8772,
      "transmises": 8773,
      "................................................": 8774,
      "régulier": 8775,
      "REEP": 8776,
      "mauvais": 8777,
      "cigarettes": 8778,
      "Allemagne": 8779,
      "récents": 8780,
      "volets": 8781,
      "121": 8782,
      "couleur": 8783,
      "placebo": 8784,
      "sensibles": 8785,
      "orienter": 8786,
      "FORD": 8787,
      "fixé": 8788,
      "articu": 8789,
      "Chlorure": 8790,
      "nanomédecine": 8791,
      "Windsor": 8792,
      "REVENU": 8793,
      "Ci": 8794,
      "indirectement": 8795,
      "ated": 8796,
      "CHER": 8797,
      "achetez": 8798,
      "Memor": 8799,
      "gene": 8800,
      "individuelles": 8801,
      "Catég": 8802,
      "Environ": 8803,
      "transparence": 8804,
      "émises": 8805,
      "revient": 8806,
      "insul": 8807,
      "contenir": 8808,
      "rencontr": 8809,
      "rigou": 8810,
      "condamné": 8811,
      "èlement": 8812,
      "segment": 8813,
      "optique": 8814,
      "influent": 8815,
      "ethnique": 8816,
      "bâtiments": 8817,
      "Regina": 8818,
      "expansion": 8819,
      "soin": 8820,
      "buc": 8821,
      "Coordonnées": 8822,
      "ADMIN": 8823,
      "coupable": 8824,
      "réservé": 8825,
      "aviez": 8826,
      "délivré": 8827,
      "cinémato": 8828,
      "010": 8829,
      "D10": 8830,
      "DIS": 8831,
      "UE": 8832,
      "fou": 8833,
      "ffa": 8834,
      "proviennent": 8835,
      "acquise": 8836,
      "Mary": 8837,
      "cautionnement": 8838,
      "––––––––": 8839,
      "MISSION": 8840,
      "dommages": 8841,
      "TEN": 8842,
      "nière": 8843,
      "nomin": 8844,
      "______": 8845,
      "environnementales": 8846,
      "CANADIEN": 8847,
      "visuelle": 8848,
      "chose": 8849,
      "prestataires": 8850,
      "You": 8851,
      "passée": 8852,
      "véni": 8853,
      "And": 8854,
      "112": 8855,
      "Ha": 8856,
      "MCC": 8857,
      "prou": 8858,
      "uniforme": 8859,
      "cton": 8860,
      "prendra": 8861,
      "examinés": 8862,
      "échelon": 8863,
      "favorisent": 8864,
      "Modifications": 8865,
      "Présentation": 8866,
      "ric": 8867,
      "passage": 8868,
      "discontinues": 8869,
      "Law": 8870,
      "domes": 8871,
      "Assemb": 8872,
      "DUCTION": 8873,
      "confirmé": 8874,
      "volonté": 8875,
      "Human": 8876,
      "commanditaire": 8877,
      "incombe": 8878,
      "ADMINISTR": 8879,
      "ALENA": 8880,
      "Remplir": 8881,
      "meur": 8882,
      "abus": 8883,
      "déplacements": 8884,
      "ount": 8885,
      "Signature": 8886,
      "LIMITED": 8887,
      "Uniquement": 8888,
      "kin": 8889,
      "évalué": 8890,
      "suffisant": 8891,
      "embryon": 8892,
      "convaincu": 8893,
      "hori": 8894,
      "chirurgi": 8895,
      "succursale": 8896,
      "ffage": 8897,
      "Tel": 8898,
      "van": 8899,
      "leu": 8900,
      "loin": 8901,
      "camp": 8902,
      "préparations": 8903,
      "douanières": 8904,
      "répartis": 8905,
      "assister": 8906,
      "AGEMENT": 8907,
      "Memorial": 8908,
      "anony": 8909,
      "1971": 8910,
      "Projet": 8911,
      "prescrits": 8912,
      "grandement": 8913,
      "facilit": 8914,
      "couvrir": 8915,
      "ASSOCIATION": 8916,
      "ISES": 8917,
      "jugés": 8918,
      "inscrites": 8919,
      "Renfor": 8920,
      "augmente": 8921,
      "Grand": 8922,
      "légumes": 8923,
      "mettez": 8924,
      "Province": 8925,
      "fortement": 8926,
      "annuellement": 8927,
      "DGFA": 8928,
      "BEC": 8929,
      "plastiques": 8930,
      "envisag": 8931,
      "630": 8932,
      "BURE": 8933,
      "Tables": 8934,
      "VA": 8935,
      "devoir": 8936,
      "verso": 8937,
      "béco": 8938,
      "concepts": 8939,
      "élargir": 8940,
      "D3": 8941,
      "Dani": 8942,
      "rencontres": 8943,
      "gouvernemental": 8944,
      "ock": 8945,
      "intérieurs": 8946,
      "DÉCI": 8947,
      "Journal": 8948,
      "Éthique": 8949,
      "225": 8950,
      "GEN": 8951,
      "RM": 8952,
      "réellement": 8953,
      "quatrième": 8954,
      "diriger": 8955,
      "expédiées": 8956,
      "Inuits": 8957,
      "Eliz": 8958,
      "parag": 8959,
      "cerner": 8960,
      "plaques": 8961,
      "infanti": 8962,
      "exigé": 8963,
      "multiculturalisme": 8964,
      "mentionne": 8965,
      "majeure": 8966,
      "postsecondaire": 8967,
      "Contra": 8968,
      "Lang": 8969,
      "Sum": 8970,
      "metière": 8971,
      "accident": 8972,
      "aménagement": 8973,
      "226": 8974,
      "autorisées": 8975,
      "choisissez": 8976,
      "faute": 8977,
      "englobe": 8978,
      "seconde": 8979,
      "Jeff": 8980,
      "403": 8981,
      "Anti": 8982,
      "télévision": 8983,
      "occupé": 8984,
      "préparé": 8985,
      "contrôler": 8986,
      "consacrer": 8987,
      "Medicine": 8988,
      "Appels": 8989,
      "hospitalier": 8990,
      "VH": 8991,
      "foi": 8992,
      "forment": 8993,
      "collo": 8994,
      "précisé": 8995,
      "apparition": 8996,
      "cyl": 8997,
      "entiﬁ": 8998,
      "adoptées": 8999,
      "respectent": 9000,
      "We": 9001,
      "oriser": 9002,
      "électrique": 9003,
      "infrastructures": 9004,
      "lamino": 9005,
      "Port": 9006,
      "archivées": 9007,
      "Vé": 9008,
      "ores": 9009,
      "sec": 9010,
      "alisée": 9011,
      "présidents": 9012,
      "Mais": 9013,
      "officiellement": 9014,
      "vendez": 9015,
      "Policy": 9016,
      "négociation": 9017,
      "restriction": 9018,
      "coopérative": 9019,
      "Portefeuille": 9020,
      "D8": 9021,
      "STA": 9022,
      "vivre": 9023,
      "cais": 9024,
      "aban": 9025,
      "feront": 9026,
      "stagiaire": 9027,
      "raccords": 9028,
      "-{": 9029,
      "Cab": 9030,
      "rages": 9031,
      "veux": 9032,
      "Bureaux": 9033,
      "favorisant": 9034,
      "adulte": 9035,
      "Bruce": 9036,
      "Protocole": 9037,
      "$;": 9038,
      "Ori": 9039,
      "if": 9040,
      "unitaire": 9041,
      "CITY": 9042,
      "7775": 9043,
      "complications": 9044,
      "novatrices": 9045,
      "ôture": 9046,
      "ington": 9047,
      "jointe": 9048,
      "meurer": 9049,
      "collective": 9050,
      "AUTRES": 9051,
      "attache": 9052,
      "rencontrer": 9053,
      "Gene": 9054,
      "Euro": 9055,
      "demeurer": 9056,
      "siè": 9057,
      "fas": 9058,
      "réalisées": 9059,
      "différente": 9060,
      "étroitement": 9061,
      "épo": 9062,
      "détention": 9063,
      "excède": 9064,
      "admis": 9065,
      "saillants": 9066,
      "immunité": 9067,
      "spécialiste": 9068,
      "MANAGEMENT": 9069,
      "souffrance": 9070,
      "gov": 9071,
      "Fraser": 9072,
      "historique": 9073,
      "prolong": 9074,
      "district": 9075,
      "issau": 9076,
      "intéresse": 9077,
      "Dispositions": 9078,
      "extrême": 9079,
      "DC": 9080,
      "traduction": 9081,
      "bais": 9082,
      "Accès": 9083,
      "PERSON": 9084,
      "Médi": 9085,
      "Durant": 9086,
      "compléter": 9087,
      "Intérêts": 9088,
      "OK": 9089,
      "finance": 9090,
      "tric": 9091,
      "Exp": 9092,
      "Annu": 9093,
      "expliqué": 9094,
      "PORTÉ": 9095,
      "langage": 9096,
      "provisions": 9097,
      "ACIA": 9098,
      "École": 9099,
      "entrepôts": 9100,
      "lignées": 9101,
      "calci": 9102,
      "chimique": 9103,
      "intérimaire": 9104,
      "imprimé": 9105,
      "Communiqué": 9106,
      "atherine": 9107,
      "IDE": 9108,
      "Mus": 9109,
      "tements": 9110,
      "créée": 9111,
      "illustre": 9112,
      "automatiquement": 9113,
      "bicyclettes": 9114,
      "complexité": 9115,
      "HR": 9116,
      "Ãª": 9117,
      "édition": 9118,
      "reliées": 9119,
      "passées": 9120,
      "pipéri": 9121,
      "Production": 9122,
      "Drs": 9123,
      "adapter": 9124,
      "innovatrice": 9125,
      "Classe": 9126,
      "George": 9127,
      "Fournitures": 9128,
      "Elizabeth": 9129,
      "introduction": 9130,
      "scientiﬁ": 9131,
      "joué": 9132,
      "cellulaires": 9133,
      "Règle": 9134,
      "ampleur": 9135,
      "Dates": 9136,
      "innovatrices": 9137,
      "psychologie": 9138,
      "prévalence": 9139,
      "Et": 9140,
      "Ken": 9141,
      "mène": 9142,
      "natrice": 9143,
      "Pourquoi": 9144,
      "Ang": 9145,
      "Analyse": 9146,
      "lauréat": 9147,
      "Industries": 9148,
      "FIRE": 9149,
      "évi": 9150,
      "visiter": 9151,
      "Envoyez": 9152,
      "oline": 9153,
      "hôtel": 9154,
      "minutes": 9155,
      "040": 9156,
      "GO": 9157,
      "élu": 9158,
      "ental": 9159,
      "réta": 9160,
      "versez": 9161,
      "interpr": 9162,
      "statistique": 9163,
      "Paiement": 9164,
      "productivité": 9165,
      "Malgré": 9166,
      "Enquête": 9167,
      "2R": 9168,
      "Fe": 9169,
      "GC": 9170,
      "oubli": 9171,
      "endront": 9172,
      "cédents": 9173,
      "liquidation": 9174,
      "Vérification": 9175,
      "BU": 9176,
      "Bis": 9177,
      "lour": 9178,
      "dépression": 9179,
      "calendrier": 9180,
      "investir": 9181,
      "Postes": 9182,
      "T10": 9183,
[...]
